<unk>	0
,	-2.90491
.	-3.10332
▁the	-3.26667
▁and	-3.61216
s	-3.78771
▁to	-3.78811
'	-3.79731
▁of	-3.86263
▁a	-3.89467
▁that	-4.06863
▁i	-4.18667
▁in	-4.2392
▁it	-4.25935
▁you	-4.34107
▁we	-4.40718
▁is	-4.47399
▁this	-4.70724
▁so	-4.98642
▁they	-5.11724
▁was	-5.21015
▁for	-5.22105
t	-5.23146
▁are	-5.29697
▁have	-5.30546
▁but	-5.3425
▁what	-5.35423
▁on	-5.35527
▁--	-5.38535
▁with	-5.4093
▁can	-5.44506
-	-5.51714
▁about	-5.56071
▁be	-5.58293
▁there	-5.59121
re	-5.59299
?	-5.6406
▁all	-5.66292
▁at	-5.68595
▁do	-5.69242
▁not	-5.69379
▁one	-5.7206
▁"	-5.76462
▁as	-5.77178
▁my	-5.77516
▁people	-5.80698
▁like	-5.83366
▁if	-5.8502
▁from	-5.87341
▁now	-5.9362
▁an	-5.9479
▁he	-5.96078
▁or	-5.96745
▁these	-5.97304
▁just	-5.97925
▁our	-5.99429
:	-6.01144
▁when	-6.03307
▁because	-6.06069
▁very	-6.07871
▁me	-6.10057
▁out	-6.10075
m	-6.10646
▁by	-6.13734
▁know	-6.13889
ing	-6.17205
▁going	-6.17273
▁up	-6.18405
▁how	-6.19503
▁them	-6.21015
▁more	-6.23429
▁think	-6.23895
d	-6.25699
▁see	-6.26026
▁had	-6.26188
▁which	-6.27334
▁who	-6.28624
ve	-6.29613
▁here	-6.29698
▁your	-6.30127
▁their	-6.31956
▁really	-6.33413
▁would	-6.33814
▁get	-6.34249
▁were	-6.3551
."	-6.38423
▁then	-6.39602
▁world	-6.41591
▁time	-6.43415
▁some	-6.4534
▁us	-6.45552
▁has	-6.49067
▁actually	-6.51751
▁don	-6.51785
▁into	-6.52884
▁way	-6.53302
▁where	-6.5741
▁will	-6.57699
ed	-6.58336
▁go	-6.58536
▁things	-6.59887
▁other	-6.60171
▁years	-6.60445
▁want	-6.61991
▁could	-6.656
▁no	-6.66516
▁make	-6.67126
▁been	-6.69201
▁right	-6.71851
▁well	-6.72506
▁said	-6.75576
▁she	-6.7714
▁something	-6.77605
▁two	-6.77974
▁first	-6.79456
▁those	-6.79538
▁much	-6.83623
▁than	-6.84281
▁look	-6.85063
▁over	-6.86028
▁thing	-6.87535
▁also	-6.87624
▁new	-6.8801
▁little	-6.88095
▁got	-6.89346
▁back	-6.9005
▁say	-6.91742
ll	-6.9519
▁most	-6.95797
▁work	-6.96966
▁only	-6.97625
▁life	-6.98056
▁his	-6.99023
▁even	-6.9919
▁need	-7.00549
▁take	-7.00865
▁kind	-7.02758
▁many	-7.02878
▁♫	-7.05223
▁lot	-7.06229
▁	-7.06385
▁good	-7.06623
▁did	-7.09378
▁around	-7.12284
▁different	-7.14721
▁every	-7.15481
▁let	-7.1674
▁down	-7.1726
▁why	-7.17728
▁through	-7.20768
▁come	-7.21395
▁same	-7.22485
▁her	-7.22582
;	-7.23918
▁use	-7.24785
▁being	-7.26821
▁three	-7.27708
▁put	-7.27864
▁doing	-7.30518
ly	-7.31502
▁day	-7.31727
i	-7.37158
▁any	-7.38222
▁called	-7.39351
▁percent	-7.41031
▁human	-7.41999
▁today	-7.42549
▁tell	-7.43222
▁made	-7.43551
▁find	-7.43976
▁great	-7.44935
▁thank	-7.45205
▁after	-7.45546
▁fact	-7.46852
▁year	-7.4765
▁talk	-7.48868
▁change	-7.49948
▁should	-7.50285
▁last	-7.51053
▁idea	-7.52214
▁another	-7.52744
▁didn	-7.5376
y	-7.54463
▁big	-7.5513
▁own	-7.55707
▁started	-7.57226
?"	-7.57262
▁give	-7.5786
▁before	-7.57916
▁thought	-7.58629
▁course	-7.59526
▁went	-7.6118
▁might	-7.61833
▁better	-7.62248
▁important	-7.62805
▁never	-7.63326
▁problem	-7.63727
▁part	-7.63876
▁start	-7.65481
▁again	-7.65619
▁brain	-7.65864
▁show	-7.66784
▁system	-7.66902
▁off	-7.66922
▁still	-7.6799
▁able	-7.68142
▁does	-7.68482
▁next	-7.68516
▁ago	-7.7006
▁together	-7.70113
n	-7.70226
▁long	-7.70229
▁each	-7.70701
"	-7.7073
e	-7.71007
▁bit	-7.71016
▁water	-7.71242
▁story	-7.71342
▁him	-7.72295
▁place	-7.72379
▁came	-7.72883
er	-7.73484
▁few	-7.75223
▁mean	-7.76375
▁technology	-7.76977
▁question	-7.78372
▁between	-7.78397
▁used	-7.79518
▁end	-7.8065
▁example	-7.81453
▁love	-7.81705
▁women	-7.81791
▁point	-7.82449
▁found	-7.82904
r	-7.82941
▁looking	-7.83063
▁maybe	-7.83901
▁too	-7.83919
▁sort	-7.84406
▁data	-7.85005
▁school	-7.85096
▁done	-7.85437
a	-7.85603
▁doesn	-7.857
▁understand	-7.86741
▁four	-7.87697
,"	-7.87834
▁live	-7.88638
▁call	-7.88741
▁real	-7.88757
▁whole	-7.90005
▁may	-7.9047
▁wanted	-7.9051
c	-7.91491
▁million	-7.91806
▁believe	-7.91843
▁ever	-7.92034
▁children	-7.92544
▁trying	-7.92565
▁working	-7.93641
▁try	-7.94622
▁always	-7.9514
▁person	-7.95232
▁away	-7.95456
▁feel	-7.95643
▁10	-7.96357
▁everything	-7.97614
▁help	-7.97629
▁second	-7.97803
▁five	-7.98076
▁number	-7.98401
▁space	-7.99402
▁country	-7.9995
▁man	-8.00989
▁design	-8.01095
▁using	-8.02613
▁create	-8.03509
▁high	-8.04265
▁kids	-8.04522
▁information	-8.04593
▁power	-8.05139
▁took	-8.05799
▁become	-8.06404
▁thinking	-8.06643
▁money	-8.07315
▁means	-8.07557
▁small	-8.07689
▁light	-8.08144
▁home	-8.08428
▁left	-8.08956
▁old	-8.09084
▁quite	-8.10334
al	-8.10977
▁enough	-8.11136
▁getting	-8.11273
▁sense	-8.11399
▁best	-8.11588
▁hard	-8.11909
▁probably	-8.12245
▁social	-8.12403
▁food	-8.12628
▁future	-8.13969
▁ask	-8.14503
▁energy	-8.14729
▁less	-8.15588
▁building	-8.15979
▁play	-8.16451
▁happened	-8.16545
▁city	-8.17048
▁interesting	-8.17258
▁without	-8.17898
▁talking	-8.1824
▁making	-8.18305
▁comes	-8.18861
▁stuff	-8.19089
▁20	-8.19223
▁times	-8.19494
▁pretty	-8.19647
▁science	-8.19905
▁body	-8.21263
g	-8.22072
▁build	-8.22207
▁such	-8.22325
▁told	-8.22415
!	-8.22561
▁anything	-8.22653
▁hand	-8.22876
es	-8.2302
▁half	-8.23317
▁coming	-8.234
▁moment	-8.23554
▁countries	-8.23731
▁earth	-8.24069
▁dollars	-8.24334
▁side	-8.24885
▁happen	-8.25007
▁car	-8.25584
▁imagine	-8.259
▁bring	-8.26001
▁across	-8.26435
in	-8.26615
▁once	-8.27046
▁lives	-8.27416
▁room	-8.27831
▁later	-8.28832
▁living	-8.28864
th	-8.29053
▁experience	-8.29328
▁men	-8.29416
▁health	-8.2969
▁move	-8.29716
▁africa	-8.29788
▁else	-8.29831
▁simple	-8.29869
▁bad	-8.29962
▁am	-8.29963
▁open	-8.30076
▁far	-8.30688
▁seen	-8.30716
▁having	-8.30812
▁saw	-8.30814
o	-8.30929
▁yet	-8.3126
▁basically	-8.31263
▁care	-8.31514
▁picture	-8.31531
▁project	-8.31614
▁reason	-8.3176
▁goes	-8.32048
▁asked	-8.32057
▁while	-8.33078
▁computer	-8.33772
▁u	-8.34395
▁case	-8.34438
▁learn	-8.34887
▁mind	-8.3491
▁six	-8.35644
▁happens	-8.3583
▁family	-8.35859
▁whether	-8.36331
▁almost	-8.36331
▁book	-8.36547
▁business	-8.36872
▁process	-8.37334
▁nothing	-8.37651
▁single	-8.37857
▁inside	-8.3796
▁says	-8.38527
▁remember	-8.38761
▁war	-8.38813
▁planet	-8.38972
▁top	-8.39085
▁set	-8.39198
▁young	-8.39303
▁both	-8.39793
▁global	-8.40209
▁states	-8.4034
▁under	-8.404
▁guy	-8.40601
▁within	-8.40602
▁possible	-8.41572
▁makes	-8.41875
▁someone	-8.42006
▁problems	-8.42094
▁hope	-8.42102
l	-8.42124
▁everybody	-8.42275
▁keep	-8.42531
▁already	-8.42775
▁saying	-8.42913
▁okay	-8.42986
▁matter	-8.43157
▁answer	-8.43419
▁child	-8.43586
▁days	-8.44377
▁history	-8.44402
▁billion	-8.4462
▁wrong	-8.45225
▁looked	-8.46748
▁true	-8.46912
▁public	-8.46921
▁re	-8.46986
the	-8.47138
▁age	-8.47252
▁sure	-8.47292
▁cancer	-8.47317
▁often	-8.47331
▁video	-8.47494
▁couple	-8.47951
▁community	-8.48163
▁myself	-8.48592
▁order	-8.49125
▁ways	-8.49654
▁read	-8.49667
▁heard	-8.49857
▁since	-8.50206
▁turn	-8.5023
▁face	-8.50374
▁ideas	-8.50774
▁instead	-8.51078
▁un	-8.51178
▁united	-8.51216
▁language	-8.51241
▁self	-8.51513
▁government	-8.51652
▁cells	-8.51657
▁group	-8.52257
▁music	-8.52287
▁sometimes	-8.52397
▁control	-8.52817
▁words	-8.52951
▁head	-8.52972
▁built	-8.53073
u	-8.53327
▁beautiful	-8.53452
’	-8.53631
▁until	-8.53631
▁amazing	-8.53789
▁isn	-8.54541
▁per	-8.54762
▁months	-8.55026
▁piece	-8.55135
▁universe	-8.55332
▁nature	-8.55448
k	-8.55725
▁state	-8.56064
▁species	-8.56137
▁run	-8.56419
▁job	-8.56424
▁research	-8.56555
▁line	-8.56859
▁form	-8.56964
▁woman	-8.5718
▁internet	-8.57296
▁somebody	-8.57534
▁heart	-8.57842
▁education	-8.57983
▁middle	-8.57998
▁model	-8.58006
▁large	-8.58468
▁looks	-8.58805
▁stop	-8.59308
▁word	-8.5931
▁exactly	-8.60025
▁completely	-8.60033
▁god	-8.60512
▁wasn	-8.60878
▁decided	-8.60924
▁though	-8.61413
▁stories	-8.61706
▁friends	-8.62064
▁study	-8.62107
▁night	-8.62343
▁share	-8.62398
▁[	-8.62518
▁hear	-8.62688
▁must	-8.62697
▁art	-8.62697
ers	-8.62705
]	-8.62736
▁society	-8.6281
▁students	-8.63103
▁taking	-8.63428
▁third	-8.64059
▁became	-8.64173
▁rather	-8.64174
▁ok	-8.64315
▁places	-8.64567
▁knew	-8.65052
▁game	-8.65066
▁mother	-8.6507
▁everyone	-8.65073
▁level	-8.65074
▁happening	-8.65237
▁america	-8.65468
▁house	-8.65593
▁itself	-8.65701
▁name	-8.6597
▁animals	-8.66151
▁company	-8.6632
▁india	-8.66913
▁ourselves	-8.6696
▁turns	-8.67039
▁along	-8.67229
▁learned	-8.67279
▁air	-8.67358
▁past	-8.67568
▁environment	-8.67642
▁against	-8.68417
▁huge	-8.6858
▁50	-8.68644
▁30	-8.68679
▁yes	-8.68799
▁minutes	-8.6882
▁themselves	-8.69168
▁perhaps	-8.69299
▁front	-8.69788
▁works	-8.70802
▁sound	-8.71314
p	-8.71334
▁created	-8.71536
▁disease	-8.71593
▁hours	-8.71593
▁won	-8.71703
▁couldn	-8.71915
▁ted	-8.72904
b	-8.72974
▁close	-8.73151
▁least	-8.73461
▁100	-8.73481
▁figure	-8.73624
▁questions	-8.73938
▁particular	-8.73945
▁early	-8.74021
▁worked	-8.74408
▁happy	-8.74566
▁cell	-8.74566
▁thousands	-8.74831
▁finally	-8.75006
▁natural	-8.75054
▁china	-8.75542
▁machine	-8.75663
▁black	-8.75678
▁guys	-8.75796
▁gave	-8.75848
▁seven	-8.7593
▁oil	-8.7598
▁market	-8.7603
▁yeah	-8.7696
▁outside	-8.77136
▁american	-8.7766
▁kinds	-8.77857
▁ocean	-8.78578
▁entire	-8.78599
▁full	-8.78618
▁learning	-8.7899
▁difference	-8.79168
▁taken	-8.79806
▁free	-8.79912
well	-8.8084
▁area	-8.81071
it	-8.81377
ic	-8.81667
▁deal	-8.81835
able	-8.82061
▁leave	-8.8249
▁changed	-8.82615
▁century	-8.82804
▁given	-8.83143
to	-8.83453
▁moving	-8.83549
▁...	-8.83709
▁common	-8.83784
▁news	-8.83793
▁systems	-8.83954
▁easy	-8.84157
ness	-8.8457
▁media	-8.84675
▁beginning	-8.84771
▁♪	-8.84923
▁cities	-8.85079
during	-8.85268
ion	-8.85342
▁green	-8.85383
▁culture	-8.8545
▁land	-8.85604
▁local	-8.85782
▁walk	-8.85851
▁population	-8.85922
▁yourself	-8.86009
▁audience	-8.86239
▁behind	-8.86472
▁whatever	-8.86506
▁turned	-8.86984
▁lots	-8.87142
▁fish	-8.87189
▁difficult	-8.87352
▁size	-8.87621
▁image	-8.87846
▁15	-8.88104
▁blue	-8.88205
▁view	-8.88315
▁paper	-8.88334
▁cost	-8.88436
▁wonderful	-8.88617
▁terms	-8.88985
▁rest	-8.89121
▁economic	-8.89311
▁red	-8.89706
▁companies	-8.90291
▁eyes	-8.9034
▁certain	-8.90382
▁eight	-8.90395
▁center	-8.90679
▁began	-8.91106
▁cannot	-8.91338
▁simply	-8.91597
▁de	-8.92113
▁seeing	-8.9227
▁amount	-8.92317
▁ca	-8.92404
▁others	-8.92416
▁sea	-8.92425
▁longer	-8.92571
▁pay	-8.92706
year	-8.92834
▁york	-8.92892
▁team	-8.93563
▁—	-8.93592
▁gets	-8.93657
▁behavior	-8.93696
▁national	-8.93698
▁powerful	-8.93867
▁test	-8.94148
▁hands	-8.94246
▁spend	-8.94561
▁realized	-8.9462
▁buy	-8.95195
▁death	-8.9524
▁tried	-8.95807
on	-8.95824
▁parents	-8.96131
▁grow	-8.96139
▁needed	-8.96251
▁week	-8.96273
▁father	-8.96466
▁white	-8.9684
▁reality	-8.96858
▁scale	-8.96994
▁co	-8.97159
▁sun	-8.97314
▁interested	-8.97595
▁phone	-8.97898
▁field	-8.98074
▁felt	-8.98221
▁gone	-8.98317
you	-8.98446
▁low	-8.98841
▁either	-8.98926
▁value	-8.98954
▁poor	-8.98988
▁quickly	-8.99132
▁oh	-8.99353
▁animal	-8.99516
f	-8.99579
▁friend	-8.99584
▁growth	-8.99665
old	-8.99668
▁allow	-9.00159
▁parts	-9.00193
▁write	-9.0049
▁dna	-9.00894
▁eat	-9.01257
▁ability	-9.01266
▁step	-9.01343
▁b	-9.01599
▁spent	-9.01616
▁opportunity	-9.01979
or	-9.02112
▁program	-9.02278
an	-9.02491
▁sitting	-9.02534
▁feet	-9.02555
▁ground	-9.02573
▁surface	-9.02656
▁political	-9.02828
what	-9.02833
▁complex	-9.0288
▁incredible	-9.02894
we	-9.03154
▁wouldn	-9.03193
▁street	-9.0325
▁takes	-9.03266
▁morning	-9.03448
▁south	-9.03452
▁short	-9.04081
▁force	-9.04402
▁needs	-9.04431
▁lost	-9.04507
▁economy	-9.04564
▁challenge	-9.04739
▁weeks	-9.0477
▁t	-9.04842
▁watch	-9.04941
▁structure	-9.0496
no	-9.04987
v	-9.04995
▁known	-9.05026
▁voice	-9.05322
▁based	-9.05422
▁realize	-9.05518
▁girl	-9.05711
▁40	-9.05937
▁bottom	-9.06073
▁attention	-9.07036
▁average	-9.07219
▁anyone	-9.07436
▁individual	-9.07597
▁nice	-9.0773
▁patients	-9.08016
▁speak	-9.08175
▁humans	-9.08392
▁stage	-9.08461
▁map	-9.08658
▁fly	-9.08832
ro	-9.0906
▁climate	-9.09161
▁act	-9.09247
▁areas	-9.09475
▁physical	-9.09878
▁forward	-9.10239
▁feeling	-9.10311
▁die	-9.10366
▁result	-9.10525
▁access	-9.10538
▁brought	-9.10538
▁cut	-9.11037
▁clear	-9.11069
▁born	-9.11162
▁growing	-9.11383
▁material	-9.11697
▁key	-9.117
▁shows	-9.12036
▁knowledge	-9.12953
▁literally	-9.12954
▁developed	-9.1306
▁running	-9.1316
▁scientists	-9.13348
▁giving	-9.13362
▁non	-9.13741
▁hundreds	-9.13898
▁dark	-9.1391
▁technologies	-9.13973
▁kid	-9.13993
▁hold	-9.14463
▁understanding	-9.14722
▁books	-9.14755
▁wrote	-9.14799
▁development	-9.14861
▁deep	-9.15003
▁theory	-9.1525
▁met	-9.15261
▁seems	-9.15499
▁north	-9.15655
le	-9.15756
ation	-9.16029
us	-9.16103
▁movement	-9.16121
▁english	-9.16261
ity	-9.16314
▁starting	-9.16368
▁e	-9.16619
▁fun	-9.16807
▁numbers	-9.16851
▁s	-9.16891
▁absolutely	-9.16914
▁support	-9.16942
▁law	-9.17101
▁risk	-9.17349
▁recently	-9.17351
up	-9.17387
▁type	-9.17441
▁fear	-9.1761
▁fast	-9.17694
▁cool	-9.17699
▁normal	-9.179
▁miles	-9.17927
▁nobody	-9.17965
▁personal	-9.18178
▁wall	-9.18223
▁alone	-9.1839
▁images	-9.18438
▁guess	-9.18814
▁issue	-9.18966
▁blood	-9.18978
▁save	-9.19329
▁ice	-9.19387
▁changes	-9.19554
▁stand	-9.19609
▁tools	-9.19802
▁film	-9.19956
▁explain	-9.1999
▁telling	-9.20032
▁relationship	-9.20048
▁color	-9.20128
▁meet	-9.20134
▁web	-9.20634
▁truth	-9.21
▁begin	-9.21167
▁choice	-9.21397
▁network	-9.21408
▁revolution	-9.21429
man	-9.21479
▁lab	-9.21666
oh	-9.21674
▁patient	-9.21856
▁online	-9.21858
▁creating	-9.22106
▁cars	-9.22324
▁12	-9.2246
▁innovation	-9.22532
▁europe	-9.22541
▁shape	-9.22584
▁c	-9.22624
el	-9.22766
▁discovered	-9.22848
▁playing	-9.22933
▁chance	-9.2299
▁impact	-9.22992
▁industry	-9.23227
▁present	-9.23319
▁showed	-9.23436
▁focus	-9.23452
▁developing	-9.23634
▁major	-9.23669
▁d	-9.23816
▁soon	-9.23859
▁modern	-9.23889
ting	-9.23909
2	-9.23924
▁seem	-9.2397
▁medical	-9.24135
▁millions	-9.2417
▁solve	-9.24171
▁experiment	-9.24694
▁produce	-9.24841
▁obviously	-9.24858
▁add	-9.24946
▁university	-9.25047
▁send	-9.25072
▁perfect	-9.25196
▁rate	-9.25373
▁especially	-9.25508
▁asking	-9.25526
▁18	-9.25743
▁anybody	-9.25743
▁product	-9.25781
▁p	-9.2602
▁incredibly	-9.26202
▁solution	-9.2627
▁special	-9.26402
▁resources	-9.26721
▁situation	-9.26745
▁general	-9.26854
▁message	-9.26986
▁hundred	-9.26988
▁talked	-9.27018
▁evidence	-9.2737
▁nine	-9.27846
▁writing	-9.27852
▁available	-9.28079
▁baby	-9.28079
▁dead	-9.28727
▁haven	-9.28831
▁changing	-9.29041
▁generation	-9.29415
▁issues	-9.29613
▁effect	-9.2965
▁tiny	-9.29753
▁involved	-9.29771
▁designed	-9.29771
▁office	-9.29852
▁chinese	-9.30231
▁solar	-9.30234
▁led	-9.30281
ist	-9.30525
en	-9.3058
▁mass	-9.30636
▁eye	-9.30679
▁robot	-9.30862
▁gives	-9.30989
▁box	-9.31196
▁putting	-9.3153
▁drive	-9.31551
▁several	-9.31694
▁indeed	-9.31694
▁o	-9.31859
▁beyond	-9.32185
▁bigger	-9.32197
▁google	-9.32929
▁boy	-9.32937
▁aren	-9.33128
▁reasons	-9.33161
▁ones	-9.33176
▁girls	-9.33405
▁software	-9.33426
▁pick	-9.33518
▁similar	-9.33597
▁teach	-9.33932
▁pictures	-9.34428
▁drug	-9.34459
▁sit	-9.34511
ar	-9.34588
▁device	-9.34701
▁fall	-9.34753
▁carbon	-9.34787
▁tend	-9.34865
▁died	-9.34989
▁lived	-9.35008
▁certainly	-9.35039
▁basic	-9.35183
▁speed	-9.35197
▁notice	-9.35304
▁table	-9.35494
▁60	-9.35502
▁hit	-9.35516
▁sex	-9.35652
▁treat	-9.35755
▁computers	-9.35813
▁stay	-9.35909
▁security	-9.36217
▁action	-9.36282
▁evolution	-9.36467
ne	-9.36539
▁international	-9.36657
is	-9.36737
▁likely	-9.3694
▁towards	-9.37118
▁drugs	-9.37228
▁please	-9.37318
▁break	-9.37352
▁particularly	-9.37368
▁r	-9.37472
▁rules	-9.37494
▁vision	-9.37502
▁anyway	-9.37526
▁west	-9.37555
▁journey	-9.37763
▁approach	-9.3817
▁digital	-9.38217
▁suddenly	-9.38317
▁develop	-9.38393
▁provide	-9.3857
ch	-9.38729
▁scientific	-9.38809
▁groups	-9.38897
▁follow	-9.39085
▁becomes	-9.39108
▁worth	-9.39136
▁among	-9.39328
▁object	-9.39448
x	-9.39512
▁25	-9.39595
▁fire	-9.39618
▁sounds	-9.40352
▁code	-9.4038
▁quality	-9.40413
▁moved	-9.4045
▁meaning	-9.40481
▁success	-9.40635
▁student	-9.40839
▁eventually	-9.40942
▁everywhere	-9.40959
▁onto	-9.41251
▁potential	-9.41415
▁east	-9.4144
▁walking	-9.41579
▁month	-9.41613
ra	-9.41658
▁lead	-9.4167
▁compassion	-9.41749
▁camera	-9.41985
ism	-9.42128
less	-9.42202
▁totally	-9.42349
▁hour	-9.42529
▁screen	-9.42914
▁listen	-9.4326
▁period	-9.43262
▁extremely	-9.4343
▁pattern	-9.4363
▁largest	-9.43702
▁reach	-9.43758
▁showing	-9.43789
▁college	-9.43948
▁village	-9.44184
▁further	-9.44225
▁square	-9.44314
▁wind	-9.44392
▁measure	-9.44552
▁biggest	-9.44783
▁exciting	-9.44783
▁memory	-9.44783
▁la	-9.44824
▁strong	-9.44947
▁creative	-9.44998
▁games	-9.45031
▁skin	-9.45077
▁happiness	-9.45346
▁continue	-9.45424
▁higher	-9.45524
▁teachers	-9.45529
h	-9.45693
▁ready	-9.45764
la	-9.45917
il	-9.4606
▁mine	-9.46095
▁dream	-9.46134
▁hospital	-9.46191
▁role	-9.46196
▁materials	-9.46256
ment	-9.4629
▁road	-9.46485
▁thousand	-9.46501
▁essentially	-9.46503
▁wish	-9.46596
▁safe	-9.46653
▁pre	-9.46689
▁democracy	-9.46761
▁son	-9.46773
▁medicine	-9.4678
▁plan	-9.46923
▁violence	-9.47048
▁doctor	-9.47082
and	-9.471
,000	-9.47169
▁list	-9.47268
▁favorite	-9.47359
▁response	-9.47362
▁results	-9.47435
▁jobs	-9.47763
▁k	-9.47867
▁choose	-9.4791
▁source	-9.47988
▁class	-9.47994
▁poverty	-9.48199
▁fundamental	-9.48703
▁late	-9.48704
▁expect	-9.48709
▁wait	-9.48735
▁context	-9.48777
▁fight	-9.48847
ian	-9.48966
▁cause	-9.4897
▁worse	-9.4907
▁positive	-9.493
▁projects	-9.49354
▁song	-9.49557
▁rich	-9.49598
▁organization	-9.49724
▁protect	-9.49874
▁lose	-9.49914
▁crazy	-9.50244
▁sleep	-9.50333
▁spread	-9.50426
▁leaders	-9.50487
▁near	-9.50777
▁record	-9.50906
▁named	-9.50994
▁door	-9.51008
▁teacher	-9.51022
▁travel	-9.51095
▁goal	-9.51216
ta	-9.51216
▁connected	-9.51256
▁visual	-9.51372
▁usually	-9.5145
▁content	-9.51461
▁trees	-9.51504
▁schools	-9.51647
▁plants	-9.51684
▁gas	-9.51685
▁movie	-9.51876
▁bunch	-9.52034
▁nuclear	-9.52036
▁watching	-9.52067
▁somewhere	-9.52071
ies	-9.52206
▁faster	-9.52396
▁peace	-9.5245
▁smart	-9.52586
▁activity	-9.52638
▁trust	-9.52894
▁80	-9.53048
▁lower	-9.53076
▁g	-9.53121
▁perspective	-9.53243
▁impossible	-9.53245
▁zero	-9.5326
▁post	-9.53443
▁hiv	-9.53524
▁extraordinary	-9.53548
▁african	-9.53579
▁al	-9.53586
▁fine	-9.53809
▁grew	-9.53857
▁finding	-9.53864
▁recognize	-9.53967
te	-9.53968
▁minute	-9.5407
▁site	-9.5409
▁except	-9.54146
▁sent	-9.54168
do	-9.54186
▁hot	-9.54337
▁individuals	-9.5437
▁wonder	-9.54429
▁shown	-9.54455
▁communities	-9.54468
▁examples	-9.54523
▁mom	-9.54715
▁main	-9.54891
▁freedom	-9.55088
▁supposed	-9.55109
▁models	-9.55145
▁conditions	-9.55146
▁larger	-9.55192
▁consider	-9.55334
▁page	-9.55341
rs	-9.55355
▁slow	-9.55558
▁tree	-9.55637
▁pain	-9.5567
▁above	-9.55711
▁moral	-9.55949
▁rise	-9.56028
▁tool	-9.56071
▁somehow	-9.56156
▁price	-9.5627
z	-9.56587
▁extra	-9.56654
▁increase	-9.56716
▁decision	-9.56919
▁progress	-9.56943
▁killed	-9.57101
▁pull	-9.5727
▁studies	-9.57281
▁draw	-9.57345
▁objects	-9.57442
▁meant	-9.57523
▁position	-9.57565
▁including	-9.57598
▁however	-9.57766
▁chris	-9.57811
▁traditional	-9.57862
▁taught	-9.57917
▁exist	-9.58191
li	-9.58201
ive	-9.58204
▁reading	-9.58215
▁service	-9.58222
▁central	-9.5823
▁complicated	-9.58236
▁wife	-9.58237
▁kill	-9.58314
▁conversation	-9.58543
▁allowed	-9.58805
▁bacteria	-9.58856
▁training	-9.59064
▁path	-9.59191
▁truly	-9.59206
▁starts	-9.59299
est	-9.59352
▁arm	-9.59446
ri	-9.59486
▁therefore	-9.59525
▁interest	-9.59534
▁ended	-9.5971
▁older	-9.59722
▁200	-9.598
▁park	-9.5986
ry	-9.59929
▁clearly	-9.59958
▁cold	-9.60141
▁biology	-9.60176
▁search	-9.60267
lo	-9.60319
▁although	-9.60502
▁families	-9.60502
▁region	-9.60554
▁upon	-9.60569
▁crisis	-9.60831
▁alive	-9.60841
▁successful	-9.61097
▁critical	-9.61102
▁standing	-9.61149
▁series	-9.6116
▁electricity	-9.61165
!"	-9.61196
▁waste	-9.61249
▁current	-9.61422
▁excited	-9.61506
▁buildings	-9.61569
▁products	-9.61738
▁architecture	-9.6182
▁specific	-9.6183
if	-9.61889
▁plant	-9.61901
ter	-9.62123
▁treatment	-9.62229
▁serious	-9.62738
▁11	-9.6279
▁floor	-9.62821
▁trade	-9.62966
▁sell	-9.63058
▁doctors	-9.63116
▁physics	-9.63155
▁museum	-9.63156
▁version	-9.63253
▁3	-9.63308
▁dr	-9.63309
▁healthy	-9.63357
▁police	-9.6348
▁throughout	-9.63546
▁f	-9.63562
1	-9.6359
ate	-9.63595
time	-9.63688
▁smaller	-9.637
▁military	-9.6383
▁anywhere	-9.63847
▁stars	-9.6401
▁written	-9.64173
▁race	-9.64176
▁sky	-9.64178
▁decide	-9.64318
▁president	-9.64506
un	-9.64596
▁board	-9.64651
▁allows	-9.64715
▁private	-9.64852
▁performance	-9.64857
▁subject	-9.64991
▁forms	-9.65063
▁himself	-9.65194
▁sub	-9.65305
▁range	-9.65318
▁star	-9.65367
ally	-9.65428
▁kept	-9.65539
▁tv	-9.65559
▁math	-9.65633
▁16	-9.65633
de	-9.65675
▁fantastic	-9.65883
▁genetic	-9.66034
▁weight	-9.66092
▁pieces	-9.6614
▁x	-9.66152
▁dangerous	-9.6623
▁touch	-9.66433
▁actual	-9.6651
▁neurons	-9.66517
▁store	-9.66612
▁patterns	-9.6663
▁forest	-9.66634
▁unfortunately	-9.66932
▁robots	-9.67017
▁anymore	-9.67279
▁greater	-9.67327
▁rock	-9.67487
▁earlier	-9.67624
▁connect	-9.67801
▁concept	-9.6781
▁cases	-9.68075
▁mental	-9.68252
▁policy	-9.68328
▁instance	-9.68329
▁shot	-9.68619
▁bodies	-9.68684
▁production	-9.68706
▁sorts	-9.6903
▁expensive	-9.6904
▁intelligence	-9.6904
▁becoming	-9.69081
co	-9.69189
▁bed	-9.69264
▁listening	-9.69311
▁income	-9.69313
▁final	-9.69696
▁environmental	-9.69771
▁brains	-9.69773
▁lines	-9.69906
▁pressure	-9.70118
▁practice	-9.70182
▁town	-9.70195
▁90	-9.70439
▁bank	-9.70483
▁website	-9.70743
▁train	-9.70764
▁loved	-9.71023
▁famous	-9.71134
me	-9.71151
▁urban	-9.71201
▁dog	-9.71218
▁clean	-9.71219
▁weren	-9.71442
▁skills	-9.71911
▁western	-9.71921
▁genes	-9.71944
how	-9.71955
▁legs	-9.7196
▁19	-9.71972
▁sat	-9.71993
▁none	-9.72168
▁strange	-9.72171
▁sand	-9.72212
▁fuel	-9.72251
▁dance	-9.72262
▁direction	-9.72276
▁decisions	-9.72354
ized	-9.72401
▁tells	-9.72743
▁raise	-9.72794
▁waiting	-9.72936
▁17	-9.72964
▁da	-9.72996
▁immediately	-9.73057
▁teaching	-9.7335
▁beauty	-9.73413
▁decade	-9.73771
▁humanity	-9.73891
▁feed	-9.73994
▁dad	-9.74113
w	-9.74137
▁foot	-9.74185
▁machines	-9.74193
ia	-9.74218
▁greatest	-9.74229
▁win	-9.74238
▁address	-9.74367
▁americans	-9.74453
▁14	-9.74455
ling	-9.74735
▁points	-9.74817
▁meeting	-9.74892
▁rule	-9.74945
ck	-9.75102
ha	-9.75236
▁walked	-9.7525
▁driving	-9.75298
▁willing	-9.75361
▁21	-9.75533
▁heat	-9.75772
▁solutions	-9.75941
▁massive	-9.76
▁familiar	-9.76042
▁babies	-9.76053
▁summer	-9.76058
▁flow	-9.76094
▁forth	-9.76117
▁term	-9.76165
▁institutions	-9.76312
▁effective	-9.76373
▁various	-9.76437
po	-9.76451
▁check	-9.7648
▁conflict	-9.76489
▁costs	-9.765
▁career	-9.76649
4	-9.76661
▁bar	-9.76742
▁obvious	-9.76756
▁connection	-9.769
▁press	-9.77084
▁financial	-9.7714
▁cultural	-9.77144
▁capital	-9.77159
▁hair	-9.77228
ie	-9.7736
ever	-9.77417
▁function	-9.77529
▁magic	-9.77552
▁seconds	-9.77584
like	-9.77961
▁conference	-9.77984
▁invented	-9.78039
▁river	-9.78072
▁sign	-9.78074
▁services	-9.78396
▁join	-9.78483
▁survive	-9.78573
ur	-9.78797
ize	-9.79002
▁improve	-9.79019
▁apply	-9.79199
ma	-9.79421
▁ahead	-9.79429
▁slide	-9.79445
▁values	-9.79458
▁following	-9.79473
▁london	-9.79556
▁super	-9.79943
▁decades	-9.79968
▁photo	-9.80083
▁m	-9.80195
▁enormous	-9.80284
▁levels	-9.80304
▁remarkable	-9.80352
▁politics	-9.80405
▁plastic	-9.80468
▁forget	-9.80476
by	-9.8052
▁governments	-9.80528
▁thanks	-9.8076
▁flying	-9.8078
▁mountain	-9.80828
▁purpose	-9.80894
ous	-9.80898
▁effects	-9.80905
▁quick	-9.81042
▁nation	-9.81065
▁aid	-9.81128
▁radio	-9.81152
▁possibly	-9.81153
▁terrible	-9.81153
▁societies	-9.81153
tic	-9.81157
▁ran	-9.81229
▁useful	-9.81245
▁engineering	-9.81292
▁unique	-9.81488
▁female	-9.81716
▁fit	-9.81943
▁infrastructure	-9.81961
▁television	-9.81961
▁aware	-9.82116
▁creativity	-9.82367
▁atmosphere	-9.82379
▁secret	-9.82475
▁artist	-9.82573
why	-9.8269
▁mostly	-9.82723
▁popular	-9.82765
▁communicate	-9.82775
▁sorry	-9.8278
▁push	-9.82827
5	-9.82883
▁complete	-9.82925
▁70	-9.83106
▁below	-9.83219
▁character	-9.83299
▁chemical	-9.83397
▁reduce	-9.83403
▁enjoy	-9.83434
▁virus	-9.83576
▁john	-9.83595
▁campaign	-9.83597
▁slightly	-9.83606
▁choices	-9.83675
▁types	-9.83787
▁standard	-9.83811
▁prison	-9.83948
▁worst	-9.8401
▁minds	-9.84062
▁san	-9.84174
▁track	-9.84324
▁california	-9.84425
▁supply	-9.84425
▁coast	-9.84425
▁religion	-9.84656
▁king	-9.84762
▁glass	-9.84822
▁understood	-9.84842
▁island	-9.84951
▁whose	-9.85006
▁temperature	-9.8508
▁blind	-9.85179
▁capacity	-9.85263
▁straight	-9.85325
▁respect	-9.8548
be	-9.85666
▁passion	-9.85687
▁helped	-9.85744
pa	-9.85808
▁explore	-9.85859
▁citizens	-9.85965
▁speaking	-9.8614
go	-9.86261
ton	-9.86319
▁shared	-9.86342
▁genome	-9.86372
▁male	-9.8641
▁hole	-9.86411
▁l	-9.8644
▁recent	-9.86475
7	-9.8651
▁boys	-9.86555
▁directly	-9.86568
▁industrial	-9.86715
▁apart	-9.86722
▁mobile	-9.86959
▁agree	-9.87178
▁event	-9.87188
▁task	-9.87255
▁biological	-9.87313
▁total	-9.87326
8	-9.87356
▁paid	-9.87389
▁affect	-9.87531
▁trouble	-9.87607
▁colleagues	-9.87807
▁afraid	-9.87808
▁challenges	-9.87823
▁pass	-9.87866
▁beings	-9.88057
▁bill	-9.88091
ce	-9.88107
▁oxygen	-9.88239
▁mars	-9.88349
ah	-9.88452
▁email	-9.88569
ba	-9.88588
▁original	-9.88616
▁laws	-9.88621
▁fix	-9.88766
▁text	-9.88783
▁condition	-9.88848
▁birth	-9.89103
▁twice	-9.89107
▁published	-9.89153
▁legal	-9.895
▁funny	-9.89548
▁meters	-9.89555
as	-9.8996
▁despite	-9.89982
▁discover	-9.90013
ul	-9.90103
▁photograph	-9.90124
▁drop	-9.90347
▁afghanistan	-9.90422
▁surgery	-9.90423
▁moon	-9.90438
▁ball	-9.90718
▁noticed	-9.90758
ge	-9.90831
▁stopped	-9.90873
▁13	-9.90916
▁respond	-9.90958
▁closer	-9.90995
▁stick	-9.91113
▁communication	-9.91271
▁highly	-9.91296
▁imagination	-9.91309
▁responsibility	-9.91309
▁sustainable	-9.91316
▁mission	-9.91323
▁cross	-9.91384
▁relationships	-9.91456
▁diseases	-9.91646
he	-9.91744
▁gene	-9.91783
▁wild	-9.91812
▁indian	-9.91825
▁worry	-9.91993
▁carry	-9.9203
ca	-9.92045
▁workers	-9.92141
▁speech	-9.92176
▁wants	-9.92192
▁forces	-9.92253
▁party	-9.92283
▁causes	-9.92537
▁gotten	-9.92702
▁organizations	-9.92962
▁produced	-9.93034
▁emotional	-9.93059
▁active	-9.93066
▁bought	-9.93107
▁corner	-9.93123
▁evolved	-9.93197
▁missing	-9.93221
▁birds	-9.93294
▁throw	-9.93306
▁depend	-9.93336
▁achieve	-9.93361
▁stress	-9.93418
▁played	-9.93463
ish	-9.93481
▁giant	-9.93563
▁vast	-9.93578
▁window	-9.93582
▁scientist	-9.93584
▁programs	-9.93715
▁notion	-9.93743
▁count	-9.9399
▁seemed	-9.94375
▁designers	-9.94425
▁attack	-9.94436
▁ancient	-9.94477
▁easily	-9.94477
▁dying	-9.94477
▁commercial	-9.94478
▁diversity	-9.94479
▁500	-9.94479
▁stem	-9.94479
▁afford	-9.94547
▁nearly	-9.9458
one	-9.94686
▁interact	-9.94705
3	-9.94789
▁significant	-9.94871
▁shift	-9.951
term	-9.95185
▁landscape	-9.95453
▁daughter	-9.95455
▁networks	-9.95489
▁con	-9.95504
▁eating	-9.95958
▁differences	-9.96116
▁engage	-9.96135
▁molecules	-9.96197
izing	-9.96283
▁basis	-9.96333
▁consciousness	-9.96341
▁brand	-9.96407
▁predict	-9.96413
▁weird	-9.96485
▁cover	-9.96528
▁etc	-9.96673
out	-9.96794
ac	-9.969
▁foundation	-9.96975
▁differently	-9.96981
▁hearing	-9.97133
▁broken	-9.97305
▁bridge	-9.9737
▁knowing	-9.97465
age	-9.97623
▁experiments	-9.97681
▁degrees	-9.97741
▁yellow	-9.9775
▁prize	-9.97769
▁complexity	-9.97775
▁answers	-9.97838
▁helping	-9.97869
▁boat	-9.97878
▁core	-9.97922
▁knows	-9.98021
▁report	-9.98124
▁civil	-9.98209
▁markets	-9.98239
▁grand	-9.9824
▁labor	-9.98252
▁quote	-9.98509
▁nations	-9.9852
▁pro	-9.98554
▁represent	-9.9869
▁background	-9.98712
▁noise	-9.98732
▁streets	-9.98738
▁10,000	-9.98762
▁trial	-9.98858
▁li	-9.99325
▁sick	-9.99664
▁spending	-9.99783
▁catch	-9.9992
▁foreign	-10.0015
▁identity	-10.0015
▁facebook	-10.0016
ists	-10.0018
▁european	-10.0018
▁studying	-10.005
▁tremendous	-10.0057
▁desert	-10.0064
▁opportunities	-10.0064
▁david	-10.0064
▁influence	-10.007
▁visit	-10.0078
um	-10.0112
▁sp	-10.0122
▁professor	-10.0132
▁fully	-10.0133
▁j	-10.0143
▁base	-10.0146
▁husband	-10.0162
▁ultimately	-10.0166
▁bees	-10.0167
▁mr	-10.0171
▁failure	-10.0182
▁virtual	-10.0205
at	-10.0209
▁negative	-10.0212
▁definition	-10.0212
ol	-10.0217
▁flu	-10.0217
▁passed	-10.0228
▁300	-10.0242
▁focused	-10.0244
▁rid	-10.0248
▁brilliant	-10.0262
▁gold	-10.0263
▁fairly	-10.0268
ant	-10.0273
amp	-10.0279
▁forever	-10.0281
▁balance	-10.0293
▁breast	-10.0312
▁religious	-10.0312
▁members	-10.0322
▁competition	-10.0362
▁inspired	-10.0371
▁transform	-10.0376
▁effort	-10.0388
▁argument	-10.0388
based	-10.0391
▁lack	-10.0392
▁devices	-10.0408
▁opposite	-10.0412
▁1,000	-10.0413
▁lucky	-10.0414
▁describe	-10.0419
▁rights	-10.0431
▁farmers	-10.0462
▁coffee	-10.0463
▁brother	-10.0492
let	-10.0492
▁artists	-10.0492
▁surprise	-10.0495
▁double	-10.0495
▁edge	-10.0496
ary	-10.05
▁ten	-10.0514
▁separate	-10.0546
▁painting	-10.0564
▁depression	-10.0565
▁phenomenon	-10.0565
▁possibility	-10.0565
▁sharing	-10.0567
dimensional	-10.0572
▁micro	-10.0578
▁net	-10.0583
▁extreme	-10.061
▁pop	-10.0614
▁spirit	-10.0617
my	-10.0618
▁particles	-10.0622
ine	-10.0625
▁entirely	-10.0641
ng	-10.0643
▁raised	-10.0644
▁creatures	-10.0644
mo	-10.0653
com	-10.0654
▁turning	-10.0665
▁return	-10.0666
▁easier	-10.0669
▁advantage	-10.0669
▁otherwise	-10.067
▁charge	-10.0683
▁bird	-10.07
ful	-10.0703
▁ph	-10.0706
▁card	-10.071
sh	-10.0718
▁japan	-10.0721
▁leadership	-10.0721
▁sold	-10.0721
▁h	-10.0724
▁suffering	-10.0734
▁sequence	-10.0735
▁importantly	-10.0745
▁experiences	-10.0749
▁engine	-10.0749
▁distance	-10.0756
▁benefit	-10.0757
▁mo	-10.076
▁signal	-10.0761
this	-10.0772
▁mouse	-10.0773
▁according	-10.0775
▁era	-10.0776
9	-10.0781
▁figured	-10.0794
na	-10.0806
ir	-10.0811
▁wealth	-10.082
▁st	-10.0821
▁responsible	-10.0826
▁discovery	-10.0832
▁professional	-10.0834
▁planets	-10.0837
▁benefits	-10.0842
▁argue	-10.0859
▁y	-10.0863
ted	-10.0867
▁asia	-10.0872
▁loss	-10.0873
▁creation	-10.088
▁wide	-10.0881
▁justice	-10.0887
▁deliver	-10.0891
▁2	-10.0895
hi	-10.0914
▁held	-10.0918
▁events	-10.0921
▁hate	-10.0929
▁dreams	-10.093
▁necessarily	-10.0932
▁block	-10.0938
line	-10.0941
▁collect	-10.0942
▁elements	-10.0976
▁dollar	-10.0978
ated	-10.0979
▁department	-10.0985
▁band	-10.0998
6	-10.1012
▁iraq	-10.1022
▁rain	-10.1024
▁contact	-10.1025
▁tissue	-10.1027
▁ship	-10.1032
▁french	-10.1039
▁jump	-10.1046
▁row	-10.1059
▁magazine	-10.1082
▁sector	-10.1082
▁investment	-10.1083
nt	-10.1085
▁debate	-10.1093
▁account	-10.1114
fi	-10.1122
bo	-10.1126
▁fair	-10.1135
▁spring	-10.1148
▁inter	-10.115
▁circle	-10.1156
▁leads	-10.1165
▁soil	-10.117
▁n	-10.1186
▁smell	-10.1193
▁avoid	-10.1196
▁necessary	-10.1202
▁studied	-10.1202
▁lunch	-10.1202
▁holding	-10.1203
id	-10.1229
▁remind	-10.123
▁anti	-10.1234
▁feels	-10.1241
▁offer	-10.1242
▁leading	-10.1245
di	-10.1246
▁quantum	-10.1257
▁creates	-10.1258
ad	-10.1269
▁related	-10.1272
▁prevent	-10.1274
of	-10.1285
▁opened	-10.1288
▁manage	-10.1289
▁weapons	-10.1292
▁collective	-10.1306
▁flight	-10.1306
▁efficient	-10.1307
▁believed	-10.1322
▁letter	-10.1322
▁slowly	-10.1324
▁leg	-10.1326
▁fashion	-10.1331
▁pounds	-10.1333
▁invest	-10.1334
▁compared	-10.1335
▁due	-10.1336
▁insects	-10.1338
▁random	-10.1359
ok	-10.1361
▁coral	-10.1366
▁stuck	-10.1368
▁childhood	-10.1369
▁transformation	-10.1369
▁hopefully	-10.137
▁failed	-10.1379
▁target	-10.1407
ty	-10.1416
▁adults	-10.1419
▁sister	-10.1421
▁ha	-10.1426
▁camp	-10.1428
▁mid	-10.1443
▁fourth	-10.1448
▁diet	-10.1457
▁finish	-10.1466
▁metaphor	-10.1475
▁desire	-10.1477
▁motion	-10.148
▁structures	-10.1481
▁wear	-10.1484
▁lesson	-10.1489
▁hell	-10.1492
se	-10.1517
▁sudden	-10.153
▁traffic	-10.1536
▁civilization	-10.1536
▁leaving	-10.1537
▁saving	-10.1538
▁degree	-10.1538
▁se	-10.1543
▁lights	-10.1566
▁click	-10.1573
am	-10.1576
▁compare	-10.1577
▁uses	-10.1589
▁station	-10.1596
▁interaction	-10.1597
▁deeply	-10.1612
ent	-10.1619
▁drink	-10.163
▁w	-10.1636
▁equal	-10.1644
▁institute	-10.165
▁protein	-10.1654
▁concerned	-10.1658
▁dis	-10.1659
▁currently	-10.1662
▁wave	-10.1666
▁beat	-10.1675
▁ba	-10.1675
oc	-10.1686
▁di	-10.1691
▁joy	-10.1695
▁typical	-10.1702
▁fascinating	-10.1708
▁valley	-10.1708
▁graph	-10.1709
▁neighborhood	-10.1712
▁adult	-10.1713
▁bone	-10.1716
▁ants	-10.1738
▁ka	-10.176
ga	-10.1762
▁mathematics	-10.1766
▁invisible	-10.1766
op	-10.1767
▁le	-10.1767
▁unless	-10.177
▁constantly	-10.177
per	-10.1792
▁fighting	-10.1807
▁caught	-10.1824
ating	-10.1842
▁normally	-10.1842
▁trained	-10.1847
▁en	-10.1851
▁cat	-10.1851
▁meat	-10.1852
▁oceans	-10.186
▁weather	-10.1882
▁operating	-10.1883
▁farm	-10.1884
▁electric	-10.1888
▁factory	-10.1889
▁cloud	-10.1891
▁finished	-10.1897
▁engineers	-10.1909
▁struggle	-10.1922
▁enable	-10.1923
▁bread	-10.1939
▁galaxy	-10.1941
▁british	-10.1941
▁faith	-10.1957
▁organisms	-10.1962
▁express	-10.1976
▁profound	-10.1994
▁strategy	-10.2
▁marriage	-10.2001
▁capable	-10.2002
▁majority	-10.2003
▁organic	-10.2005
▁note	-10.2006
▁cycle	-10.2012
▁24	-10.2018
▁managed	-10.2022
▁described	-10.2023
▁closed	-10.2025
▁na	-10.2027
▁bo	-10.2041
that	-10.2055
▁billions	-10.2055
▁agriculture	-10.206
▁coal	-10.207
▁seriously	-10.2072
▁apple	-10.2079
▁hall	-10.2081
▁exchange	-10.2104
▁paint	-10.2111
▁galaxies	-10.212
▁wisdom	-10.212
▁minister	-10.212
▁yesterday	-10.212
▁richard	-10.212
▁consumption	-10.212
▁detail	-10.2121
▁chair	-10.2135
▁colors	-10.2139
so	-10.214
▁leader	-10.2144
▁enter	-10.2146
▁climb	-10.2157
▁cheap	-10.2168
▁sexual	-10.2173
▁proud	-10.2173
▁remote	-10.2173
ho	-10.2175
▁twitter	-10.218
▁intelligent	-10.2181
▁moments	-10.2182
▁th	-10.2184
▁limited	-10.2188
▁alternative	-10.2195
▁emotions	-10.2195
▁paying	-10.2196
▁vehicle	-10.2196
▁spot	-10.2196
off	-10.2197
▁perfectly	-10.2198
▁tens	-10.22
▁match	-10.2203
▁followed	-10.2212
▁tough	-10.2218
▁demand	-10.2221
▁soldiers	-10.2224
▁dinner	-10.2241
▁equivalent	-10.2241
▁theater	-10.2242
▁round	-10.2242
▁mouth	-10.2256
▁seat	-10.2257
▁sentence	-10.2258
▁businesses	-10.2258
▁molecule	-10.2258
▁prove	-10.2262
▁layer	-10.2265
▁serve	-10.2269
▁fill	-10.2291
tion	-10.2298
ster	-10.2313
▁principle	-10.2321
▁surprised	-10.2325
▁grown	-10.2326
▁link	-10.2349
▁mexico	-10.2363
▁grandmother	-10.2363
▁collection	-10.2365
▁married	-10.2365
▁everyday	-10.237
▁mentioned	-10.2375
▁mark	-10.2377
▁garden	-10.2384
▁spaces	-10.2386
hand	-10.2392
▁bear	-10.2396
▁sad	-10.2398
▁principles	-10.2405
▁honest	-10.2413
▁intellectual	-10.2425
▁feedback	-10.2425
▁worried	-10.2425
▁wake	-10.2427
▁fell	-10.2429
▁battle	-10.2433
▁begins	-10.2438
▁ride	-10.2441
▁mit	-10.2442
▁universal	-10.2479
▁multi	-10.2487
▁multiple	-10.2487
▁washington	-10.2487
▁awful	-10.2487
▁prime	-10.2487
▁hasn	-10.2494
▁matters	-10.2502
▁threat	-10.2505
▁flag	-10.251
▁classroom	-10.251
▁wearing	-10.2511
▁brings	-10.2511
▁trip	-10.2517
▁walls	-10.252
▁treated	-10.2521
▁harder	-10.2524
▁bus	-10.2524
▁35	-10.2544
▁australia	-10.2545
▁player	-10.2547
▁brazil	-10.2548
▁england	-10.2549
▁nervous	-10.2549
▁distribution	-10.2549
▁poetry	-10.255
▁designer	-10.2552
▁increasingly	-10.2555
▁burn	-10.2561
▁dry	-10.2561
▁received	-10.2563
▁continent	-10.2574
▁release	-10.2598
▁crowd	-10.26
▁ordinary	-10.2612
▁fellow	-10.2612
▁peak	-10.2613
▁planning	-10.2613
▁trick	-10.2618
▁finger	-10.264
▁aids	-10.2659
▁phones	-10.2668
▁spoke	-10.2671
▁court	-10.2675
▁epidemic	-10.2675
▁tomorrow	-10.2676
▁hide	-10.2678
▁transition	-10.268
▁invited	-10.2687
▁launched	-10.2689
▁crime	-10.2703
▁partner	-10.2707
ut	-10.2722
▁detect	-10.2722
▁electrical	-10.2733
▁church	-10.2736
▁hidden	-10.2739
▁gender	-10.2739
▁drawing	-10.2745
▁chain	-10.2768
▁belief	-10.2769
▁fat	-10.2772
ph	-10.2783
▁watched	-10.2786
▁400	-10.2789
▁smile	-10.2796
▁survival	-10.2803
▁equipment	-10.2803
▁daily	-10.2803
▁tail	-10.2806
▁independent	-10.2814
▁date	-10.2819
yes	-10.2821
▁hurt	-10.2833
▁researchers	-10.2835
▁folks	-10.2844
▁killing	-10.2845
▁define	-10.2849
▁toward	-10.285
▁ra	-10.2854
▁stupid	-10.2868
▁sugar	-10.2868
▁evil	-10.2868
▁statistics	-10.2871
▁highest	-10.2874
▁democratic	-10.2876
▁taste	-10.2877
▁grade	-10.2877
pe	-10.2896
▁vi	-10.29
▁article	-10.2901
▁photos	-10.2911
▁breath	-10.2914
▁plane	-10.2922
▁rural	-10.2933
▁credit	-10.2933
▁lady	-10.2933
▁safety	-10.2934
▁sing	-10.2936
▁warming	-10.2954
▁motor	-10.2967
▁wood	-10.2967
▁method	-10.2974
▁identify	-10.2977
▁capture	-10.2981
▁technical	-10.2991
▁suggest	-10.2998
▁versus	-10.2998
▁existence	-10.2999
▁management	-10.2999
▁bright	-10.3002
▁germany	-10.3002
▁associated	-10.3004
▁bang	-10.3005
▁processes	-10.3017
▁iran	-10.3017
▁lie	-10.3024
ring	-10.3027
▁accident	-10.3031
men	-10.3032
▁scene	-10.3034
▁airplane	-10.3034
▁goals	-10.3038
▁ma	-10.3042
▁damage	-10.3045
▁driver	-10.3045
▁names	-10.3045
▁launch	-10.3047
▁cognitive	-10.3057
▁property	-10.3064
▁construction	-10.3065
▁100,000	-10.307
▁engineer	-10.3073
▁vote	-10.3079
▁warm	-10.3081
▁dealing	-10.309
ray	-10.3096
▁interface	-10.3101
▁soul	-10.3101
▁poem	-10.3102
▁kilometers	-10.3114
▁honor	-10.3116
▁arms	-10.3128
▁testing	-10.3146
▁heads	-10.3146
▁direct	-10.3151
▁switch	-10.3159
▁roll	-10.3171
▁caused	-10.3174
▁gap	-10.3174
▁faces	-10.3177
▁users	-10.3178
bu	-10.3186
▁saved	-10.3189
▁surprising	-10.319
ization	-10.3193
▁einstein	-10.3197
▁comfortable	-10.3198
▁pages	-10.3215
▁accept	-10.3227
vi	-10.3234
▁suppose	-10.3245
▁whom	-10.3254
▁artificial	-10.3257
▁helps	-10.3262
▁fresh	-10.3263
▁congress	-10.3264
▁stood	-10.3264
▁studio	-10.3264
▁tons	-10.3267
▁letters	-10.327
ber	-10.3271
▁calls	-10.3278
▁filled	-10.3279
▁losing	-10.3282
▁opening	-10.3288
▁moves	-10.3293
▁correct	-10.3294
▁bottle	-10.3307
▁wondering	-10.331
▁players	-10.3321
/	-10.3323
▁exact	-10.3325
▁kenya	-10.3327
▁trillion	-10.3331
▁heavy	-10.3331
▁z	-10.3336
▁exists	-10.3336
▁pen	-10.3337
▁designing	-10.3341
hey	-10.3345
▁print	-10.3346
way	-10.3353
▁exercise	-10.3375
▁lay	-10.3383
▁tape	-10.3393
▁shoes	-10.3395
▁app	-10.3397
▁empty	-10.3399
▁possibilities	-10.3399
▁combination	-10.34
▁japanese	-10.34
▁unit	-10.3402
▁sa	-10.3411
▁lifetime	-10.3418
▁director	-10.342
▁signals	-10.3421
▁bio	-10.3421
look	-10.3439
▁satellite	-10.3447
▁broke	-10.3464
▁northern	-10.3468
▁importance	-10.3468
▁specifically	-10.3469
▁economics	-10.3471
▁setting	-10.3476
▁fail	-10.348
▁appear	-10.3481
▁pole	-10.349
▁inner	-10.3495
ex	-10.3513
▁dimensions	-10.3515
▁dynamic	-10.3517
▁muscle	-10.3518
▁reaction	-10.3518
▁copy	-10.3518
▁stone	-10.352
▁fields	-10.3528
▁mothers	-10.3529
▁regular	-10.353
land	-10.3531
▁clinical	-10.3533
▁microbes	-10.3537
▁pleasure	-10.3537
▁corruption	-10.3537
▁marine	-10.3539
▁br	-10.355
▁covered	-10.3558
▁whereas	-10.3563
▁laugh	-10.3571
▁languages	-10.3573
▁emotion	-10.3585
▁expression	-10.359
▁consequences	-10.359
▁curious	-10.36
▁essential	-10.36
▁v	-10.3606
▁britain	-10.3606
▁2,000	-10.3607
▁arrived	-10.3617
▁advanced	-10.3618
side	-10.3618
▁experienced	-10.3619
▁convinced	-10.3624
▁resource	-10.3643
▁picked	-10.3645
da	-10.3657
▁horse	-10.366
▁mention	-10.3665
▁absolute	-10.367
▁increasing	-10.367
▁healthcare	-10.3676
▁malaria	-10.3676
▁chemistry	-10.3676
▁forced	-10.3679
▁cutting	-10.368
▁shapes	-10.3682
ier	-10.3695
▁strength	-10.3702
day	-10.3706
▁steps	-10.3707
▁considered	-10.3708
▁sites	-10.3709
▁calling	-10.3716
▁platform	-10.373
▁member	-10.3732
▁mountains	-10.3733
▁hadn	-10.3741
▁flat	-10.3746
▁george	-10.3747
▁battery	-10.3747
▁rational	-10.3747
▁analysis	-10.3747
▁cure	-10.3749
▁roughly	-10.375
▁protection	-10.375
▁generations	-10.3776
▁expected	-10.378
▁survey	-10.3805
▁sending	-10.3812
▁underneath	-10.3818
▁hotel	-10.382
▁army	-10.3829
▁deeper	-10.3833
▁arab	-10.3834
▁rare	-10.3853
che	-10.387
▁tumor	-10.3877
▁dots	-10.3878
▁harvard	-10.3889
▁variety	-10.3889
▁gay	-10.3899
▁experts	-10.3902
▁gift	-10.3934
▁dinosaurs	-10.3936
▁budget	-10.3949
▁location	-10.395
▁brown	-10.3956
j	-10.396
▁gang	-10.3961
▁winter	-10.3962
▁bike	-10.3965
▁relatively	-10.3967
▁gain	-10.3991
▁bomb	-10.4015
▁signs	-10.4018
▁conclusion	-10.4033
ni	-10.4035
▁leaves	-10.4036
▁quarter	-10.4043
▁user	-10.4049
▁el	-10.405
▁movies	-10.4072
▁maps	-10.4076
▁connections	-10.4096
▁fossil	-10.4097
▁chicken	-10.4098
▁bubble	-10.4099
▁waves	-10.4102
▁status	-10.4107
▁steel	-10.4107
▁mad	-10.4113
▁addition	-10.412
▁organized	-10.4121
▁hey	-10.413
ning	-10.4132
son	-10.4133
▁expand	-10.4145
▁graduate	-10.4153
▁paul	-10.4178
▁valuable	-10.418
▁molecular	-10.418
▁keeping	-10.4186
ance	-10.4199
▁holes	-10.4205
pi	-10.4206
▁generate	-10.4229
▁trials	-10.4232
▁introduce	-10.4235
▁convince	-10.4235
▁fewer	-10.4243
▁ecosystem	-10.425
▁option	-10.4254
▁emerging	-10.4254
▁teeth	-10.4254
▁israel	-10.4255
▁sharks	-10.4255
▁plus	-10.4256
▁rapidly	-10.4258
▁carefully	-10.426
▁gun	-10.4261
▁nor	-10.4261
don	-10.4262
▁effectively	-10.4267
▁generally	-10.4275
▁chemicals	-10.4291
▁require	-10.4307
▁replace	-10.4309
▁novel	-10.4316
▁instrument	-10.4324
bi	-10.4324
▁frame	-10.4326
▁fund	-10.4326
▁voices	-10.4327
▁shark	-10.4327
▁blow	-10.4328
▁kitchen	-10.4329
▁facing	-10.4329
▁worldwide	-10.4332
▁po	-10.4334
▁typically	-10.4337
▁beach	-10.4346
▁reward	-10.4367
▁remain	-10.4368
▁soft	-10.4369
▁encourage	-10.4384
▁radical	-10.4397
▁clip	-10.4402
▁roof	-10.4402
▁library	-10.4404
▁primary	-10.4404
▁queen	-10.4404
▁properties	-10.4404
▁hydrogen	-10.4404
▁length	-10.4404
▁flies	-10.4404
▁requires	-10.4406
▁2000	-10.4407
▁union	-10.4414
▁homes	-10.4435
▁ex	-10.4439
▁characters	-10.4441
▁pure	-10.4447
▁ideal	-10.445
▁politicians	-10.4463
▁parent	-10.4463
▁transport	-10.4465
▁sources	-10.4466
▁mathematical	-10.4473
▁master	-10.4478
▁mirror	-10.4479
▁vulnerable	-10.448
▁southern	-10.448
▁mortality	-10.448
▁doubt	-10.448
▁shame	-10.448
▁bush	-10.448
▁producing	-10.4481
▁rocket	-10.4481
▁viruses	-10.4485
▁canada	-10.4489
▁factor	-10.4499
▁ah	-10.4508
ities	-10.4536
ping	-10.4537
▁promise	-10.4537
▁sample	-10.4539
scale	-10.4548
▁quiet	-10.4549
▁previous	-10.4549
▁illegal	-10.4556
▁silence	-10.4556
▁francisco	-10.4556
▁definitely	-10.4556
▁150	-10.4556
▁silk	-10.4556
▁extract	-10.4558
▁consumer	-10.4561
▁chart	-10.4563
ical	-10.4571
▁harm	-10.4583
▁carrying	-10.4592
▁lies	-10.4592
▁victims	-10.4597
▁added	-10.4602
for	-10.4611
▁nigeria	-10.4628
▁hang	-10.4632
▁liquid	-10.4633
▁fiction	-10.4633
▁nest	-10.4635
▁presentation	-10.4636
▁laptop	-10.4637
▁grab	-10.4644
▁components	-10.4646
▁arts	-10.4657
▁released	-10.466
▁emissions	-10.4666
▁dan	-10.4668
▁feelings	-10.4669
▁messages	-10.4683
▁represents	-10.4688
mi	-10.4689
▁solid	-10.4698
os	-10.4708
▁unlike	-10.4708
▁nasa	-10.4709
▁sweet	-10.471
▁gdp	-10.471
▁gravity	-10.4711
▁newspaper	-10.4717
▁discussion	-10.4717
▁muslim	-10.4718
all	-10.4721
▁symbol	-10.4724
▁cards	-10.474
▁perform	-10.4748
▁interview	-10.4753
▁employees	-10.4758
▁los	-10.4768
▁wine	-10.4781
▁academic	-10.4789
▁chicago	-10.4789
▁youtube	-10.4789
▁conservation	-10.4789
▁fake	-10.4789
▁terrorism	-10.4789
▁restaurant	-10.4797
que	-10.4806
▁buying	-10.4807
▁rates	-10.4854
▁german	-10.4862
▁internal	-10.4867
▁collaboration	-10.4867
▁anderson	-10.4868
▁grid	-10.4869
▁loop	-10.487
▁mistake	-10.4874
▁tradition	-10.4874
▁disaster	-10.4877
▁invention	-10.4877
▁mile	-10.4887
▁metal	-10.489
▁gut	-10.4899
▁engaged	-10.49
can	-10.491
▁staff	-10.4916
▁tap	-10.4917
▁assume	-10.4927
▁details	-10.4928
ot	-10.4935
▁contract	-10.4939
▁mess	-10.4942
▁march	-10.4944
▁depends	-10.4945
▁danger	-10.4946
▁pollution	-10.4947
▁prepared	-10.4957
▁zoom	-10.4958
▁pair	-10.496
▁element	-10.496
▁cameras	-10.4971
▁shop	-10.4979
▁personally	-10.498
▁cultures	-10.4994
pl	-10.5
▁collapse	-10.5008
ors	-10.5012
ler	-10.5023
▁former	-10.5023
▁radiation	-10.5027
▁snow	-10.5027
▁ladies	-10.5027
▁atoms	-10.5031
▁opinion	-10.504
▁score	-10.5043
▁joke	-10.5045
▁driven	-10.5045
▁introduced	-10.5047
▁cave	-10.5049
▁techniques	-10.5053
▁reflect	-10.5066
▁mix	-10.5072
▁talks	-10.5073
▁selling	-10.5078
▁season	-10.5086
▁electronic	-10.5094
led	-10.5096
&	-10.5107
▁literature	-10.5107
▁split	-10.5107
▁reference	-10.5108
▁telescope	-10.5123
▁aging	-10.5123
▁45	-10.513
▁naturally	-10.5146
▁risks	-10.5158
▁organs	-10.5168
00	-10.518
em	-10.5182
▁applied	-10.5189
▁false	-10.5189
▁license	-10.5189
▁charles	-10.5189
▁medium	-10.5189
▁phase	-10.5189
▁defense	-10.5189
▁clock	-10.5194
▁perception	-10.5205
▁blocks	-10.5208
▁meaningful	-10.5214
▁handle	-10.5229
▁van	-10.5235
▁participate	-10.5251
▁75	-10.5251
but	-10.5255
▁conscious	-10.5264
▁practical	-10.5264
▁privacy	-10.5271
▁psychology	-10.5271
▁telephone	-10.5271
▁laboratory	-10.5271
▁spectrum	-10.5271
▁include	-10.5271
▁toxic	-10.5271
▁evolutionary	-10.5272
▁organ	-10.5283
▁scared	-10.5286
▁affected	-10.5297
ron	-10.5307
▁recorded	-10.5309
▁sports	-10.5323
▁situations	-10.5326
▁movements	-10.5333
▁constant	-10.5346
▁breathe	-10.535
▁afternoon	-10.5353
▁sophisticated	-10.5353
▁unusual	-10.5353
▁james	-10.5355
rk	-10.5367
▁earn	-10.5372
▁topic	-10.5379
▁weak	-10.5384
▁crash	-10.5398
▁channel	-10.5403
▁interests	-10.5434
▁darwin	-10.5435
▁swim	-10.5436
▁relevant	-10.5436
▁dropped	-10.5437
▁france	-10.5438
▁factors	-10.5441
▁clinic	-10.5457
▁occur	-10.5461
▁mechanism	-10.5462
▁dogs	-10.5462
▁feature	-10.5463
▁singing	-10.5464
▁fishing	-10.5464
▁pulled	-10.5473
▁cook	-10.5476
▁forests	-10.5481
▁reached	-10.5485
▁bag	-10.5485
▁features	-10.5495
▁remove	-10.5504
▁repeat	-10.5507
▁technological	-10.5514
▁russia	-10.5516
▁steve	-10.5516
▁milk	-10.5518
▁comfort	-10.5519
▁cortex	-10.5521
▁destruction	-10.5521
▁michael	-10.5521
▁ought	-10.5521
▁finance	-10.5521
▁stock	-10.5521
▁script	-10.5522
▁lessons	-10.5522
▁awareness	-10.5524
▁reverse	-10.5525
▁stream	-10.5525
▁institution	-10.5531
▁wars	-10.5546
▁monkey	-10.5549
▁physically	-10.5549
▁behaviors	-10.5558
▁traveling	-10.558
▁recording	-10.558
▁miss	-10.5584
▁ho	-10.5584
▁regions	-10.5597
▁ultimate	-10.5599
▁tea	-10.5603
▁manufacturing	-10.5605
▁smoke	-10.5605
▁efficiency	-10.5605
dy	-10.5606
▁transportation	-10.5606
▁2008	-10.5607
▁style	-10.5608
▁ta	-10.5613
▁operate	-10.5613
▁hoping	-10.5613
▁equally	-10.5615
▁trend	-10.5622
▁fundamentally	-10.5625
▁neighbors	-10.5627
▁required	-10.5629
wa	-10.5639
▁brothers	-10.5642
ki	-10.5644
▁liked	-10.5646
▁nose	-10.5646
▁cord	-10.5648
▁suffer	-10.5659
▁iphone	-10.566
▁eggs	-10.5662
▁hi	-10.5664
▁houses	-10.5673
▁input	-10.568
▁musical	-10.5688
▁illness	-10.5689
▁activities	-10.5691
▁empathy	-10.5691
▁memories	-10.5691
▁paradigm	-10.5691
▁sunlight	-10.5691
▁em	-10.5692
▁2010	-10.5692
▁adam	-10.5692
▁eastern	-10.5693
▁shake	-10.5699
▁display	-10.5706
▁combined	-10.5713
▁videos	-10.5716
▁burning	-10.572
ial	-10.5723
▁upper	-10.5725
▁islands	-10.5729
▁button	-10.5731
▁largely	-10.5739
▁increased	-10.5743
▁ancestors	-10.5758
▁algorithms	-10.5762
▁amazon	-10.5777
▁animation	-10.5777
▁neither	-10.5777
▁sustainability	-10.5777
▁rush	-10.5778
▁acting	-10.5783
▁4	-10.5783
▁percentage	-10.5788
▁behave	-10.5789
▁stronger	-10.5791
▁relative	-10.5803
ite	-10.5805
▁records	-10.5829
▁receive	-10.5833
▁pet	-10.5833
▁combine	-10.5848
▁abstract	-10.5862
▁dramatic	-10.5863
▁1990	-10.5864
▁pacific	-10.5864
▁birthday	-10.5865
▁authority	-10.5865
▁underwater	-10.5865
▁3,000	-10.5866
▁claim	-10.5885
over	-10.5896
being	-10.5899
▁ga	-10.5912
▁thin	-10.5915
ig	-10.5917
▁vehicles	-10.5929
0	-10.5929
▁embrace	-10.5932
▁decline	-10.5932
▁translate	-10.5932
▁wa	-10.5942
▁windows	-10.5948
▁shut	-10.5951
▁piano	-10.5952
▁swimming	-10.5952
▁occurred	-10.5952
▁framework	-10.5952
▁humor	-10.5952
▁productive	-10.5954
▁99	-10.5956
▁inspiration	-10.5962
▁processing	-10.5969
▁cooking	-10.5974
▁tonight	-10.5984
▁lake	-10.5989
▁marketing	-10.5995
▁counter	-10.5996
ja	-10.6008
▁formed	-10.6011
ke	-10.6012
▁cup	-10.6016
▁falling	-10.6025
▁sight	-10.6026
▁solved	-10.6026
source	-10.6029
▁psychological	-10.6033
▁mu	-10.6038
ak	-10.6038
▁admit	-10.604
▁computing	-10.604
▁contrast	-10.604
▁desk	-10.604
▁exploration	-10.6041
▁shoot	-10.6041
▁5,000	-10.6043
▁linked	-10.606
▁insight	-10.6081
▁election	-10.6082
▁creature	-10.6082
▁patent	-10.6082
▁protected	-10.6083
▁appreciate	-10.6111
▁somewhat	-10.6117
▁clever	-10.6123
▁mechanical	-10.6123
▁ear	-10.6124
ip	-10.6126
▁advice	-10.6129
▁boston	-10.6129
▁options	-10.6133
ab	-10.614
▁overall	-10.6142
▁operation	-10.6143
les	-10.6147
▁collected	-10.6153
car	-10.6168
▁error	-10.6173
▁aspect	-10.6173
ue	-10.6183
▁bare	-10.6201
▁pakistan	-10.6204
▁mistakes	-10.6207
▁appropriate	-10.6213
▁proteins	-10.6215
▁concrete	-10.622
▁gulf	-10.622
▁presence	-10.622
▁housing	-10.622
▁balloon	-10.622
▁globe	-10.622
▁lying	-10.622
▁notes	-10.6229
▁potentially	-10.6242
▁nowhere	-10.6244
▁curve	-10.6256
▁explanation	-10.6263
▁zone	-10.6265
▁whale	-10.6266
▁partners	-10.627
▁string	-10.6272
▁outcome	-10.6276
▁paris	-10.6293
▁wire	-10.63
▁chose	-10.6306
▁visible	-10.631
▁wherever	-10.6311
▁boom	-10.632
▁pink	-10.6326
▁defined	-10.6339
▁islam	-10.6345
▁environments	-10.635
▁pump	-10.6357
▁skill	-10.6358
▁border	-10.636
▁ro	-10.6362
▁economists	-10.6364
▁celebrate	-10.6383
▁actions	-10.6383
▁centers	-10.6389
▁accurate	-10.6395
▁christmas	-10.6402
▁providing	-10.6402
▁1960	-10.6403
▁sensitive	-10.6404
▁exhibition	-10.6404
▁surrounded	-10.6409
▁23	-10.6431
▁stayed	-10.6452
▁filter	-10.6453
▁elephant	-10.6453
▁truck	-10.6454
80	-10.6456
▁gr	-10.6467
▁pack	-10.6476
▁functions	-10.6478
▁kick	-10.6482
▁hits	-10.6483
making	-10.6486
▁host	-10.6486
▁hospitals	-10.6492
▁trigger	-10.6495
▁clothes	-10.6496
▁violent	-10.6496
▁confidence	-10.6496
nna	-10.6501
▁5	-10.6505
ff	-10.6507
▁photographs	-10.6508
▁wi	-10.651
▁ring	-10.6518
▁sir	-10.6522
▁root	-10.6534
▁whales	-10.654
▁tracking	-10.6542
▁volume	-10.6547
▁spider	-10.6547
▁tip	-10.6548
▁route	-10.6549
▁statement	-10.6553
▁succeed	-10.6553
▁explained	-10.6554
▁shock	-10.6555
▁wheel	-10.6565
▁cents	-10.6567
con	-10.6573
▁flower	-10.6576
▁behavioral	-10.6581
▁centuries	-10.6588
▁horrible	-10.6588
▁flew	-10.6588
▁innovative	-10.6588
▁latin	-10.6589
▁unknown	-10.6589
▁greenhouse	-10.6589
▁infected	-10.6594
▁shall	-10.6594
▁educational	-10.66
▁guide	-10.6616
▁tax	-10.6622
▁chip	-10.6623
▁relate	-10.6624
▁entrepreneurs	-10.6626
▁circumstances	-10.6631
▁narrative	-10.6644
▁application	-10.6645
▁architect	-10.6645
▁tall	-10.6647
▁seek	-10.6648
▁existing	-10.6651
ious	-10.6657
▁robotic	-10.6659
▁22	-10.6665
▁bee	-10.6665
▁motivation	-10.6683
▁angry	-10.6683
▁commitment	-10.6683
▁1980	-10.6683
▁jail	-10.6683
▁lifestyle	-10.6685
▁controlled	-10.6688
der	-10.6688
▁bi	-10.6691
▁attempt	-10.6704
▁fan	-10.6709
▁joined	-10.6716
▁classic	-10.6718
▁architects	-10.672
ley	-10.6724
▁closely	-10.6729
end	-10.6735
▁feeding	-10.6736
▁measured	-10.6748
▁evening	-10.6752
▁tested	-10.6761
▁encounter	-10.6764
▁theme	-10.6773
▁september	-10.6778
▁wikipedia	-10.6778
▁autism	-10.6778
▁therapy	-10.6778
▁angeles	-10.6779
▁2007	-10.6779
▁capitalism	-10.678
▁suit	-10.6786
▁height	-10.6798
▁cow	-10.6803
▁applications	-10.6816
▁poet	-10.683
▁cartoon	-10.6831
▁symptoms	-10.6839
▁plate	-10.684
▁profit	-10.6841
▁organism	-10.6842
▁repair	-10.6874
▁challenging	-10.6874
▁gentlemen	-10.6874
▁orange	-10.6874
▁boring	-10.6875
▁remains	-10.6875
▁nano	-10.6876
▁cash	-10.6877
▁frankly	-10.688
▁mode	-10.6894
▁anger	-10.6899
▁disappear	-10.6901
▁determine	-10.6919
▁ears	-10.6922
▁sensors	-10.6931
▁grain	-10.6939
▁technique	-10.6939
▁divide	-10.6951
▁contribute	-10.6952
▁hero	-10.6953
▁attacks	-10.6963
▁infinite	-10.6965
mer	-10.6965
▁passionate	-10.6966
▁logic	-10.6968
▁liver	-10.6969
▁plot	-10.6971
▁trans	-10.6971
▁chocolate	-10.6971
▁identical	-10.6971
▁robert	-10.6971
▁regime	-10.6971
▁secure	-10.6971
▁pollen	-10.6972
▁gray	-10.6972
▁mice	-10.6973
▁interactive	-10.6973
▁raw	-10.6974
▁busy	-10.6979
gi	-10.6981
▁drives	-10.6992
ina	-10.6996
▁bg	-10.7001
▁runs	-10.7019
work	-10.7028
▁strip	-10.7029
▁monitor	-10.7034
▁prototype	-10.7038
▁vaccine	-10.7038
▁equation	-10.7038
60	-10.7042
▁provided	-10.7043
▁reform	-10.7047
▁convert	-10.7055
yeah	-10.706
▁roads	-10.7066
▁spiritual	-10.7068
▁mystery	-10.7069
▁footprint	-10.7069
▁resistance	-10.7069
▁parallel	-10.707
▁gps	-10.707
▁ab	-10.7081
use	-10.7088
▁invent	-10.709
▁fold	-10.7091
▁transformed	-10.7096
▁database	-10.7098
▁dive	-10.7099
▁bits	-10.7101
▁blog	-10.7104
▁tests	-10.7107
ten	-10.711
▁flowers	-10.7113
▁puzzle	-10.7119
cy	-10.7124
▁concern	-10.7125
▁subjects	-10.7129
▁romantic	-10.7129
nd	-10.7138
▁tube	-10.7147
▁abuse	-10.7151
hour	-10.7161
▁bones	-10.7161
▁falls	-10.7161
▁egypt	-10.7168
▁prefer	-10.7168
▁corporate	-10.7168
▁extent	-10.7168
▁policies	-10.7168
▁conversations	-10.7172
▁wow	-10.7175
▁shell	-10.7176
▁dh	-10.7179
▁conventional	-10.719
▁fixed	-10.72
▁7	-10.7204
▁drinking	-10.7205
▁["	-10.7205
▁younger	-10.7213
▁fingers	-10.7225
▁surely	-10.7231
▁parking	-10.7233
▁destroy	-10.7233
▁expectations	-10.7239
▁songs	-10.7242
▁neighbor	-10.7242
▁clouds	-10.7244
▁faced	-10.7245
▁evolve	-10.7249
▁flip	-10.7254
okay	-10.726
▁orbit	-10.726
down	-10.7261
▁samples	-10.7264
▁narrator	-10.7268
▁narrow	-10.7268
▁unexpected	-10.7268
▁boxes	-10.7279
▁rat	-10.7284
▁pig	-10.7286
▁severe	-10.7291
▁limit	-10.7299
▁painful	-10.7305
▁standards	-10.7316
▁review	-10.7329
▁maintain	-10.7334
▁odd	-10.734
▁disorder	-10.7345
▁toilet	-10.7345
log	-10.7349
▁scan	-10.7349
▁earthquake	-10.7369
▁dancing	-10.7369
▁causing	-10.737
▁june	-10.737
▁selection	-10.737
▁tuna	-10.737
▁instruments	-10.7371
▁spinal	-10.7372
ka	-10.7384
▁limits	-10.7393
ee	-10.7414
ny	-10.7421
▁pushing	-10.7421
▁implications	-10.7422
▁amounts	-10.7434
▁lung	-10.745
▁dozen	-10.7456
▁interestingly	-10.7456
board	-10.7459
▁consumers	-10.7467
▁loud	-10.7469
▁economies	-10.7471
▁higgs	-10.7471
▁measuring	-10.7471
▁poorest	-10.7475
▁floating	-10.7484
rew	-10.7487
▁bl	-10.7498
▁funding	-10.75
▁mis	-10.7504
▁contain	-10.7506
▁films	-10.7507
▁lo	-10.7509
▁existed	-10.7516
▁wondered	-10.7517
▁agreed	-10.7518
ps	-10.7518
▁magnetic	-10.7519
▁pa	-10.7531
▁judge	-10.7532
ries	-10.7539
▁lift	-10.754
ative	-10.7542
▁continued	-10.7542
▁sphere	-10.7553
▁surgeon	-10.7554
▁expert	-10.7555
▁grass	-10.7555
▁rose	-10.7569
▁careful	-10.7572
▁dense	-10.7572
▁emergency	-10.7574
▁awesome	-10.7574
▁polio	-10.7574
▁till	-10.7574
▁haiti	-10.7574
▁automatically	-10.7574
▁1950	-10.7575
▁golden	-10.7576
▁classes	-10.7584
▁ends	-10.7594
▁mainly	-10.7597
▁pitch	-10.7601
▁offered	-10.7603
▁performing	-10.7605
▁breathing	-10.7608
▁sides	-10.7613
▁rocks	-10.7616
▁tu	-10.762
▁suggests	-10.7621
▁habitat	-10.7623
ging	-10.7636
unclear	-10.764
▁rely	-10.7641
▁monkeys	-10.7644
▁drill	-10.7657
▁pilot	-10.7658
▁invite	-10.7659
qui	-10.7661
▁component	-10.7661
▁mammals	-10.7665
▁curiosity	-10.7678
▁sweden	-10.7678
▁agency	-10.7678
▁carried	-10.7678
▁thomas	-10.7678
▁struck	-10.7678
▁dramatically	-10.7679
▁obsessed	-10.768
▁2009	-10.768
▁laser	-10.768
▁2005	-10.768
▁overcome	-10.7684
▁penguins	-10.7684
▁corals	-10.7685
ner	-10.7696
▁shooting	-10.7703
▁sum	-10.7704
▁chest	-10.7705
▁keeps	-10.7717
▁gu	-10.7718
ger	-10.7719
mon	-10.7722
q	-10.7749
▁sw	-10.7753
▁spin	-10.7758
▁phrase	-10.7766
▁illusion	-10.7766
▁criminal	-10.7767
▁ignore	-10.7767
foot	-10.7775
▁attract	-10.7777
▁wireless	-10.7778
▁transplant	-10.7783
▁diagram	-10.7784
▁obesity	-10.7784
▁obama	-10.7784
▁pretend	-10.7784
▁entertainment	-10.7784
▁grandfather	-10.7784
▁colony	-10.7784
▁airport	-10.7785
▁axis	-10.7786
▁properly	-10.7789
▁distributed	-10.7792
▁villages	-10.7797
▁27	-10.7803
▁disorders	-10.7809
▁represented	-10.7814
▁ja	-10.7822
▁borders	-10.7833
not	-10.7844
io	-10.7846
0,000	-10.7848
▁title	-10.7854
▁crack	-10.7864
▁inspire	-10.7871
▁shadow	-10.7875
▁sculpture	-10.7876
▁muslims	-10.788
▁cast	-10.7882
▁korea	-10.7885
▁mate	-10.7886
▁thick	-10.7889
▁transfer	-10.789
▁ceiling	-10.789
▁engaging	-10.789
▁external	-10.789
▁recognition	-10.789
▁ghana	-10.789
▁favor	-10.789
▁refer	-10.789
▁fluid	-10.7891
▁solving	-10.7892
▁fifth	-10.7892
▁hunger	-10.7892
▁fortune	-10.7898
ped	-10.7898
▁journal	-10.79
called	-10.7905
▁tech	-10.7908
state	-10.7916
▁figures	-10.7935
▁limb	-10.7953
take	-10.7966
▁spreading	-10.7966
▁reaching	-10.7972
▁welcome	-10.7979
▁author	-10.7985
▁lecture	-10.7985
house	-10.7988
▁plans	-10.7988
▁particle	-10.7988
class	-10.7989
▁grateful	-10.7996
▁courage	-10.7997
▁1	-10.7997
▁concert	-10.7998
▁enemy	-10.7998
▁furniture	-10.7998
▁january	-10.7998
▁agenda	-10.7998
▁rising	-10.7998
▁1970	-10.7998
▁reduction	-10.7998
▁kingdom	-10.7998
▁cooperation	-10.7998
▁hardware	-10.7998
ow	-10.8
▁heroes	-10.8001
▁scary	-10.8002
▁precisely	-10.8003
▁controlling	-10.8003
▁brave	-10.8009
▁rescue	-10.8019
▁arguments	-10.805
▁pocket	-10.8097
▁permanent	-10.8099
tech	-10.8101
▁frank	-10.8102
▁interactions	-10.8103
▁extinct	-10.8105
▁legacy	-10.8106
▁microscope	-10.8106
▁plenty	-10.8106
▁federal	-10.8106
▁chief	-10.8106
▁native	-10.8107
▁raising	-10.8108
▁peer	-10.8109
▁fortunately	-10.8111
istic	-10.8112
▁gather	-10.8113
▁shelter	-10.8115
dding	-10.8119
▁shoulder	-10.8122
▁writer	-10.8123
▁ed	-10.8124
▁entered	-10.8131
▁deaths	-10.8133
▁printing	-10.814
▁bell	-10.8151
▁bow	-10.8155
▁traveled	-10.8157
▁outcomes	-10.816
▁pan	-10.8164
50	-10.8164
▁connecting	-10.8172
king	-10.8173
▁extend	-10.8181
uc	-10.819
fish	-10.819
▁consume	-10.8192
▁worker	-10.8192
▁breaking	-10.8195
ability	-10.8203
▁placed	-10.8205
▁tour	-10.8208
▁intense	-10.8209
▁circuit	-10.821
▁tower	-10.8211
▁section	-10.8211
▁tag	-10.8212
▁rio	-10.8216
▁council	-10.8216
▁diabetes	-10.8216
▁microsoft	-10.8216
▁surveillance	-10.8216
▁inequality	-10.8216
▁spill	-10.8216
▁sheep	-10.8216
▁philosophy	-10.8216
▁elite	-10.8217
▁congo	-10.8217
▁tries	-10.822
▁latest	-10.8221
▁nobel	-10.8221
▁hip	-10.8222
▁personality	-10.8223
▁6	-10.8223
▁spoken	-10.8224
▁destroyed	-10.8231
▁sales	-10.8232
▁antibiotics	-10.8264
▁sc	-10.8265
▁presented	-10.8284
▁adapt	-10.8288
▁mall	-10.829
▁iron	-10.8305
free	-10.8319
▁brief	-10.8321
▁bicycle	-10.8321
▁fruit	-10.8322
▁chapter	-10.8322
▁club	-10.8323
▁fabric	-10.8326
▁domestic	-10.8327
▁exploring	-10.8327
▁yield	-10.8327
▁distant	-10.8327
▁embedded	-10.8327
▁immune	-10.8328
▁fascinated	-10.8329
▁engagement	-10.8329
▁objective	-10.833
▁amongst	-10.8332
▁poll	-10.8333
▁attached	-10.8336
▁pool	-10.8341
▁seed	-10.8343
▁bay	-10.8343
▁directions	-10.8343
▁increases	-10.8347
▁papers	-10.8348
▁appeared	-10.835
▁prices	-10.835
▁optimistic	-10.8357
▁laughing	-10.8361
▁facts	-10.8377
▁salt	-10.84
▁organize	-10.8401
▁document	-10.8401
▁palm	-10.8411
▁functional	-10.8418
▁scratch	-10.8418
▁estimate	-10.8418
▁escape	-10.8422
▁65	-10.8429
art	-10.8436
▁knee	-10.8437
▁comment	-10.8438
▁savings	-10.8439
▁anonymous	-10.844
▁crucial	-10.844
▁drove	-10.844
▁colleague	-10.844
▁committed	-10.844
▁density	-10.844
▁islamic	-10.8441
▁tank	-10.8442
▁apparently	-10.8442
▁representation	-10.8442
▁hill	-10.8449
▁thrown	-10.8451
▁virtually	-10.8455
▁sets	-10.8455
lin	-10.8463
▁lovely	-10.8465
▁vessels	-10.8475
▁males	-10.848
▁interacting	-10.8491
▁acts	-10.8499
▁cute	-10.8506
life	-10.8508
▁privilege	-10.8534
▁ru	-10.8534
▁demonstrate	-10.8539
▁journalist	-10.8543
▁pr	-10.8543
▁mon	-10.8544
▁official	-10.8547
▁description	-10.8553
▁request	-10.8553
▁simplicity	-10.8553
▁transparency	-10.8553
▁silicon	-10.8553
▁adventure	-10.8553
▁stroke	-10.8554
▁600	-10.8554
▁pile	-10.8554
▁resolution	-10.8555
▁recovery	-10.8557
▁orchestra	-10.8557
▁mc	-10.8573
▁divided	-10.8576
▁imagined	-10.8583
▁signed	-10.8594
▁dig	-10.8595
▁8	-10.8597
ified	-10.8622
▁recognized	-10.8625
there	-10.8655
american	-10.866
▁rapid	-10.8662
▁genius	-10.8665
pro	-10.8667
▁dignity	-10.8668
▁insurance	-10.8668
▁manhattan	-10.8668
▁pyramid	-10.8668
▁reputation	-10.8668
▁ridiculous	-10.8668
▁neuroscience	-10.8668
▁dioxide	-10.8668
▁ugly	-10.8668
▁productivity	-10.8669
▁sharp	-10.8669
▁stake	-10.867
▁heaven	-10.867
▁usual	-10.8671
▁mold	-10.8673
▁actor	-10.8682
▁farmer	-10.8685
▁practices	-10.87
▁customers	-10.8708
iv	-10.8718
▁ethical	-10.8722
ari	-10.8726
▁backwards	-10.8731
▁react	-10.8744
▁slides	-10.8753
▁realm	-10.8763
ator	-10.8764
are	-10.8775
dollar	-10.8776
▁talent	-10.8776
▁hat	-10.8782
é	-10.8784
▁district	-10.8784
▁stanford	-10.8784
▁strategies	-10.8784
▁suicide	-10.8784
▁frozen	-10.8784
▁plain	-10.8785
▁polar	-10.8785
▁bible	-10.8786
fa	-10.8787
▁32	-10.8788
▁cry	-10.8788
▁opposed	-10.879
▁tired	-10.8792
▁apartment	-10.8792
▁involves	-10.8794
▁angle	-10.8795
▁puts	-10.8796
▁disappeared	-10.8801
▁lit	-10.8809
ran	-10.8814
▁appears	-10.8819
▁reported	-10.8819
▁units	-10.8822
gen	-10.8824
au	-10.883
▁achieved	-10.8834
▁concepts	-10.8834
▁senses	-10.8836
▁aspects	-10.8845
▁file	-10.8846
▁command	-10.8879
▁myth	-10.8884
▁corn	-10.8885
▁suspect	-10.8888
ap	-10.8889
▁load	-10.8901
▁senior	-10.8902
▁texas	-10.8902
▁universities	-10.8902
form	-10.8902
▁football	-10.8902
▁leap	-10.8903
▁demonstration	-10.8903
▁underground	-10.8903
▁diverse	-10.8904
▁meter	-10.8906
▁darkness	-10.891
▁cheaper	-10.8911
▁aside	-10.892
▁crying	-10.8923
▁accepted	-10.8927
▁wired	-10.8927
▁thoughts	-10.8932
▁muscles	-10.8935
▁tasks	-10.8937
▁incentives	-10.8939
▁cap	-10.8948
▁stands	-10.8948
▁dolphins	-10.8964
ens	-10.8965
▁pin	-10.8997
▁glad	-10.9006
▁stack	-10.9008
▁du	-10.9011
▁cl	-10.9013
▁advance	-10.9013
▁vertical	-10.9014
▁historical	-10.9016
▁gates	-10.9017
▁advertising	-10.9021
▁skeleton	-10.9021
▁smooth	-10.9021
▁synthetic	-10.9021
▁uganda	-10.9021
tra	-10.9021
▁governance	-10.9021
▁laughter	-10.9022
▁secondly	-10.9026
▁chosen	-10.9027
▁exposed	-10.9028
▁origin	-10.9029
▁granted	-10.903
▁stepp	-10.9032
▁reef	-10.9035
▁missed	-10.9041
▁removed	-10.9052
▁storm	-10.9052
▁beer	-10.9054
▁generated	-10.9055
▁captured	-10.906
▁paintings	-10.9071
ard	-10.908
▁jo	-10.9081
▁fed	-10.9098
▁globally	-10.9103
▁volunteers	-10.9109
tor	-10.9114
▁calculate	-10.9122
▁rooms	-10.9126
century	-10.9133
▁silent	-10.9135
▁opera	-10.914
▁9/11	-10.9142
▁explosion	-10.9142
▁martin	-10.9142
▁intuition	-10.9142
▁charity	-10.9142
▁theories	-10.9142
▁symmetry	-10.9142
▁vagina	-10.9143
▁pie	-10.9144
▁equality	-10.9144
▁dedicated	-10.9146
▁50,000	-10.9149
▁wise	-10.9151
head	-10.9151
▁promote	-10.9155
▁ray	-10.9182
▁speaker	-10.9185
▁uncle	-10.9187
▁coat	-10.921
▁searching	-10.922
▁26	-10.9224
▁electronics	-10.9239
ory	-10.9242
▁golf	-10.9246
▁lu	-10.9258
▁pour	-10.9263
▁essence	-10.9264
▁probability	-10.9264
▁soviet	-10.9264
▁domain	-10.9264
▁hungry	-10.9264
nc	-10.9264
▁devil	-10.9264
▁herself	-10.9264
▁accessible	-10.9265
▁elsewhere	-10.9266
▁dirty	-10.9267
▁biologists	-10.9276
▁regret	-10.928
▁quit	-10.9283
ko	-10.9285
▁hy	-10.9287
▁neuron	-10.9291
den	-10.9298
▁hire	-10.9298
▁chimpanzees	-10.9302
sum	-10.9302
▁collecting	-10.9312
▁roots	-10.9316
▁terrorists	-10.9322
where	-10.9334
▁afterwards	-10.9345
▁sch	-10.9349
olds	-10.9352
▁harvest	-10.9352
▁arrive	-10.9368
▁algorithm	-10.9377
▁initial	-10.938
▁dictionary	-10.9387
▁facial	-10.9387
▁skull	-10.9387
▁simulation	-10.9387
▁gear	-10.9388
▁meetings	-10.9388
▁achievement	-10.9389
▁lens	-10.9394
▁bother	-10.9395
▁oldest	-10.9399
▁20,000	-10.94
▁grave	-10.94
▁grows	-10.9403
▁spell	-10.9403
▁mechanics	-10.9406
▁tears	-10.9407
▁sheet	-10.941
▁bond	-10.9423
▁poster	-10.9426
▁sh	-10.9434
▁touched	-10.9437
▁teams	-10.9442
▁dear	-10.9453
▁conflicts	-10.9499
▁download	-10.9502
▁hook	-10.9502
▁neighborhoods	-10.9503
ible	-10.9507
▁dust	-10.9508
▁actors	-10.9509
our	-10.951
▁mount	-10.9512
▁boundaries	-10.9512
▁passenger	-10.9512
▁pregnant	-10.9512
▁shrimp	-10.9512
▁tragedy	-10.9512
▁translation	-10.9512
▁neural	-10.9512
▁transparent	-10.9512
▁debt	-10.9512
▁profile	-10.9513
back	-10.9513
▁atlantic	-10.9513
▁lamp	-10.9513
▁cliff	-10.9515
▁pace	-10.9516
▁locked	-10.9525
▁photography	-10.9527
▁jet	-10.9541
▁experimental	-10.9541
▁su	-10.9544
▁tar	-10.956
▁ages	-10.9572
▁killer	-10.9595
▁mechanisms	-10.9601
▁toys	-10.9612
power	-10.9615
▁indicate	-10.9619
▁conclude	-10.9619
▁ingredients	-10.9625
▁stations	-10.9635
▁dominant	-10.9639
▁empire	-10.9639
▁excellent	-10.9639
▁sensation	-10.9639
▁jewish	-10.9639
▁array	-10.9639
▁aircraft	-10.9639
▁rice	-10.9639
▁ooh	-10.9644
▁mail	-10.9646
ze	-10.9646
▁pursue	-10.9664
▁depth	-10.9665
▁fiber	-10.9667
▁consequence	-10.9668
av	-10.9675
▁pot	-10.9677
▁participants	-10.9691
▁populations	-10.9707
▁soap	-10.9715
▁leverage	-10.9737
▁trends	-10.9742
▁blame	-10.9747
ologist	-10.9751
▁bias	-10.9751
▁agricultural	-10.9767
▁origami	-10.9767
▁substance	-10.9767
▁comparison	-10.9767
▁ignorance	-10.9767
▁arctic	-10.9767
▁pause	-10.9767
▁extinction	-10.9769
▁affordable	-10.9771
▁integrated	-10.9778
▁communications	-10.9778
ble	-10.9785
▁contains	-10.9792
▁mri	-10.9797
▁observation	-10.9798
▁visited	-10.9803
▁graphic	-10.981
ned	-10.9813
▁seeds	-10.9821
▁africans	-10.9821
▁musicians	-10.9825
▁methods	-10.9827
▁efforts	-10.983
ept	-10.9839
"]	-10.9881
ship	-10.9881
▁reefs	-10.9882
wi	-10.9883
▁demo	-10.9887
▁proper	-10.9892
lan	-10.9893
▁capita	-10.9896
▁twenty	-10.9897
▁helicopter	-10.9897
▁robust	-10.9897
▁spectacular	-10.9897
▁vacuum	-10.9897
▁chaos	-10.9897
▁copyright	-10.9897
▁subtle	-10.9897
▁smoking	-10.9897
▁attractive	-10.9898
ile	-10.9898
▁isolated	-10.99
▁italy	-10.9901
▁stable	-10.9901
▁hello	-10.9906
▁proportion	-10.991
▁volunteer	-10.9918
fe	-10.9923
▁relations	-10.9925
▁improvement	-10.9933
▁soldier	-10.9934
▁suggesting	-10.9939
▁photographer	-10.9943
med	-10.995
▁mayor	-10.9951
ium	-10.9957
▁reduced	-10.9958
▁passing	-10.9961
▁mt	-10.9965
▁beliefs	-10.9967
graph	-10.9969
▁pulling	-10.9984
▁links	-10.9987
▁wing	-10.9999
▁bob	-11.0014
▁lighting	-11.002
▁vital	-11.0028
▁depressed	-11.0028
▁hollywood	-11.0028
▁oxford	-11.0028
▁oxytocin	-11.0028
▁uncomfortable	-11.0028
▁port	-11.0028
▁capability	-11.0029
▁anxiety	-11.0029
▁portion	-11.003
▁globalization	-11.0033
▁alien	-11.0033
▁announced	-11.0034
▁ensure	-11.0039
▁emerge	-11.0045
▁output	-11.0046
▁richer	-11.0048
▁drawn	-11.0049
▁originally	-11.0049
▁mac	-11.0049
▁passwords	-11.006
▁banks	-11.0063
▁delivered	-11.0063
▁walks	-11.0066
▁variation	-11.0067
▁printer	-11.0067
▁tribe	-11.0068
▁crops	-11.0082
kin	-11.0087
▁accidents	-11.0087
▁bend	-11.0095
▁pointed	-11.0096
▁lock	-11.0098
▁operations	-11.0098
▁elections	-11.01
bar	-11.0108
▁tribes	-11.0122
▁dress	-11.0124
▁broad	-11.0135
aw	-11.0138
▁analyze	-11.0142
▁produces	-11.0144
▁symbols	-11.0146
▁compete	-11.0161
▁category	-11.0162
▁happier	-11.0162
▁pandemic	-11.0162
▁smallpox	-11.0162
▁figuring	-11.0162
▁assignment	-11.0162
▁keyboard	-11.0163
▁laid	-11.0164
▁dependent	-11.0165
▁continues	-11.0167
▁briefly	-11.017
▁rarely	-11.0174
▁dimension	-11.0187
▁dozens	-11.0191
▁hanging	-11.0198
▁session	-11.0201
▁revenue	-11.0203
▁intervention	-11.0203
▁predator	-11.0204
▁physicist	-11.0204
▁citizen	-11.0206
▁inspiring	-11.021
▁crossing	-11.0225
▁ski	-11.0226
▁strangers	-11.0228
▁ratio	-11.0231
▁fe	-11.0243
▁wanting	-11.0249
▁sacrifice	-11.025
▁underly	-11.0253
▁homo	-11.0254
▁layers	-11.0262
▁characteristics	-11.0267
▁seats	-11.0269
▁flash	-11.0275
ock	-11.0277
▁ate	-11.0277
▁witness	-11.028
▁adjust	-11.0283
level	-11.0288
▁audio	-11.0289
▁pm	-11.0291
▁speakers	-11.0291
▁rwanda	-11.0292
▁fraction	-11.0297
▁hemisphere	-11.0297
▁naked	-11.0297
▁cheese	-11.0297
▁supermarket	-11.0297
▁si	-11.0297
▁jack	-11.0299
▁tackle	-11.03
▁genocide	-11.0305
▁sl	-11.0307
▁unlikely	-11.0308
▁balls	-11.0311
▁award	-11.0312
▁ben	-11.0313
▁fuels	-11.0317
▁parties	-11.0319
▁plug	-11.0322
▁predictions	-11.0333
▁returned	-11.0333
▁ne	-11.0335
▁dynamics	-11.0335
▁teenagers	-11.0337
▁thumb	-11.034
▁attitude	-11.0342
▁nurse	-11.0342
▁egg	-11.0343
▁dinosaur	-11.0344
▁separated	-11.0348
net	-11.0353
▁28	-11.0369
▁profession	-11.0372
half	-11.0388
▁protecting	-11.0394
▁geo	-11.0407
▁bin	-11.041
▁ko	-11.0418
▁autonomous	-11.0428
▁bat	-11.0429
▁ethiopia	-11.0429
▁geographic	-11.043
ification	-11.0432
▁agencies	-11.0434
▁fabulous	-11.0434
▁facility	-11.0434
▁florida	-11.0434
▁identified	-11.0434
▁industries	-11.0434
▁mysterious	-11.0434
▁primarily	-11.0434
▁wheelchair	-11.0434
▁injury	-11.0434
▁sacred	-11.0434
▁turkey	-11.0434
▁association	-11.0434
▁bathroom	-11.0434
▁2006	-11.0435
▁honey	-11.0436
▁drum	-11.0436
▁discoveries	-11.0436
▁tension	-11.0437
▁urge	-11.0438
▁linear	-11.0447
▁constructed	-11.0447
▁120	-11.045
▁circles	-11.0455
▁fi	-11.046
▁determined	-11.0467
▁painted	-11.0468
▁reminded	-11.047
▁belong	-11.0475
iest	-11.0477
▁deserve	-11.0483
▁lawyer	-11.0484
▁weapon	-11.0484
▁sport	-11.0486
war	-11.0488
▁95	-11.0492
▁publish	-11.0493
▁cable	-11.0495
rb	-11.0507
▁nurses	-11.0525
▁includes	-11.0538
▁additional	-11.0546
▁picking	-11.055
▁perceive	-11.0556
▁branch	-11.057
▁terror	-11.057
▁chamber	-11.0573
▁primitive	-11.0573
▁resilience	-11.0573
▁routine	-11.0573
▁dialogue	-11.0573
▁bullet	-11.0573
▁garage	-11.0573
▁impression	-11.0573
▁clay	-11.0573
▁interpretation	-11.0573
▁convey	-11.0574
▁bound	-11.0575
▁proof	-11.0577
▁woke	-11.0583
▁sink	-11.0588
▁reveal	-11.0589
▁tied	-11.059
▁mood	-11.0594
▁openness	-11.0595
▁rope	-11.0596
▁damn	-11.0599
▁lungs	-11.0603
her	-11.0607
▁ge	-11.0621
▁liberal	-11.0624
▁pushed	-11.0624
▁nets	-11.063
meter	-11.0631
▁partly	-11.0637
▁ink	-11.064
▁dish	-11.0656
val	-11.0662
▁besides	-11.0692
ach	-11.0693
▁bars	-11.0693
▁construct	-11.0696
▁landed	-11.0699
▁absorb	-11.07
▁rap	-11.0701
when	-11.0705
▁alzheimer	-11.0713
▁pioneer	-11.0713
▁recipe	-11.0713
▁october	-11.0714
▁forgotten	-11.0714
▁shopping	-11.0714
▁grandchildren	-11.0714
▁permission	-11.0714
▁programming	-11.0714
▁arabic	-11.0716
▁sensory	-11.0719
▁initially	-11.0721
▁inches	-11.0722
▁innovations	-11.0727
▁writers	-11.0731
▁extended	-11.0731
▁cr	-11.0736
▁dumb	-11.0738
▁gathering	-11.0741
▁expanding	-11.0754
▁predicted	-11.0756
▁frog	-11.0756
▁farming	-11.0765
▁sensor	-11.0767
▁economist	-11.0772
▁panel	-11.0773
▁edges	-11.0776
▁agent	-11.0783
▁tricks	-11.0797
▁computation	-11.0815
▁ni	-11.0816
▁cop	-11.082
▁reports	-11.0821
▁cart	-11.0824
▁helpful	-11.0838
▁ending	-11.0841
▁knock	-11.0842
▁focusing	-11.0846
wow	-11.0848
▁rough	-11.0849
▁precise	-11.085
▁wipe	-11.0852
▁sandwich	-11.0854
▁jim	-11.0856
▁administration	-11.0856
▁expansion	-11.0856
▁fought	-11.0856
▁inevitable	-11.0856
▁participation	-11.0856
▁threshold	-11.0856
▁unbelievable	-11.0856
▁heal	-11.0856
▁architectural	-11.0856
▁saturn	-11.0856
▁scanner	-11.0857
▁slavery	-11.0857
▁wildlife	-11.0857
▁duck	-11.0857
▁gradually	-11.0857
▁frequency	-11.0858
▁elderly	-11.0858
▁occasionally	-11.0858
▁silly	-11.0859
▁scales	-11.0859
▁neck	-11.0861
▁magical	-11.0861
▁ecosystems	-11.0864
▁artistic	-11.0864
▁peter	-11.0864
▁begun	-11.0865
▁gases	-11.087
▁surprisingly	-11.0871
▁translated	-11.0888
▁clients	-11.0898
▁failing	-11.09
▁sin	-11.0912
▁ceo	-11.0918
▁discipline	-11.0918
▁owner	-11.092
▁reserve	-11.0921
▁trucks	-11.0921
▁throwing	-11.0923
han	-11.0924
▁assumptions	-11.0932
▁spots	-11.0964
ence	-11.0971
▁cur	-11.0977
▁shine	-11.0979
▁needle	-11.0979
▁regard	-11.0986
ft	-11.0988
room	-11.099
▁wash	-11.0992
four	-11.0994
▁immediate	-11.0995
▁consistent	-11.0995
▁burst	-11.0998
▁prior	-11.1
30	-11.1
▁exploit	-11.1
▁virgin	-11.1001
▁methane	-11.1001
▁signature	-11.1001
▁whistle	-11.1001
▁baseball	-11.1001
▁collaborative	-11.1001
▁concentration	-11.1002
▁flexible	-11.1002
▁installation	-11.1002
▁confident	-11.1002
▁smith	-11.1002
▁250	-11.1002
▁mindset	-11.1003
▁craft	-11.1006
▁rotate	-11.1014
▁pat	-11.1014
▁luck	-11.1014
20	-11.1016
▁proposed	-11.1018
▁smarter	-11.1023
▁emerged	-11.1023
▁hearts	-11.1043
▁joint	-11.1058
▁firm	-11.1059
▁judgment	-11.1066
▁formula	-11.1066
▁trace	-11.1067
▁elephants	-11.1067
▁nerve	-11.1067
▁victim	-11.1069
▁refugee	-11.1069
▁russian	-11.1073
▁caring	-11.1073
▁bowl	-11.1092
▁viewer	-11.1096
▁sleeping	-11.1106
▁sentences	-11.1107
▁treatments	-11.1119
tail	-11.114
clock	-11.1142
▁instant	-11.1142
▁hackers	-11.1143
▁abilities	-11.1148
▁biodiversity	-11.1148
▁bizarre	-11.1148
▁civic	-11.1148
▁contemporary	-11.1148
▁expedition	-11.1148
▁parliament	-11.1148
▁purchase	-11.1148
▁struggling	-11.1148
▁annual	-11.1148
▁stunt	-11.1148
▁resist	-11.1148
▁trash	-11.1148
▁colonies	-11.1148
▁israeli	-11.1149
▁4,000	-11.115
▁highlight	-11.1151
▁pe	-11.1152
▁merely	-11.1152
▁hitting	-11.1155
▁imagery	-11.1155
▁boss	-11.1158
▁85	-11.1158
▁diagnosed	-11.1159
▁bubbles	-11.1163
▁tune	-11.1163
▁grasp	-11.1163
made	-11.1169
▁washing	-11.117
▁suggested	-11.118
▁similarly	-11.1188
▁served	-11.1195
▁difficulty	-11.1199
▁answered	-11.1203
▁10-	-11.1205
▁pad	-11.1213
▁mimic	-11.1214
▁miracle	-11.1217
▁greek	-11.1218
▁views	-11.1218
▁assumption	-11.122
▁meal	-11.122
▁dolphin	-11.122
win	-11.1233
▁panels	-11.1236
▁stages	-11.124
qua	-11.1252
▁complain	-11.1262
▁scores	-11.1271
cha	-11.1277
▁restore	-11.128
▁shaped	-11.1282
▁freak	-11.1283
▁cats	-11.1291
▁exhibit	-11.1294
▁coach	-11.1296
▁aggressive	-11.1298
▁choosing	-11.1298
▁harbor	-11.1298
▁whatsoever	-11.1298
▁buried	-11.1298
▁imaging	-11.1298
▁mask	-11.1298
▁competitive	-11.1299
▁2003	-11.13
▁documents	-11.13
▁toy	-11.1302
▁sisters	-11.1305
▁targets	-11.1306
▁log	-11.1308
▁realizing	-11.131
▁radically	-11.1311
▁upset	-11.1311
▁sticks	-11.1312
▁instructions	-11.1313
▁mar	-11.1316
▁lego	-11.1317
▁shocked	-11.132
mar	-11.1322
▁successfully	-11.1329
▁kb	-11.1336
rate	-11.1343
▁surfaces	-11.1344
▁satellites	-11.1344
▁photographed	-11.1345
new	-11.135
▁climbing	-11.135
▁9	-11.1354
▁ham	-11.1364
▁drivers	-11.1369
▁scenario	-11.1371
▁infection	-11.1374
▁stores	-11.1376
▁scar	-11.1383
▁bucks	-11.1395
▁supported	-11.1397
▁bears	-11.1405
▁discuss	-11.1412
▁chairs	-11.1414
▁melt	-11.1416
some	-11.1425
▁decrease	-11.1429
▁replicate	-11.143
▁prepare	-11.143
▁package	-11.143
▁implant	-11.1435
world	-11.144
▁fate	-11.1443
▁explaining	-11.1443
▁horizon	-11.1448
▁wrap	-11.1449
▁beneath	-11.1449
▁february	-11.1449
▁fragile	-11.1449
▁hypothesis	-11.1449
▁'90	-11.1449
▁cambridge	-11.1449
▁structural	-11.1449
▁combat	-11.1449
▁jesus	-11.1449
▁cotton	-11.1449
▁luckily	-11.1449
▁uncertainty	-11.1449
▁expectancy	-11.1449
▁export	-11.1449
▁vulnerability	-11.145
▁appearance	-11.145
▁pharmaceutical	-11.145
▁genetically	-11.1452
▁2001	-11.1453
▁homework	-11.1454
▁fastest	-11.1454
▁shirt	-11.1455
▁confused	-11.1455
▁dial	-11.1459
▁informed	-11.1459
▁warning	-11.1461
▁educated	-11.1466
▁mixed	-11.1475
▁entering	-11.1503
▁completed	-11.1521
▁demographic	-11.1527
▁excuse	-11.1528
▁physician	-11.1529
▁insect	-11.1531
▁terrorist	-11.1531
▁refugees	-11.1533
▁joe	-11.1539
▁te	-11.1541
▁stranger	-11.1547
▁lawyers	-11.1547
▁habit	-11.156
▁wings	-11.1561
▁observe	-11.1572
▁steal	-11.1579
▁pray	-11.158
cent	-11.1581
▁rebuild	-11.1582
▁pal	-11.1583
▁select	-11.1587
book	-11.1593
interest	-11.1594
▁verb	-11.16
▁alcohol	-11.1601
▁capabilities	-11.1603
▁extension	-11.1603
▁matrix	-11.1603
▁silver	-11.1603
▁strategic	-11.1603
▁microbial	-11.1603
▁innocent	-11.1603
▁'70	-11.1603
▁derek	-11.1603
▁rape	-11.1603
▁authorities	-11.1603
▁norway	-11.1604
▁nonprofit	-11.1604
▁cake	-11.1605
box	-11.1609
▁wider	-11.1615
▁county	-11.1621
▁distinguish	-11.1623
▁tent	-11.1627
▁suffered	-11.1628
▁funded	-11.1635
▁someday	-11.1638
▁strongly	-11.164
▁invested	-11.1642
▁rolling	-11.1652
▁mono	-11.1661
star	-11.1664
▁robotics	-11.1665
▁shit	-11.167
▁founded	-11.1682
▁suck	-11.1682
▁nu	-11.1686
▁rainforest	-11.1686
▁cluster	-11.1687
human	-11.1691
▁musician	-11.1699
▁preserve	-11.1702
ou	-11.1712
▁ag	-11.1721
▁tone	-11.1721
▁exception	-11.1725
▁sweat	-11.1728
▁adopt	-11.1744
uring	-11.1745
▁par	-11.1747
▁fortunate	-11.1753
▁exponential	-11.1753
▁distinct	-11.1757
▁incident	-11.1759
▁closing	-11.1759
▁december	-11.1759
▁enterprise	-11.1759
▁elegant	-11.1759
▁tongue	-11.1759
▁pride	-11.1759
▁italian	-11.1759
▁foster	-11.176
▁marketplace	-11.176
▁index	-11.176
▁leaf	-11.176
▁subway	-11.1761
▁hyper	-11.1761
▁compelling	-11.1764
▁elected	-11.1767
▁adopted	-11.1773
▁positions	-11.1779
▁unable	-11.1781
ana	-11.1783
▁yorker	-11.1787
cal	-11.1795
▁rats	-11.1803
▁pit	-11.1813
▁33	-11.1825
▁remembered	-11.1828
▁improved	-11.1839
ice	-11.1852
▁archive	-11.186
she	-11.186
▁doors	-11.1869
▁tim	-11.1872
▁expecting	-11.1874
▁officer	-11.1874
▁navigate	-11.1878
right	-11.1886
▁staying	-11.1889
▁hunt	-11.1891
▁tunnel	-11.1896
ain	-11.1897
▁slice	-11.1898
▁ju	-11.1901
▁bats	-11.1903
▁quest	-11.1916
▁beijing	-11.1918
▁dopamine	-11.1918
▁experiencing	-11.1918
▁garbage	-11.1918
▁magnitude	-11.1918
▁nowadays	-11.1918
▁taliban	-11.1918
▁burden	-11.1918
▁optimism	-11.1918
▁tiger	-11.1918
▁marry	-11.1919
▁sunday	-11.1921
▁paralyzed	-11.1921
▁detection	-11.1922
▁punch	-11.1922
▁compassionate	-11.1922
▁ego	-11.1922
▁instantly	-11.1925
▁impacts	-11.1926
▁campus	-11.1928
▁comedy	-11.1932
▁interior	-11.1934
▁approaches	-11.1935
▁profoundly	-11.1936
ya	-11.1945
▁bug	-11.1948
ology	-11.1949
pping	-11.1961
▁eric	-11.1973
▁cartoons	-11.1976
▁entrepreneur	-11.1976
▁youth	-11.1983
▁span	-11.1985
▁armed	-11.1987
▁covering	-11.199
chi	-11.1997
du	-11.1999
bit	-11.2
ew	-11.201
▁ticket	-11.2011
▁conservative	-11.2012
▁mushroom	-11.2012
▁drone	-11.2016
▁crop	-11.2017
get	-11.2036
ima	-11.205
light	-11.2054
law	-11.2058
▁qua	-11.206
▁confront	-11.2064
▁flows	-11.2067
▁astonishing	-11.2072
sahara	-11.2073
▁transmit	-11.2078
▁cosmic	-11.2079
▁membrane	-11.2079
▁trajectory	-11.2079
▁unprecedented	-11.2079
▁canopy	-11.2079
▁rubber	-11.2079
▁simultaneously	-11.208
▁pulse	-11.208
▁frustrated	-11.208
▁winning	-11.2081
generating	-11.2081
▁iranian	-11.2081
who	-11.2084
▁hydro	-11.2085
ably	-11.2089
▁mining	-11.2093
▁classical	-11.2093
bb	-11.2097
▁widely	-11.21
▁shore	-11.21
▁vent	-11.2101
ama	-11.2104
ville	-11.2111
▁tri	-11.2111
▁included	-11.2117
▁jumped	-11.2121
▁sixth	-11.2123
▁remaining	-11.2125
▁owned	-11.2128
here	-11.2147
ib	-11.2151
▁tie	-11.216
▁sam	-11.2162
▁errors	-11.2164
▁protest	-11.2175
▁initiative	-11.2178
▁clue	-11.2179
▁threats	-11.2183
▁highway	-11.2185
▁pound	-11.2187
▁illustrate	-11.2196
▁recover	-11.2202
▁bite	-11.2211
▁appeal	-11.2222
▁kit	-11.2222
ties	-11.2223
▁guarantee	-11.2224
▁daughters	-11.2224
▁neat	-11.2237
▁kiss	-11.2243
▁bronx	-11.2243
▁contrary	-11.2243
▁cricket	-11.2243
▁curriculum	-11.2243
▁despair	-11.2243
▁facilities	-11.2243
▁glamorous	-11.2243
▁mutual	-11.2243
▁qualities	-11.2243
▁tendency	-11.2243
▁uniform	-11.2243
▁saudi	-11.2243
▁viral	-11.2243
▁addiction	-11.2244
▁meanwhile	-11.2244
▁fence	-11.2244
▁shipping	-11.2244
▁footage	-11.2245
▁agreement	-11.2246
put	-11.2246
▁mike	-11.2247
▁wealthy	-11.226
▁measures	-11.2262
▁wedding	-11.2264
▁calm	-11.2268
▁tumors	-11.2271
▁ships	-11.2277
▁burned	-11.228
▁detailed	-11.2281
▁ya	-11.2285
▁pigs	-11.2285
▁headed	-11.2286
▁investing	-11.2306
▁influenced	-11.2311
▁survived	-11.2325
▁articles	-11.2325
▁rank	-11.2334
▁medication	-11.2348
▁strike	-11.2348
▁column	-11.2348
▁acid	-11.2349
▁physicists	-11.2357
▁beam	-11.2358
▁pairs	-11.2384
ade	-11.2385
har	-11.2388
▁socially	-11.2393
▁ku	-11.2393
fold	-11.2394
▁establish	-11.2395
▁spark	-11.2396
▁twist	-11.2396
▁sits	-11.24
minute	-11.2401
▁holds	-11.2401
ack	-11.2402
▁intuitive	-11.2404
▁occasion	-11.2406
▁infant	-11.2409
▁crystal	-11.241
ordinarily	-11.241
▁dilemma	-11.241
▁pencil	-11.241
▁reducing	-11.241
▁temple	-11.241
▁tsunami	-11.241
▁generous	-11.241
▁blank	-11.241
▁expertise	-11.241
▁ownership	-11.241
▁dawn	-11.241
▁impressive	-11.241
▁reproduce	-11.241
▁spain	-11.241
▁factories	-11.2411
▁comments	-11.2412
▁cube	-11.2412
▁improving	-11.2414
▁intersection	-11.2414
▁rick	-11.2415
▁morality	-11.2416
▁deck	-11.2418
▁mary	-11.2419
▁reflection	-11.242
▁bull	-11.242
▁conducted	-11.2422
▁clothing	-11.2423
▁institutional	-11.2427
▁gathered	-11.2431
▁hunting	-11.2432
▁significantly	-11.2434
▁ban	-11.2439
▁controls	-11.244
▁odds	-11.2451
looking	-11.2453
▁upside	-11.2461
▁nutrients	-11.2463
▁tro	-11.247
▁chips	-11.2479
▁soup	-11.2485
▁jar	-11.2486
▁cha	-11.249
▁flowing	-11.2503
▁secrets	-11.2504
▁defend	-11.2511
▁jam	-11.2511
▁label	-11.2514
▁bump	-11.252
▁christian	-11.2521
▁customer	-11.2526
▁occurs	-11.2529
▁recall	-11.2543
▁plays	-11.2557
▁traditions	-11.2557
▁poison	-11.2557
▁sauce	-11.2559
▁propose	-11.256
▁pu	-11.256
▁forming	-11.2568
zero	-11.257
▁homeless	-11.2572
cr	-11.2573
▁ethnic	-11.2579
▁categories	-11.2579
▁alexander	-11.2579
▁carpet	-11.2579
▁steam	-11.2579
▁division	-11.2579
▁disability	-11.258
▁gentleman	-11.258
▁investors	-11.258
▁harness	-11.2581
▁serving	-11.2581
▁continuing	-11.2581
▁workplace	-11.2582
▁dung	-11.2582
▁analogy	-11.2584
▁healthier	-11.2585
▁dare	-11.2586
▁auto	-11.2586
▁researcher	-11.2588
▁sha	-11.2591
▁30,000	-11.2591
▁coin	-11.2591
▁delivery	-11.2596
▁bombs	-11.2602
▁remained	-11.2611
ide	-11.2612
▁rhythm	-11.2613
▁printed	-11.2614
▁sta	-11.2618
▁professionals	-11.263
ung	-11.2633
gram	-11.2634
▁shots	-11.2646
▁friendly	-11.2649
▁stretch	-11.2652
▁counting	-11.2658
ey	-11.2675
▁tight	-11.2687
▁bind	-11.2689
▁barrier	-11.2697
▁chimpanzee	-11.2698
▁incentive	-11.2698
▁vessel	-11.2698
▁loan	-11.2698
▁comic	-11.27
▁demands	-11.2707
▁obstacles	-11.2709
▁rivers	-11.2719
▁interpret	-11.2719
ai	-11.2726
▁mor	-11.2735
▁float	-11.2737
▁stops	-11.2738
rid	-11.2738
press	-11.2743
two	-11.2744
▁sketch	-11.2749
▁supporting	-11.2751
cost	-11.2751
▁tragic	-11.2751
▁awkward	-11.2752
▁entropy	-11.2752
▁flavor	-11.2752
▁purple	-11.2752
▁wheat	-11.2752
▁dutch	-11.2752
▁proposition	-11.2752
▁ongoing	-11.2752
▁spanish	-11.2752
▁700	-11.2752
▁antarctica	-11.2753
▁forgot	-11.2753
▁ipod	-11.2753
▁slime	-11.2753
▁crew	-11.2754
▁located	-11.2757
▁selfish	-11.2758
▁guns	-11.2761
▁threatened	-11.2762
▁glasses	-11.2763
▁established	-11.2766
▁previously	-11.2767
▁moore	-11.2769
▁honestly	-11.2771
ob	-11.2771
▁peaceful	-11.2777
▁che	-11.2793
▁lions	-11.2794
▁rituals	-11.2794
▁affects	-11.2801
▁reactions	-11.2802
▁icon	-11.2806
▁wires	-11.2807
▁charges	-11.2815
▁gaps	-11.2822
▁drones	-11.2823
▁poems	-11.2826
▁outer	-11.2831
▁insights	-11.2847
▁designs	-11.285
▁drag	-11.2857
▁blogs	-11.2867
zo	-11.2867
▁philosopher	-11.2875
pr	-11.2875
▁twin	-11.2876
▁client	-11.2876
▁800	-11.2877
▁channels	-11.2878
▁teenager	-11.288
▁bath	-11.2888
▁convention	-11.2888
▁manager	-11.2891
ened	-11.2892
hu	-11.2899
▁fo	-11.2908
▁restaurants	-11.2908
▁semi	-11.2911
▁dam	-11.2911
▁activate	-11.2914
▁critic	-11.2919
▁ecological	-11.292
jo	-11.2923
▁format	-11.2925
▁captain	-11.2927
▁friday	-11.2927
▁gallery	-11.2927
▁glamour	-11.2927
▁heritage	-11.2927
▁knife	-11.2927
▁phantom	-11.2927
▁prescription	-11.2927
▁reliable	-11.2927
▁syndrome	-11.2927
▁terribly	-11.2927
▁terrifying	-11.2927
▁virtue	-11.2927
▁mobility	-11.2927
tropical	-11.2927
▁jazz	-11.2927
▁straightforward	-11.2927
▁microphone	-11.2927
▁excitement	-11.2928
▁monster	-11.2928
▁royal	-11.2928
▁2011	-11.2928
▁redwood	-11.2928
▁venture	-11.2929
▁jaw	-11.293
▁mapping	-11.293
▁thus	-11.293
▁nearby	-11.293
▁beating	-11.2932
▁closest	-11.2943
▁howard	-11.2958
▁performed	-11.2959
▁via	-11.2962
▁monitoring	-11.2965
▁chase	-11.2967
▁static	-11.2969
▁graduated	-11.2974
▁whi	-11.2975
▁glue	-11.2976
org	-11.2984
▁asian	-11.2987
▁bottles	-11.2991
▁offering	-11.2996
▁shifting	-11.3008
▁har	-11.3009
▁mill	-11.3023
▁redesign	-11.3026
row	-11.3033
▁bu	-11.3036
▁ngos	-11.3041
▁aim	-11.3043
▁makers	-11.305
▁comp	-11.3052
lit	-11.3055
▁asteroid	-11.3057
▁household	-11.3058
▁portrait	-11.3058
▁mentor	-11.3059
▁alternatives	-11.3061
▁graphics	-11.3061
▁badly	-11.3062
▁prediction	-11.3064
▁hug	-11.3064
▁murder	-11.3064
▁approaching	-11.307
digit	-11.3071
▁sm	-11.3077
▁acknowledge	-11.3086
▁resolve	-11.3086
▁vegetables	-11.3087
gging	-11.3087
known	-11.3097
good	-11.3097
lai	-11.3098
▁corporations	-11.3099
▁mathematicians	-11.3099
▁teenage	-11.3101
▁phenomena	-11.3102
▁journalists	-11.3105
▁vietnam	-11.3106
▁genuine	-11.3106
▁grandparents	-11.3106
▁jihad	-11.3106
▁luxury	-11.3106
▁negotiate	-11.3106
▁occupy	-11.3106
▁pizza	-11.3106
▁precious	-11.3106
▁stomach	-11.3106
▁earliest	-11.3106
▁phosphorus	-11.3106
▁brush	-11.3106
▁koran	-11.3106
▁delhi	-11.3106
▁retirement	-11.3106
▁smartphone	-11.3106
▁stability	-11.3106
▁prostate	-11.3107
▁loving	-11.3107
▁estate	-11.3108
▁lord	-11.3109
▁branches	-11.3109
▁texture	-11.3109
▁frontier	-11.311
▁lowest	-11.3113
▁tide	-11.3113
▁200,000	-11.3115
▁eaten	-11.3115
▁arrested	-11.3116
▁dressed	-11.3125
oid	-11.3129
▁rethink	-11.3143
vin	-11.3144
▁encouraged	-11.3152
▁container	-11.3166
▁engines	-11.3166
▁sal	-11.3171
▁tracks	-11.3183
▁catching	-11.3184
▁airplanes	-11.3187
▁freely	-11.3189
▁discovering	-11.3192
▁namely	-11.3201
pers	-11.3229
▁bra	-11.3233
▁traits	-11.3234
▁breaks	-11.3236
▁glacier	-11.3241
▁procedure	-11.3242
▁pill	-11.3242
▁ritual	-11.3243
▁password	-11.3244
▁sustain	-11.325
▁pointing	-11.3253
▁surround	-11.3253
▁lion	-11.3261
ward	-11.3263
dic	-11.3263
▁recommend	-11.3272
▁sk	-11.3277
related	-11.3277
ulate	-11.3287
▁encouraging	-11.3288
▁endangered	-11.3288
▁investigation	-11.3288
▁miserable	-11.3288
▁pedestrian	-11.3288
▁tanzania	-11.3288
▁tattoo	-11.3288
▁temporary	-11.3288
▁album	-11.3288
▁investigate	-11.3288
▁exposure	-11.3288
▁seemingly	-11.3288
▁transmission	-11.3288
▁currency	-11.3288
▁punishment	-11.3288
▁fancy	-11.3288
▁pursuit	-11.3288
▁6,000	-11.3289
▁fusion	-11.3289
▁passage	-11.329
▁2012	-11.329
▁coke	-11.329
▁shelf	-11.329
▁workforce	-11.3291
▁santa	-11.3291
▁2050	-11.3292
▁manner	-11.3294
▁hiding	-11.3295
▁items	-11.3299
▁holy	-11.3306
▁smallest	-11.3306
▁collectively	-11.331
▁cookie	-11.3312
▁electron	-11.3313
▁perceived	-11.3316
▁atomic	-11.332
▁interviewed	-11.332
▁accounts	-11.332
▁quad	-11.3325
changing	-11.3326
▁server	-11.3327
sized	-11.3328
tter	-11.3332
▁collapsed	-11.3332
▁powers	-11.3333
▁managers	-11.3343
▁profits	-11.3354
▁habits	-11.3374
▁motors	-11.3375
▁physicians	-11.3375
▁lean	-11.3381
▁nuts	-11.3388
▁drawings	-11.3392
▁females	-11.3399
▁classrooms	-11.3405
fr	-11.3405
cut	-11.3414
▁wound	-11.3415
▁relation	-11.3429
▁chromosome	-11.343
▁cows	-11.3436
▁bust	-11.3449
▁alarm	-11.3451
▁govern	-11.3452
long	-11.3457
▁attach	-11.346
▁grant	-11.346
iness	-11.3461
▁manual	-11.3469
▁passive	-11.3469
▁prisoners	-11.347
▁titan	-11.3471
▁bribe	-11.3472
▁august	-11.3472
▁leather	-11.3473
▁altitude	-11.3473
▁diagnosis	-11.3473
▁ecology	-11.3473
▁gandhi	-11.3473
▁glimpse	-11.3473
▁independence	-11.3473
▁indonesia	-11.3473
▁mandela	-11.3473
▁multiply	-11.3473
▁nelson	-11.3473
▁recycling	-11.3473
▁schizophrenia	-11.3473
▁shanghai	-11.3473
▁ubiquitous	-11.3473
▁yourselves	-11.3473
▁absence	-11.3473
▁storytelling	-11.3473
▁retreat	-11.3473
▁jellyfish	-11.3473
▁assistance	-11.3473
▁storage	-11.3473
▁bored	-11.3473
▁formal	-11.3473
▁regardless	-11.3474
▁diving	-11.3474
▁johnson	-11.3474
▁fbi	-11.3474
▁chop	-11.3475
▁drew	-11.3475
▁overnight	-11.3476
▁prevention	-11.3478
▁july	-11.3481
▁dating	-11.3481
port	-11.3481
▁camps	-11.3482
▁chances	-11.3484
▁panic	-11.3485
▁indians	-11.3487
▁kills	-11.3487
▁hardest	-11.3491
▁shoe	-11.3491
▁formation	-11.3492
▁safer	-11.3499
▁29	-11.3501
uff	-11.3505
▁bold	-11.3505
▁gained	-11.3509
▁labs	-11.3509
▁conduct	-11.351
▁meme	-11.3512
▁replaced	-11.3521
hy	-11.3523
▁fur	-11.3535
▁dec	-11.3539
▁mud	-11.354
▁weigh	-11.3542
ically	-11.3544
▁55	-11.3545
▁seeking	-11.355
▁transforming	-11.3551
▁impose	-11.3565
ang	-11.3573
▁genetics	-11.3577
▁gen	-11.3582
gar	-11.3582
ups	-11.3583
▁planes	-11.3583
▁amazingly	-11.3585
aged	-11.3585
▁continents	-11.3588
ani	-11.3589
▁ram	-11.3591
▁shower	-11.3595
▁purposes	-11.3595
▁proven	-11.3609
▁42	-11.3621
▁fl	-11.3622
▁partnership	-11.3623
▁compound	-11.3623
▁hormone	-11.3623
▁activist	-11.3623
▁zoo	-11.3633
▁compromise	-11.3643
▁manipulate	-11.3647
▁gods	-11.3655
▁rent	-11.3658
▁cor	-11.366
▁republic	-11.3661
▁cyber	-11.3661
▁arguing	-11.3661
▁breakfast	-11.3661
▁collision	-11.3661
▁destiny	-11.3661
▁festival	-11.3661
▁legitimate	-11.3661
▁proposal	-11.3661
▁striking	-11.3661
▁territory	-11.3661
▁warrior	-11.3661
▁henry	-11.3661
▁mainstream	-11.3662
▁cocaine	-11.3662
▁psycho	-11.3662
▁afghan	-11.3662
▁palestinian	-11.3662
▁unhappy	-11.3662
▁bedroom	-11.3662
▁chef	-11.3663
▁stamp	-11.3663
▁cooperate	-11.3663
▁downtown	-11.3665
▁phenomenal	-11.3665
▁magnificent	-11.3666
▁desperately	-11.3666
▁2002	-11.3667
▁predictable	-11.3667
ham	-11.3669
▁halfway	-11.3669
▁circuits	-11.3673
▁inject	-11.3673
▁specialized	-11.3675
▁pockets	-11.3677
▁maker	-11.3682
▁succeeded	-11.369
▁hired	-11.3692
▁psychologists	-11.3695
▁ignored	-11.3702
▁safely	-11.3706
holder	-11.3708
az	-11.3714
▁stones	-11.3717
▁tubes	-11.3717
▁troops	-11.3721
vis	-11.3723
▁shortly	-11.373
▁residents	-11.373
▁wheels	-11.3743
▁religions	-11.3746
▁visualize	-11.3754
▁processor	-11.3755
▁collaborate	-11.3757
▁donor	-11.3791
▁seas	-11.3792
now	-11.3793
▁fibers	-11.3811
▁guard	-11.3819
▁cheat	-11.3819
▁psychologist	-11.382
▁motivate	-11.3834
▁implement	-11.3839
▁install	-11.3839
▁surrounding	-11.384
▁farms	-11.384
▁parks	-11.3848
▁sake	-11.3848
▁slums	-11.385
▁blend	-11.3852
▁valid	-11.3853
volving	-11.3853
▁disagree	-11.3853
▁advocate	-11.3854
▁bangladesh	-11.3854
▁brooklyn	-11.3854
▁drought	-11.3854
▁fisheries	-11.3854
▁geometry	-11.3854
▁indigenous	-11.3854
▁inevitably	-11.3854
▁insulin	-11.3854
▁minimum	-11.3854
▁protocell	-11.3854
▁segment	-11.3854
▁impulse	-11.3854
▁sperm	-11.3854
▁terrain	-11.3854
▁constraints	-11.3854
▁brick	-11.3854
▁elementary	-11.3855
▁trivial	-11.3855
▁sidewalk	-11.3855
▁hometown	-11.3855
▁millimeter	-11.3855
▁vice	-11.3856
▁intensive	-11.3856
▁brazilian	-11.3856
▁visualization	-11.3856
▁ads	-11.3856
▁interconnected	-11.3857
▁estimates	-11.3857
▁logo	-11.3861
▁intended	-11.3863
▁empowered	-11.3867
▁hacking	-11.3872
▁peers	-11.3872
▁worms	-11.3883
▁gi	-11.3885
▁reasonable	-11.3886
▁tissues	-11.3896
▁ver	-11.3898
▁cu	-11.3901
▁trains	-11.3903
▁trap	-11.3911
berg	-11.3925
▁locally	-11.3938
▁custom	-11.3943
▁jh	-11.3959
▁limitations	-11.3961
▁insane	-11.3968
▁agents	-11.397
▁flags	-11.3978
dr	-11.3978
ral	-11.3981
▁william	-11.3984
▁versions	-11.3998
▁headlines	-11.4006
▁triple	-11.4019
▁renewable	-11.4019
▁gesture	-11.4019
▁worm	-11.402
▁caves	-11.402
▁tear	-11.4021
▁spray	-11.403
▁educate	-11.403
ese	-11.403
▁pond	-11.4032
tes	-11.4041
▁continuous	-11.4043
▁analog	-11.4044
▁commit	-11.4047
▁chronic	-11.4049
▁believing	-11.405
▁glucose	-11.405
▁humanitarian	-11.405
▁introduction	-11.405
▁lincoln	-11.405
▁preparing	-11.405
▁zealand	-11.405
▁lobby	-11.405
▁biosphere	-11.405
▁obese	-11.405
▁carolina	-11.405
▁lifespan	-11.405
▁1998	-11.405
▁juice	-11.405
▁spinning	-11.405
▁leonardo	-11.4051
▁crab	-11.4051
▁logical	-11.4052
▁brian	-11.4052
▁lonely	-11.4052
▁belt	-11.4054
▁backyard	-11.4055
▁stopping	-11.4055
▁probe	-11.4056
▁challenged	-11.4056
▁cellular	-11.4056
▁fallen	-11.4057
▁fertilizer	-11.4057
▁amazed	-11.4058
▁personalized	-11.4059
▁historically	-11.4062
▁consciously	-11.4066
▁spike	-11.4068
▁correctly	-11.4069
▁concentrated	-11.4071
▁poly	-11.4079
▁wal	-11.4088
▁contributed	-11.4089
▁demonstrated	-11.409
▁shocking	-11.4094
▁raped	-11.4095
▁electrons	-11.4097
▁promised	-11.41
▁hut	-11.4102
▁cape	-11.4105
za	-11.4106
▁concerns	-11.4108
▁attacked	-11.411
▁equations	-11.4112
▁proved	-11.4113
▁enabled	-11.4117
five	-11.4117
▁electrodes	-11.4126
▁doubled	-11.4127
did	-11.4131
▁connects	-11.4137
▁2:	-11.4143
▁worrying	-11.4143
ez	-11.4151
▁listened	-11.4151
▁stored	-11.4166
come	-11.4169
▁colored	-11.4177
▁pun	-11.4191
▁clinics	-11.4192
mat	-11.42
ji	-11.4201
▁chunk	-11.4204
▁assets	-11.4205
▁calculations	-11.4205
fully	-11.4206
▁dump	-11.4217
▁mosquito	-11.422
▁tweet	-11.4221
▁aesthetic	-11.4221
▁pipe	-11.4226
▁landscapes	-11.4228
par	-11.4229
▁breed	-11.4229
▁sale	-11.4233
▁relax	-11.4236
▁historic	-11.4246
▁corrupt	-11.4248
▁acoustic	-11.4249
▁slip	-11.425
▁paradox	-11.425
▁ultra	-11.425
▁abraham	-11.425
▁ambitious	-11.425
▁composition	-11.425
▁enemies	-11.425
▁feynman	-11.425
▁hybrid	-11.425
▁principal	-11.425
▁sanitation	-11.425
▁summarize	-11.425
▁supplies	-11.425
▁terrified	-11.425
▁voting	-11.425
▁thread	-11.425
▁remarkably	-11.425
▁flame	-11.425
▁prosperity	-11.425
▁migration	-11.425
▁drunk	-11.425
▁blink	-11.4251
▁blah	-11.4251
▁minus	-11.4251
▁digest	-11.4251
▁distinction	-11.4252
▁embarrassing	-11.4253
▁intent	-11.4253
▁guilty	-11.4253
▁deepest	-11.4257
▁blindness	-11.4257
▁realistic	-11.426
▁shy	-11.426
▁steven	-11.4261
▁funds	-11.4261
▁installed	-11.4264
▁30-	-11.4271
▁observed	-11.4275
▁consumed	-11.4285
▁chile	-11.4292
▁opens	-11.4292
▁seal	-11.43
▁squeeze	-11.4305
▁behalf	-11.4306
▁puzzles	-11.431
▁lap	-11.4312
▁vaccines	-11.4314
▁distances	-11.4318
pped	-11.4334
▁infections	-11.4352
▁dies	-11.4352
▁approached	-11.4358
ual	-11.4358
▁nerves	-11.4361
▁beautifully	-11.4371
yn	-11.4372
▁fits	-11.4373
▁emphasize	-11.438
▁36	-11.4394
▁bags	-11.4394
▁variations	-11.4394
je	-11.4406
cause	-11.4408
▁nodes	-11.4414
ery	-11.4418
▁cycles	-11.4418
▁sheets	-11.4418
▁empower	-11.4418
god	-11.4426
▁sail	-11.4428
▁compar	-11.4429
▁biologist	-11.4433
▁advances	-11.4433
▁hunter	-11.4436
▁newspapers	-11.4437
▁instruction	-11.4441
▁medicines	-11.4442
great	-11.4445
▁chemist	-11.4453
▁cruel	-11.4453
▁import	-11.4454
▁authentic	-11.4454
skeletal	-11.4454
▁communicating	-11.4454
▁detroit	-11.4454
▁devastating	-11.4454
▁frustration	-11.4454
▁harmony	-11.4454
▁mexican	-11.4454
▁monterey	-11.4454
▁receiving	-11.4454
▁remix	-11.4454
▁separation	-11.4454
▁translator	-11.4454
▁summit	-11.4454
▁therapies	-11.4454
▁whisper	-11.4454
▁canvas	-11.4454
▁pirate	-11.4454
▁delicious	-11.4454
▁girlfriend	-11.4455
▁neutral	-11.4455
▁relief	-11.4455
▁flaw	-11.4455
▁hong	-11.4455
▁horizontal	-11.4455
▁1900	-11.4456
▁academy	-11.4456
▁rome	-11.4456
▁workshop	-11.4456
▁civilizations	-11.4456
▁beaten	-11.4457
▁emit	-11.4458
▁pants	-11.4458
hood	-11.4459
▁freeze	-11.446
gh	-11.4462
▁fatal	-11.4464
▁gram	-11.4465
▁nigerian	-11.4466
▁filmmaker	-11.4467
powered	-11.4468
▁hu	-11.4468
▁bacterial	-11.4468
▁selected	-11.4473
▁technically	-11.4475
▁20-	-11.4475
▁breeding	-11.4475
▁randomly	-11.4479
▁rating	-11.448
zi	-11.4481
▁pur	-11.4483
▁packed	-11.4485
▁estimated	-11.4489
onic	-11.449
▁calories	-11.4495
▁swing	-11.4495
▁memes	-11.4503
▁pills	-11.4505
▁inventor	-11.4518
▁politically	-11.453
cola	-11.4537
▁deposit	-11.4542
ay	-11.4544
▁scenes	-11.4548
▁posted	-11.4549
▁athletes	-11.4567
▁mama	-11.4568
cop	-11.4571
▁banking	-11.4575
▁claims	-11.4578
▁staring	-11.4581
▁37	-11.4602
tta	-11.4614
▁lanes	-11.4616
▁involve	-11.4625
etic	-11.4635
▁anticipate	-11.4643
▁automobile	-11.4643
▁barrel	-11.4643
▁bulb	-11.4644
▁winner	-11.4644
oma	-11.4645
▁reactor	-11.4646
▁mal	-11.4648
point	-11.4649
▁transit	-11.465
eat	-11.4653
▁dirt	-11.4657
▁trauma	-11.4659
▁officials	-11.466
▁ambition	-11.4662
▁choir	-11.4662
▁competing	-11.4662
▁elevator	-11.4662
▁happily	-11.4662
▁hierarchy	-11.4662
▁horror	-11.4662
▁likelihood	-11.4662
▁november	-11.4662
▁pigeon	-11.4662
▁receptor	-11.4662
▁shakespeare	-11.4662
▁smiling	-11.4662
▁stephen	-11.4662
▁vocal	-11.4662
▁welfare	-11.4662
▁disabled	-11.4662
▁april	-11.4662
▁dvd	-11.4662
▁scheme	-11.4662
▁berlin	-11.4662
▁legislation	-11.4663
▁cream	-11.4663
▁recession	-11.4663
▁pipeline	-11.4663
▁binary	-11.4663
▁connectivity	-11.4663
▁nick	-11.4664
▁naive	-11.4665
▁nitrogen	-11.4665
▁readers	-11.4666
▁2030	-11.4666
▁taxes	-11.4668
▁airline	-11.4669
▁prospect	-11.4671
▁korean	-11.4671
▁buses	-11.4672
▁candle	-11.4677
▁mild	-11.4678
▁revealed	-11.4683
▁motivated	-11.4684
▁cage	-11.4685
▁sadly	-11.4685
▁adapted	-11.469
▁publishing	-11.4694
▁locations	-11.4694
▁healing	-11.4695
▁migrate	-11.4695
ise	-11.4699
▁worthy	-11.4707
▁toilets	-11.4714
hop	-11.4721
▁quo	-11.4727
▁christ	-11.4733
▁usage	-11.4734
▁landing	-11.4738
▁tiles	-11.4739
ode	-11.4742
▁simpler	-11.4758
▁rings	-11.476
▁len	-11.4764
▁describes	-11.4765
▁tony	-11.4765
▁0	-11.4769
▁fears	-11.4777
ological	-11.478
▁mat	-11.4791
▁telescopes	-11.4833
▁atom	-11.484
▁commission	-11.4843
▁heading	-11.4851
▁origins	-11.4853
▁boil	-11.4857
▁contribution	-11.486
▁statistic	-11.486
▁laptops	-11.4863
water	-11.4863
▁penguin	-11.4863
three	-11.4867
▁olympic	-11.4868
▁immense	-11.4868
wood	-11.4869
▁fault	-11.4869
storm	-11.4873
▁abundance	-11.4875
▁accuracy	-11.4875
▁algae	-11.4875
▁alpha	-11.4875
▁bamboo	-11.4875
▁ceremony	-11.4875
▁clinton	-11.4875
▁cylinder	-11.4875
▁deficit	-11.4875
▁destination	-11.4875
▁diameter	-11.4875
▁feminist	-11.4875
▁fifty	-11.4875
▁peculiar	-11.4875
▁phoenix	-11.4875
▁singapore	-11.4875
▁vacation	-11.4875
▁watson	-11.4875
▁nevertheless	-11.4875
▁spiral	-11.4875
▁swiss	-11.4875
▁kevin	-11.4875
▁canyon	-11.4875
▁deception	-11.4875
▁1930	-11.4876
▁drain	-11.4876
▁controversial	-11.4876
▁dropping	-11.4876
▁jones	-11.4877
▁spacecraft	-11.4877
▁scanning	-11.4877
▁secretary	-11.4877
▁frequently	-11.4878
▁approved	-11.4878
▁2020	-11.4879
▁vary	-11.4879
▁resistant	-11.488
▁assembly	-11.4881
▁machinery	-11.4885
▁outdoor	-11.4886
▁dominated	-11.4886
▁realization	-11.4887
▁mesh	-11.4889
▁messy	-11.489
ik	-11.4891
▁overhead	-11.4894
▁scott	-11.4907
▁criminals	-11.4908
▁activists	-11.4918
▁surgeons	-11.4918
▁sexy	-11.492
▁engineered	-11.4924
▁useless	-11.4925
▁asleep	-11.4927
▁expressed	-11.4931
they	-11.4935
▁..."	-11.4942
▁responded	-11.4943
▁comics	-11.4943
▁inform	-11.4946
▁ken	-11.4946
▁enjoyed	-11.4948
▁ze	-11.4968
▁optical	-11.4971
▁gar	-11.4971
▁mega	-11.4975
tub	-11.4981
▁gore	-11.4985
▁meta	-11.4993
▁owe	-11.4993
▁offers	-11.4994
▁reserves	-11.4995
▁chi	-11.4997
▁crimes	-11.4999
▁failures	-11.5003
non	-11.5004
zz	-11.5005
▁nutrition	-11.5011
▁plastics	-11.5023
▁grip	-11.5025
▁foundations	-11.5054
▁borrow	-11.5057
▁stare	-11.5061
▁responses	-11.507
▁broadcast	-11.5071
▁interviews	-11.5073
▁accelerate	-11.5073
▁fa	-11.5073
▁fool	-11.5078
driven	-11.5084
▁candidate	-11.5084
,500	-11.5092
▁champion	-11.5092
▁admire	-11.5092
▁aggregate	-11.5092
▁batteries	-11.5092
▁celebration	-11.5092
▁configuration	-11.5092
▁diarrhea	-11.5092
▁expense	-11.5092
▁fluorescent	-11.5092
▁injuries	-11.5092
▁nonetheless	-11.5092
▁parachute	-11.5092
▁schedule	-11.5092
▁switzerland	-11.5092
▁bruno	-11.5092
▁crude	-11.5092
▁pleasant	-11.5092
▁entry	-11.5092
▁forecast	-11.5092
▁goodbye	-11.5092
▁inhibit	-11.5092
▁intact	-11.5092
▁gross	-11.5092
▁slope	-11.5092
▁accent	-11.5092
▁gorgeous	-11.5092
▁trapped	-11.5093
▁1999	-11.5093
▁philosophical	-11.5093
▁jungle	-11.5093
▁conceptual	-11.5094
▁denial	-11.5094
▁ireland	-11.5094
▁coverage	-11.5095
▁hills	-11.5096
▁wooden	-11.5096
▁artwork	-11.5096
▁sew	-11.5096
▁continuously	-11.51
▁penis	-11.51
▁40,000	-11.5102
▁irony	-11.5103
▁momentum	-11.5105
set	-11.5105
▁regularly	-11.5114
▁belly	-11.5116
▁31	-11.5122
▁simplest	-11.5123
▁winds	-11.5125
▁calculated	-11.5128
ographic	-11.5129
▁intention	-11.5129
▁sto	-11.5132
▁mentally	-11.5134
▁350	-11.5137
▁emails	-11.5145
▁crap	-11.5149
step	-11.5151
▁bills	-11.5151
▁chimps	-11.5152
▁ch	-11.5156
▁informal	-11.5158
▁barriers	-11.5162
tell	-11.5181
▁yo	-11.5193
▁curves	-11.5205
▁eco	-11.5214
▁15-	-11.5216
plan	-11.5216
▁kindness	-11.5222
▁measurements	-11.5224
▁meals	-11.5224
▁strands	-11.5232
▁belongs	-11.5236
▁speaks	-11.5238
▁predators	-11.5245
▁dose	-11.5248
▁caps	-11.5252
▁$1	-11.5256
▁topics	-11.5256
▁reporter	-11.5256
▁textbooks	-11.526
▁item	-11.5264
▁boats	-11.5265
run	-11.5273
▁yu	-11.5273
▁opinions	-11.5276
rat	-11.5277
aids	-11.5292
▁scream	-11.5293
cat	-11.5296
word	-11.5304
please	-11.5306
▁theoretical	-11.5308
income	-11.5309
▁albert	-11.5309
▁breakthrough	-11.531
▁overwhelming	-11.5311
▁scrap	-11.5311
▁suggestion	-11.5314
▁benjamin	-11.5315
▁committee	-11.5315
▁correlation	-11.5315
▁greece	-11.5315
▁mcdonald	-11.5315
▁prosthetic	-11.5315
▁terrific	-11.5315
▁mankind	-11.5315
▁maximum	-11.5315
▁aristotle	-11.5315
▁therapist	-11.5315
▁hostile	-11.5315
▁examine	-11.5316
▁spatial	-11.5316
▁lobe	-11.5316
▁ridge	-11.5317
aving	-11.5318
▁suspended	-11.5319
▁frightening	-11.5319
rus	-11.532
▁rebel	-11.532
▁ibm	-11.532
▁jf	-11.532
▁planetary	-11.5325
▁angel	-11.5325
▁realities	-11.5326
▁lethal	-11.5326
▁modest	-11.5327
▁lg	-11.5329
▁mi	-11.5331
▁tourist	-11.5332
▁reject	-11.5333
▁asthma	-11.5334
▁wishes	-11.5337
▁masses	-11.534
▁lifted	-11.5345
▁diplomat	-11.5348
▁reflected	-11.5354
▁carve	-11.5371
ank	-11.5375
▁expressions	-11.5376
ough	-11.5383
▁filling	-11.5393
▁offices	-11.5406
▁narratives	-11.5407
▁ty	-11.5416
▁responding	-11.5422
grade	-11.5422
▁spine	-11.5427
▁hated	-11.5427
▁zones	-11.5428
▁strings	-11.5428
▁tick	-11.543
▁fires	-11.5436
thirds	-11.5446
▁attitudes	-11.5465
▁boots	-11.547
ass	-11.5475
phy	-11.5481
▁employ	-11.5484
▁camel	-11.5494
▁cared	-11.5494
▁ev	-11.5496
▁hack	-11.5503
▁surf	-11.5512
▁norms	-11.5519
▁reinvent	-11.5521
▁enhance	-11.5521
▁integrate	-11.5523
▁associate	-11.5524
▁loads	-11.5525
▁acquire	-11.5527
profit	-11.5532
▁compute	-11.5537
▁loose	-11.554
▁suppress	-11.554
▁grace	-11.5542
▁approximately	-11.5542
▁commodity	-11.5542
▁default	-11.5542
▁deforestation	-11.5542
▁elaborate	-11.5542
▁intensity	-11.5542
▁irrational	-11.5542
▁marathon	-11.5542
▁memorial	-11.5542
▁philanthropy	-11.5542
▁stadium	-11.5542
▁thirty	-11.5542
▁smash	-11.5542
▁cattle	-11.5542
▁helium	-11.5542
▁scaling	-11.5542
▁livestock	-11.5542
▁racing	-11.5542
▁improvise	-11.5542
▁blob	-11.5542
▁arrangement	-11.5542
▁generic	-11.5542
▁operator	-11.5542
▁kong	-11.5543
▁transformative	-11.5543
bro	-11.5543
▁spare	-11.5543
▁hint	-11.5543
▁patch	-11.5544
▁deaf	-11.5544
▁stolen	-11.5544
▁nail	-11.5545
▁mola	-11.5546
▁slum	-11.5547
▁broader	-11.5549
▁rover	-11.5552
▁powered	-11.5554
▁abandoned	-11.5555
▁accomplished	-11.5555
▁recycled	-11.5555
▁labeled	-11.5561
▁screaming	-11.5564
fo	-11.5565
▁attracted	-11.5572
py	-11.5576
▁expanded	-11.5586
▁sooner	-11.5587
▁compounds	-11.5588
▁hormones	-11.5588
▁laughed	-11.5588
▁destroying	-11.559
▁hop	-11.5597
▁atheist	-11.5603
▁computational	-11.5608
ush	-11.5638
▁clusters	-11.5647
▁woods	-11.5653
ching	-11.5663
▁mm	-11.5678
▁programmers	-11.5685
▁publicly	-11.569
▁watts	-11.5696
▁arabia	-11.5708
ug	-11.5718
▁observations	-11.5718
▁hub	-11.5719
▁disgust	-11.5739
pp	-11.5745
play	-11.5748
▁eliminate	-11.5755
▁ob	-11.5758
shirt	-11.5766
▁prince	-11.5771
▁cooling	-11.5772
▁augment	-11.5773
▁cd	-11.5774
▁descend	-11.5774
▁alphabet	-11.5774
▁berkeley	-11.5774
▁biomass	-11.5774
▁describing	-11.5774
▁endeavor	-11.5774
▁heavily	-11.5774
▁holiday	-11.5774
▁hurricane	-11.5774
▁imagining	-11.5774
▁literacy	-11.5774
▁parkinson	-11.5774
▁preparation	-11.5774
▁protocol	-11.5774
▁refrigerator	-11.5774
▁sequencing	-11.5774
▁canadian	-11.5774
▁neocortex	-11.5774
▁famine	-11.5775
▁cooperative	-11.5775
▁cre	-11.5775
▁encyclopedia	-11.5775
▁blade	-11.5775
▁contradiction	-11.5775
▁minimal	-11.5775
▁fuck	-11.5775
▁kidding	-11.5775
▁boundary	-11.5775
▁flock	-11.5775
▁odor	-11.5775
▁harry	-11.5775
▁league	-11.5775
▁satisfaction	-11.5775
▁occurring	-11.5775
▁virginia	-11.5775
▁48	-11.5776
▁seawater	-11.5776
▁laden	-11.5776
▁rob	-11.5776
▁priority	-11.5776
▁iconic	-11.5777
▁farther	-11.5777
▁adaptation	-11.5777
page	-11.5777
▁gate	-11.5777
▁harsh	-11.5778
▁eve	-11.5778
▁greenland	-11.5779
▁creator	-11.578
▁mines	-11.578
▁carries	-11.578
▁corporation	-11.5783
▁mathematician	-11.5783
▁deployed	-11.5787
▁hacker	-11.5789
month	-11.5791
▁australian	-11.5792
▁boost	-11.5792
▁sexually	-11.5801
▁forum	-11.5805
gged	-11.5806
▁inch	-11.5811
▁72	-11.5813
▁privileged	-11.5815
▁aunt	-11.5817
▁seventh	-11.5817
▁prey	-11.5819
▁ward	-11.5822
▁lawn	-11.5826
▁assemble	-11.5829
▁earning	-11.5835
▁jews	-11.5838
ied	-11.5842
▁130	-11.5843
▁crossed	-11.5848
phone	-11.5849
▁arena	-11.586
▁argued	-11.5861
ica	-11.5862
▁temperatures	-11.5876
▁spiders	-11.5877
▁planted	-11.5878
▁arise	-11.5886
roll	-11.5895
▁sometime	-11.5896
hoo	-11.5901
▁rang	-11.5912
▁je	-11.5919
▁touching	-11.5919
lean	-11.5925
▁seti	-11.593
ala	-11.5931
fire	-11.5934
▁amy	-11.5935
ivity	-11.5936
▁andrew	-11.5939
▁gal	-11.5946
aid	-11.5967
▁covers	-11.5975
▁stays	-11.5978
rich	-11.5979
▁disasters	-11.5983
even	-11.5986
▁explode	-11.5993
▁update	-11.5993
ita	-11.5994
▁refuse	-11.5998
▁neuro	-11.5998
▁sponsor	-11.5998
▁arrest	-11.5999
▁mini	-11.5999
▁delay	-11.5999
size	-11.5999
pound	-11.6004
▁unconscious	-11.6006
▁columbia	-11.6008
▁syria	-11.6008
▁submit	-11.6012
▁autonomy	-11.6013
▁calculus	-11.6013
▁consensus	-11.6013
▁democracies	-11.6013
▁guitar	-11.6013
▁jerusalem	-11.6013
▁netherlands	-11.6013
▁conquer	-11.6013
▁storyteller	-11.6013
▁surgeries	-11.6013
▁euro	-11.6013
▁priest	-11.6013
▁assistant	-11.6013
▁blew	-11.6013
▁criteria	-11.6013
▁wrapped	-11.6013
▁disney	-11.6013
▁firing	-11.6013
▁settlement	-11.6013
▁accountability	-11.6013
▁freezing	-11.6014
▁fda	-11.6015
▁towel	-11.6017
▁magician	-11.6017
▁va	-11.6018
▁organizing	-11.6019
▁thrilled	-11.602
▁louis	-11.602
▁humble	-11.6021
▁disk	-11.6021
▁merge	-11.6021
▁clubs	-11.6022
▁wins	-11.6023
▁outbreak	-11.6023
▁handful	-11.6025
▁editor	-11.6026
▁egyptian	-11.6027
▁passes	-11.6028
lam	-11.603
▁youngest	-11.603
▁blown	-11.603
▁2004,	-11.6032
▁remotely	-11.6039
bri	-11.6041
▁endless	-11.6042
▁documented	-11.6043
lia	-11.6045
▁discussing	-11.6046
▁melting	-11.6046
▁slower	-11.6047
▁analyzed	-11.6047
▁drops	-11.6049
▁emotionally	-11.6051
▁del	-11.6051
▁prisoner	-11.6052
▁pouring	-11.6055
ney	-11.6057
▁switched	-11.6063
▁visually	-11.6067
▁newton	-11.6072
▁risky	-11.6073
▁websites	-11.6076
▁asteroids	-11.6078
▁sons	-11.608
away	-11.6081
▁blowing	-11.6084
▁jeff	-11.6092
▁christians	-11.6095
▁kar	-11.6106
▁donors	-11.6107
air	-11.6115
▁reporting	-11.612
▁intervene	-11.612
▁exceptions	-11.6122
▁sticking	-11.6128
▁hopeful	-11.613
▁ties	-11.613
▁whoever	-11.613
▁helpless	-11.6136
urge	-11.6138
▁candy	-11.6139
▁follows	-11.6154
▁relatives	-11.6164
▁rod	-11.6171
unk	-11.6179
▁rem	-11.6184
yo	-11.6189
ju	-11.6201
▁1,	-11.6201
▁nights	-11.6207
▁bridges	-11.6208
shaped	-11.6216
▁fade	-11.6219
▁attend	-11.6221
▁foods	-11.6222
12	-11.6232
▁lever	-11.6234
▁coordinate	-11.6237
▁stimulate	-11.6237
▁simulate	-11.6237
▁mutations	-11.6237
▁unfold	-11.6238
sea	-11.6239
▁concentrate	-11.6239
▁accomplish	-11.6242
▁abandon	-11.6242
▁contest	-11.6243
verse	-11.6244
▁defeat	-11.6245
top	-11.6248
space	-11.6248
just	-11.6249
▁intimate	-11.625
▁disrupt	-11.6254
▁transcend	-11.6256
▁gentle	-11.6256
▁puppet	-11.6256
▁accelerating	-11.6256
▁arthur	-11.6256
▁astronomy	-11.6256
▁cardiac	-11.6256
▁catholic	-11.6256
▁congestion	-11.6256
▁depict	-11.6256
▁entrance	-11.6256
▁episode	-11.6256
▁eternal	-11.6256
▁fantasy	-11.6256
▁gasoline	-11.6256
▁grocery	-11.6256
▁innovate	-11.6256
▁invitation	-11.6256
▁ministry	-11.6256
▁recognizing	-11.6256
▁shepherd	-11.6256
▁supreme	-11.6256
▁violin	-11.6256
▁squid	-11.6256
▁steep	-11.6256
▁ideology	-11.6256
▁tolerance	-11.6256
▁mosque	-11.6256
▁nasty	-11.6256
▁basketball	-11.6256
▁nightmare	-11.6256
▁oven	-11.6257
▁lottery	-11.6257
▁geography	-11.6257
▁buzz	-11.6257
▁1,500	-11.6257
▁statue	-11.6257
▁salmon	-11.6257
▁connectome	-11.6257
▁undergraduate	-11.6257
▁systematically	-11.6257
▁logging	-11.6257
▁significance	-11.6257
▁roman	-11.6258
▁evolving	-11.6258
▁unlock	-11.6258
▁minority	-11.6258
▁overwhelmed	-11.6259
▁cafe	-11.6259
▁obsession	-11.626
▁basement	-11.626
▁tele	-11.6261
▁150,000	-11.6262
▁alert	-11.6263
sure	-11.6263
▁retina	-11.6263
▁governor	-11.6263
▁rewards	-11.6263
▁corners	-11.6264
▁shining	-11.6264
▁province	-11.6264
▁25,000	-11.6264
▁mic	-11.6273
▁instinct	-11.6273
▁exam	-11.6274
▁optimize	-11.6274
▁representative	-11.6275
▁kidney	-11.6275
▁answering	-11.6276
▁mutation	-11.6276
mus	-11.6277
▁practically	-11.6277
▁detector	-11.6279
▁stereo	-11.6284
▁seals	-11.6288
▁repeated	-11.6291
▁dome	-11.6292
▁kicked	-11.6294
▁brad	-11.6299
▁charter	-11.6302
▁alter	-11.631
▁keys	-11.6311
▁matched	-11.6314
lon	-11.6316
▁sole	-11.6325
▁hopeless	-11.6327
▁voted	-11.6329
▁damaged	-11.633
▁prototypes	-11.6336
▁determines	-11.6345
▁genomes	-11.6346
▁reache	-11.6347
▁jumping	-11.6353
van	-11.6377
▁audiences	-11.6379
▁grades	-11.6386
▁patents	-11.6387
▁taxi	-11.6416
wind	-11.6433
▁pathways	-11.6434
▁yards	-11.644
stop	-11.6442
ily	-11.6457
▁usa	-11.6479
▁glow	-11.6485
▁regulate	-11.6487
▁threaten	-11.6487
▁discussions	-11.6488
▁regional	-11.6491
▁tan	-11.6494
arian	-11.6497
rhythm	-11.6498
would	-11.6498
▁desperate	-11.65
▁unfortunate	-11.65
▁nerd	-11.6501
▁fin	-11.6502
bed	-11.6504
▁catastrophe	-11.6506
▁cocktail	-11.6506
▁cyrus	-11.6506
▁historian	-11.6506
▁injured	-11.6506
▁jordan	-11.6506
▁kindergarten	-11.6506
▁leopard	-11.6506
▁liberty	-11.6506
▁longevity	-11.6506
▁mozart	-11.6506
▁mumbai	-11.6506
▁selves	-11.6506
▁alaska	-11.6506
▁surgical	-11.6506
▁swarm	-11.6506
▁daniel	-11.6506
▁seattle	-11.6506
▁trading	-11.6506
▁diplomacy	-11.6506
▁consent	-11.6506
▁faint	-11.6507
▁encode	-11.6507
▁joseph	-11.6507
▁tilt	-11.6507
▁exotic	-11.6507
▁shaking	-11.6507
▁locomotion	-11.6507
▁enforcement	-11.6507
▁documentary	-11.6507
▁offspring	-11.6507
▁copies	-11.6508
▁planned	-11.6508
▁persist	-11.6509
▁replacement	-11.6509
▁proton	-11.6509
▁dishes	-11.6511
▁utterly	-11.6512
▁chess	-11.6514
▁milo	-11.6514
▁economically	-11.6517
▁progression	-11.6518
▁bench	-11.6521
▁olympics	-11.6522
▁posed	-11.6524
▁bulbs	-11.6528
▁herd	-11.6528
▁triangle	-11.653
▁keen	-11.6532
▁witnessed	-11.6532
▁metric	-11.6533
▁vegetable	-11.6533
▁ingredient	-11.6533
▁uh	-11.6535
▁mosquitos	-11.654
▁sculptures	-11.654
▁encountered	-11.6544
▁actively	-11.6544
▁rm	-11.655
▁sectors	-11.6558
▁critically	-11.6559
▁folding	-11.6561
▁bur	-11.6562
▁horses	-11.6564
▁cope	-11.6565
▁scare	-11.6565
▁shorter	-11.6567
▁targeted	-11.657
▁mum	-11.6573
▁38	-11.6574
▁der	-11.658
late	-11.6583
love	-11.6583
▁stressed	-11.6584
▁resemble	-11.6595
▁norm	-11.6599
▁acids	-11.6599
▁hans	-11.66
▁crows	-11.6611
▁mushrooms	-11.6611
▁visiting	-11.6616
▁trusted	-11.6624
ening	-11.6625
▁playful	-11.6625
▁44	-11.6633
▁macro	-11.6642
▁matt	-11.6647
▁shoulders	-11.665
▁eu	-11.665
10	-11.6664
▁professors	-11.6665
uri	-11.6667
▁ethic	-11.6671
▁trips	-11.6671
▁interventions	-11.6683
ered	-11.6691
▁philip	-11.6701
▁screening	-11.6703
▁sciences	-11.6711
▁shops	-11.6724
▁delight	-11.6729
▁trail	-11.6741
▁crawl	-11.6741
▁junk	-11.6742
▁torture	-11.6743
▁lists	-11.6744
▁reconstruct	-11.6747
▁deploy	-11.6748
worth	-11.6749
school	-11.6753
field	-11.6754
million	-11.6754
frontal	-11.6756
thank	-11.6757
▁edit	-11.676
▁psychopath	-11.6762
▁bloom	-11.6763
▁calculator	-11.6763
▁convicted	-11.6763
▁dictionaries	-11.6763
▁distress	-11.6763
▁embracing	-11.6763
▁envelope	-11.6763
▁exquisite	-11.6763
▁juvenile	-11.6763
▁millennium	-11.6763
▁mixture	-11.6763
▁practicing	-11.6763
▁sierra	-11.6763
▁thylacine	-11.6763
▁vibration	-11.6763
▁vitamin	-11.6763
▁worship	-11.6763
▁atlanta	-11.6763
▁mustache	-11.6763
▁sensing	-11.6763
▁idiot	-11.6763
▁trunk	-11.6763
▁coordination	-11.6763
▁acute	-11.6763
▁integration	-11.6763
▁envision	-11.6763
▁desktop	-11.6763
▁lump	-11.6763
▁norden	-11.6763
▁bounce	-11.6764
▁acres	-11.6764
▁digging	-11.6764
▁stabilize	-11.6764
▁emergence	-11.6764
▁adoption	-11.6765
▁coca	-11.677
▁indus	-11.6772
▁candidates	-11.6773
▁swamp	-11.6778
▁rejected	-11.678
▁implemented	-11.6782
▁blast	-11.6782
kill	-11.6783
▁fathers	-11.6789
▁acquired	-11.679
tick	-11.6792
▁relie	-11.6793
▁variable	-11.6794
▁regulation	-11.6795
▁mating	-11.6796
▁mammal	-11.6796
▁wore	-11.6796
▁dough	-11.6798
▁timing	-11.6798
mine	-11.6798
▁hol	-11.6798
▁converted	-11.68
▁dim	-11.68
▁gains	-11.6801
▁gestures	-11.6803
oon	-11.6806
▁guards	-11.6809
wait	-11.681
▁rescued	-11.6813
ef	-11.6813
▁affairs	-11.6815
▁investments	-11.6816
▁allies	-11.6818
▁assumed	-11.6827
test	-11.683
▁lt	-11.6836
▁regenerate	-11.6837
▁min	-11.6841
▁lee	-11.6843
"?	-11.6845
▁kite	-11.6857
▁attribute	-11.6864
▁delivering	-11.6867
▁stra	-11.6872
ola	-11.688
▁hugely	-11.6898
lop	-11.69
▁promot	-11.6913
▁deserves	-11.6932
▁pleased	-11.6959
hold	-11.6968
dom	-11.6972
load	-11.698
eur	-11.6993
▁teache	-11.6998
▁cloth	-11.7003
▁proceed	-11.7004
▁shrink	-11.7005
dor	-11.7006
▁accumulate	-11.7006
▁diagnose	-11.7007
▁settle	-11.7008
▁2004	-11.7009
▁symbolic	-11.7011
▁yemen	-11.7012
▁screw	-11.7012
far	-11.7015
40	-11.7018
percent	-11.7018
▁convenient	-11.7019
person	-11.7021
▁abed	-11.7022
using	-11.7022
▁millennia	-11.7024
▁consult	-11.7024
▁fox	-11.7025
▁hawaii	-11.7025
▁systematic	-11.7025
▁assess	-11.7026
▁achieving	-11.7026
▁ambulance	-11.7026
▁angiogenesis	-11.7026
▁anniversary	-11.7026
▁authoritarian	-11.7026
▁buddha	-11.7026
▁cathedral	-11.7026
▁charlie	-11.7026
▁chemotherapy	-11.7026
▁cholera	-11.7026
▁copenhagen	-11.7026
▁curtain	-11.7026
▁fishermen	-11.7026
▁flesh	-11.7026
▁generator	-11.7026
▁integrity	-11.7026
▁metabolic	-11.7026
▁metabolism	-11.7026
▁montana	-11.7026
▁multinational	-11.7026
▁premise	-11.7026
▁sarah	-11.7026
▁saturday	-11.7026
▁soccer	-11.7026
▁symphony	-11.7026
▁tuesday	-11.7026
▁entities	-11.7026
▁bucket	-11.7026
▁retain	-11.7026
▁tokyo	-11.7026
▁feather	-11.7026
▁yeast	-11.7026
▁craig	-11.7026
▁defining	-11.7026
▁marrow	-11.7026
▁revelation	-11.7026
▁edward	-11.7026
▁hammer	-11.7026
▁priorities	-11.7027
▁drama	-11.7027
▁potent	-11.7027
▁wright	-11.7027
▁infectious	-11.7027
▁avatar	-11.7027
▁employment	-11.7027
▁couch	-11.7027
▁roles	-11.7027
▁manipulation	-11.7027
▁headquarters	-11.7027
▁authenticity	-11.7027
▁iceberg	-11.7027
▁managing	-11.7028
▁cellphone	-11.7028
▁heating	-11.7028
▁jane	-11.7028
▁delete	-11.7028
▁rail	-11.7029
▁differentiate	-11.703
▁exit	-11.7032
▁richest	-11.7032
▁tin	-11.7033
▁gravitational	-11.7036
▁eighth	-11.7039
▁ross	-11.7043
▁mastery	-11.7045
▁onstage	-11.7046
▁observer	-11.7046
▁gras	-11.7047
▁cartoonist	-11.7049
▁rear	-11.705
▁refused	-11.7052
▁cheating	-11.7056
▁everest	-11.7057
▁talented	-11.7058
▁grim	-11.7059
▁contained	-11.7063
▁parasite	-11.7064
▁longest	-11.7065
▁renewables	-11.7068
▁forgive	-11.7071
▁enormously	-11.7071
▁sang	-11.7076
have	-11.7092
▁scans	-11.7093
▁beef	-11.7099
▁pearl	-11.71
▁projection	-11.7107
▁counted	-11.7108
▁reasoning	-11.7116
▁hive	-11.7116
▁sequences	-11.7121
▁apps	-11.7122
▁redefine	-11.7128
▁preventing	-11.7129
▁lips	-11.7135
mile	-11.7137
herently	-11.7142
iff	-11.7145
ene	-11.7146
▁menu	-11.7153
▁texting	-11.7157
zing	-11.7163
▁lands	-11.7163
▁checking	-11.7174
▁disc	-11.7176
▁reader	-11.7177
▁fu	-11.7181
▁hal	-11.719
▁survivors	-11.7199
rand	-11.7199
▁cables	-11.72
▁condoms	-11.7205
▁considering	-11.7209
▁magnet	-11.7211
▁marks	-11.7214
▁streams	-11.7215
▁beside	-11.7216
case	-11.7219
▁aliens	-11.722
▁constitution	-11.7224
▁pale	-11.7233
▁electro	-11.7234
city	-11.7237
▁chat	-11.7238
▁rabbi	-11.7241
▁modeling	-11.7243
▁wasted	-11.7248
▁tables	-11.7268
▁manufacture	-11.7272
▁favorites	-11.7272
bal	-11.7283
▁han	-11.7284
▁networking	-11.7284
quality	-11.7286
second	-11.7288
mail	-11.7292
▁lama	-11.7293
▁statistical	-11.7293
▁differ	-11.7296
▁wrist	-11.7296
▁absurd	-11.7296
▁anthropologist	-11.7296
▁bacterium	-11.7296
▁buddhist	-11.7296
▁catastrophic	-11.7296
▁celebrity	-11.7296
▁contributing	-11.7296
▁cosmos	-11.7296
▁deciding	-11.7296
▁fractal	-11.7296
▁inhabit	-11.7296
▁intimacy	-11.7296
▁invasion	-11.7296
▁jupiter	-11.7296
▁lebanon	-11.7296
▁manuscript	-11.7296
▁participating	-11.7296
▁peanut	-11.7296
▁powder	-11.7296
▁replacing	-11.7296
▁stimulation	-11.7296
▁technician	-11.7296
▁ultraviolet	-11.7296
▁unfair	-11.7296
▁unseen	-11.7296
▁vocabulary	-11.7296
▁widespread	-11.7296
▁cabinet	-11.7296
▁divine	-11.7296
▁relativity	-11.7296
▁humility	-11.7296
▁tangible	-11.7296
▁alliance	-11.7296
▁1.2	-11.7296
▁libya	-11.7296
▁veil	-11.7296
▁copied	-11.7296
▁rigid	-11.7297
▁timber	-11.7297
▁manifestation	-11.7297
▁guest	-11.7298
▁8,000	-11.7298
▁journalism	-11.7298
▁baseline	-11.7299
▁embarrassed	-11.7299
▁disappointed	-11.7299
▁iceland	-11.7299
▁swap	-11.7299
▁decent	-11.7299
▁ironic	-11.7299
▁browser	-11.73
▁mapped	-11.73
▁fungi	-11.7301
▁spite	-11.7301
▁disturbing	-11.7302
▁composer	-11.7303
eyed	-11.7305
▁owners	-11.7305
▁frames	-11.7308
▁payment	-11.7311
▁picks	-11.7315
▁confronted	-11.732
▁authors	-11.7327
▁heroin	-11.7328
▁smells	-11.734
▁epi	-11.734
▁snake	-11.7343
▁beetle	-11.7343
▁stat	-11.7343
▁compil	-11.7344
▁weekend	-11.7346
▁transported	-11.7347
▁famously	-11.7347
▁za	-11.7348
product	-11.7351
▁rolled	-11.7354
▁weighs	-11.7355
▁lately	-11.736
▁households	-11.7371
▁aims	-11.7372
▁parenting	-11.7373
▁deadly	-11.7374
▁philosophers	-11.7378
▁shifted	-11.7379
▁inherent	-11.7386
chu	-11.7386
▁plates	-11.7399
▁charged	-11.7399
▁et	-11.7401
▁ron	-11.7409
ule	-11.7416
▁predicting	-11.7421
▁qui	-11.7432
▁findings	-11.7447
▁chains	-11.745
▁disciplines	-11.7456
▁frogs	-11.7463
▁op	-11.7474
▁gardens	-11.7478
lessness	-11.748
▁revenues	-11.7488
nal	-11.7489
▁producers	-11.7502
▁diamonds	-11.7507
▁primates	-11.7507
▁carl	-11.7518
▁tedtalks	-11.752
▁12-	-11.7524
bel	-11.7526
▁drift	-11.7538
▁regulations	-11.7539
ther	-11.7542
▁q	-11.7548
▁shifts	-11.7552
▁behold	-11.7553
▁wander	-11.7553
▁shout	-11.7554
ography	-11.7556
ira	-11.7558
▁infect	-11.7558
▁punish	-11.756
▁interrupt	-11.756
▁disconnect	-11.756
▁distribute	-11.7564
face	-11.7566
▁brutal	-11.7566
speed	-11.7567
▁substantial	-11.7567
minded	-11.757
▁cleaner	-11.7571
▁utter	-11.7571
▁tomato	-11.7571
▁excess	-11.7573
engineering	-11.7573
▁fog	-11.7574
▁beneficial	-11.7574
▁calculating	-11.7574
▁calendar	-11.7574
▁cambodia	-11.7574
▁census	-11.7574
▁equity	-11.7574
▁friction	-11.7574
▁ghost	-11.7574
▁hamburger	-11.7574
▁immigrant	-11.7574
▁imperative	-11.7574
▁kennedy	-11.7574
▁ladder	-11.7574
▁lhc	-11.7574
▁maintenance	-11.7574
▁nuclei	-11.7574
▁precision	-11.7574
▁skeptical	-11.7574
▁slaughter	-11.7574
▁sulfide	-11.7574
▁sylvia	-11.7574
▁symmetrical	-11.7574
▁symmetries	-11.7574
▁abroad	-11.7574
▁spouse	-11.7574
▁thrive	-11.7574
▁autistic	-11.7574
▁humankind	-11.7574
▁cinema	-11.7574
▁joshua	-11.7574
▁opposition	-11.7574
▁valve	-11.7574
▁saint	-11.7574
▁noisy	-11.7574
▁tagged	-11.7574
▁singular	-11.7574
▁rehabilitation	-11.7574
▁masters	-11.7575
▁dictator	-11.7575
▁copper	-11.7575
▁monday	-11.7575
▁orientation	-11.7575
▁hoped	-11.7575
▁nurture	-11.7576
▁dragon	-11.7578
▁profitable	-11.7578
▁rna	-11.7579
▁sadness	-11.7581
▁blessed	-11.7583
▁divers	-11.7583
ura	-11.7583
ssuming	-11.7583
▁consideration	-11.7584
▁12,000	-11.7584
▁rand	-11.7589
▁losses	-11.7589
▁milky	-11.7592
▁leak	-11.7592
▁puff	-11.7593
▁tags	-11.7593
▁towers	-11.7593
▁apes	-11.7595
▁fame	-11.7598
▁empowering	-11.7603
▁warmer	-11.7609
▁receiver	-11.7613
▁bitter	-11.7614
▁arc	-11.7624
▁arrow	-11.7628
▁cousin	-11.7628
▁habitats	-11.7628
▁tedtalk	-11.7629
▁tale	-11.763
▁fuse	-11.7631
▁slave	-11.7638
▁rains	-11.7639
▁platforms	-11.7639
▁texts	-11.7642
▁hallucinations	-11.7643
rum	-11.7645
▁marker	-11.7649
▁upward	-11.7659
▁insist	-11.7662
▁artifacts	-11.7663
▁publisher	-11.7665
▁reforms	-11.7665
▁grains	-11.7672
▁fans	-11.7688
▁explored	-11.7705
▁arch	-11.7706
▁curl	-11.7732
▁46	-11.7741
▁gli	-11.7742
▁consists	-11.7744
▁para	-11.7749
▁thinkers	-11.7773
▁node	-11.7774
nan	-11.7782
▁fired	-11.7783
▁dancers	-11.7789
▁grabb	-11.7795
mart	-11.7809
▁beetles	-11.7811
ole	-11.7815
▁egyptians	-11.7844
▁angles	-11.7846
story	-11.7855
▁1995	-11.786
▁assault	-11.786
▁broccoli	-11.786
▁catalog	-11.786
▁delicate	-11.786
▁disabilities	-11.786
▁frequencies	-11.786
▁gigantic	-11.786
▁laboratories	-11.786
▁larry	-11.786
▁mycelium	-11.786
▁occupation	-11.786
▁physiology	-11.786
▁reproduction	-11.786
▁slogan	-11.786
▁spaghetti	-11.786
▁stewart	-11.786
▁stumble	-11.786
▁surviving	-11.786
▁taboo	-11.786
▁treasure	-11.786
▁triumph	-11.786
▁pricing	-11.786
▁shelves	-11.786
▁sudan	-11.786
▁coincidence	-11.786
▁staircase	-11.786
▁equator	-11.786
▁1.5	-11.786
enabling	-11.786
▁thailand	-11.786
▁scholarship	-11.786
▁luther	-11.786
▁carrot	-11.786
▁plankton	-11.786
▁slept	-11.786
▁sensitivity	-11.786
▁nonsense	-11.786
▁clarity	-11.786
▁assessment	-11.7861
▁elizabeth	-11.7861
▁empowerment	-11.7861
▁guardian	-11.7861
▁textile	-11.7861
▁cardboard	-11.7861
▁legend	-11.7861
▁pillar	-11.7861
▁scarce	-11.7861
▁alice	-11.7861
centric	-11.7862
▁alex	-11.7862
▁consuming	-11.7862
▁mature	-11.7864
▁programmed	-11.7864
▁knees	-11.7866
▁roofs	-11.7866
▁intentions	-11.7872
▁exponentially	-11.7872
▁toast	-11.7875
▁altered	-11.7876
chasing	-11.788
▁generates	-11.7882
▁assure	-11.7883
▁flood	-11.7884
hole	-11.7885
▁washed	-11.7889
▁fisc	-11.7889
▁wage	-11.789
▁upgrade	-11.789
▁lectures	-11.7893
▁intend	-11.7893
▁upright	-11.7898
▁praying	-11.79
▁folded	-11.7901
▁raises	-11.7902
▁heel	-11.7906
▁uniquely	-11.7908
▁surveys	-11.7911
wing	-11.7914
nce	-11.7919
▁gh	-11.7919
▁treaty	-11.7921
▁honored	-11.7921
▁detected	-11.7924
▁calculation	-11.7924
▁cheer	-11.7925
▁ancestor	-11.7925
▁politician	-11.7925
▁characteristic	-11.7926
rie	-11.7927
▁lane	-11.7933
▁headline	-11.7935
▁cent	-11.7938
▁singer	-11.7942
▁iraqi	-11.7953
▁loans	-11.7953
▁pose	-11.7954
▁bj	-11.7955
▁struggled	-11.7956
▁cuts	-11.796
▁nicely	-11.7962
▁mil	-11.7963
▁astronomers	-11.7965
▁columns	-11.7967
▁asset	-11.7973
▁attempts	-11.7977
bot	-11.7989
▁sting	-11.7996
▁43	-11.8004
▁functioning	-11.8019
▁pressing	-11.802
▁corresponds	-11.8021
▁goodness	-11.8025
▁cups	-11.803
▁bolt	-11.8033
▁filmed	-11.8047
▁republicans	-11.8048
▁boards	-11.8055
▁heck	-11.8057
▁spreads	-11.8058
▁goat	-11.8068
▁]	-11.8068
▁improvements	-11.8077
▁loses	-11.808
▁jeans	-11.8083
▁evaluate	-11.8102
▁brands	-11.8112
▁lighter	-11.8114
▁viewed	-11.8118
view	-11.8126
▁tire	-11.8135
▁divorce	-11.8136
▁editors	-11.8139
▁confirm	-11.8139
section	-11.8142
people	-11.8143
cellular	-11.8145
controlled	-11.8145
▁counts	-11.8147
master	-11.8148
▁slight	-11.8149
▁sufficient	-11.8151
▁1984	-11.8154
▁1994	-11.8154
▁aluminum	-11.8154
▁analyzing	-11.8154
▁apologize	-11.8154
▁applies	-11.8154
▁austria	-11.8154
▁chaotic	-11.8154
▁chord	-11.8154
▁destructive	-11.8154
▁frustrating	-11.8154
▁helmet	-11.8154
▁marijuana	-11.8154
▁meadow	-11.8154
▁microscopic	-11.8154
▁obsolete	-11.8154
▁oyster	-11.8154
▁penalty	-11.8154
▁portugal	-11.8154
▁sediment	-11.8154
▁snail	-11.8154
▁staggering	-11.8154
▁thrust	-11.8154
▁visceral	-11.8154
▁superior	-11.8154
▁utility	-11.8154
▁wreck	-11.8154
▁isolation	-11.8154
▁cease	-11.8154
▁liberia	-11.8154
▁crank	-11.8154
▁grammar	-11.8154
▁insult	-11.8154
▁illustration	-11.8154
▁seafood	-11.8154
▁venus	-11.8154
▁abundant	-11.8155
▁blogger	-11.8155
▁terminal	-11.8155
▁appreciation	-11.8155
▁salary	-11.8155
▁straw	-11.8155
▁blueprint	-11.8155
▁superpower	-11.8155
▁acceptance	-11.8155
▁racial	-11.8155
▁planner	-11.8156
▁embodied	-11.8157
▁thermal	-11.8158
▁personalities	-11.8158
▁powerpoint	-11.8158
▁sexuality	-11.8159
▁biases	-11.816
▁mash	-11.8161
▁scientifically	-11.8161
▁spaceship	-11.8162
▁statistically	-11.8162
teen	-11.8162
▁thankfully	-11.8163
▁tightly	-11.8166
▁lightning	-11.8167
▁bask	-11.8167
▁matches	-11.8168
▁sahara	-11.817
▁worldview	-11.8171
▁sustained	-11.8177
▁wo	-11.8182
▁noble	-11.8185
▁limbs	-11.819
▁cracks	-11.819
▁outward	-11.8191
▁stealing	-11.8195
die	-11.8195
▁cod	-11.8196
pan	-11.8199
inch	-11.8202
▁massively	-11.8207
▁simon	-11.8209
▁traditionally	-11.822
▁chromosomes	-11.8222
▁diagnostic	-11.8224
▁diamond	-11.8226
▁primate	-11.8226
▁friendship	-11.8227
▁obstacle	-11.8227
▁textbook	-11.8227
▁paste	-11.8227
▁jean	-11.8228
your	-11.8228
▁procedures	-11.8229
▁kilometer	-11.8231
▁themes	-11.8234
▁portraits	-11.8236
▁specialist	-11.8237
▁tutor	-11.8244
▁ordered	-11.8244
▁frontal	-11.8249
▁edi	-11.8252
▁collaborator	-11.8253
▁stairs	-11.8256
cie	-11.8259
version	-11.826
▁disappears	-11.8261
▁foi	-11.8261
▁buck	-11.8261
▁checked	-11.8263
dad	-11.8264
▁medications	-11.8264
▁strikes	-11.8264
▁strengthen	-11.8269
▁returns	-11.8271
▁returning	-11.8276
▁fragments	-11.8277
ase	-11.8283
▁interfaces	-11.8287
▁filters	-11.8294
▁waited	-11.8299
see	-11.8313
handed	-11.8315
makers	-11.8316
▁traces	-11.8321
▁minerals	-11.8321
▁woo	-11.8323
▁fleet	-11.8324
▁optic	-11.8339
sky	-11.8347
▁sho	-11.8355
▁planting	-11.8358
▁monument	-11.836
▁cal	-11.8361
▁hum	-11.8377
▁greatly	-11.8389
▁str	-11.8395
▁snakes	-11.8405
▁incorporate	-11.8405
▁intel	-11.8417
▁mari	-11.8419
▁rays	-11.8421
▁metals	-11.8422
▁beck	-11.8423
rick	-11.8424
▁rub	-11.8432
lay	-11.8432
▁steer	-11.8436
▁flourish	-11.8436
▁apartments	-11.8442
▁register	-11.8443
▁talents	-11.8443
▁canal	-11.8443
▁dip	-11.8445
greg	-11.8448
shift	-11.8448
mate	-11.8449
because	-11.8449
brain	-11.8451
▁equals	-11.8451
▁stigma	-11.8452
pool	-11.8452
▁antenna	-11.8453
▁maneuver	-11.8455
▁tibet	-11.8456
▁psychiatri	-11.8456
▁orphan	-11.8456
▁basket	-11.8457
responsibilities	-11.8457
▁1997	-11.8457
▁ambassador	-11.8457
▁avenue	-11.8457
▁circular	-11.8457
▁grassroots	-11.8457
▁janitor	-11.8457
▁jefferson	-11.8457
▁kansas	-11.8457
▁namibia	-11.8457
▁numerous	-11.8457
▁philadelphia	-11.8457
▁prevalence	-11.8457
▁propaganda	-11.8457
▁quantities	-11.8457
▁reflex	-11.8457
▁renaissance	-11.8457
▁resilient	-11.8457
▁steady	-11.8457
▁submarine	-11.8457
▁voluntary	-11.8457
▁zimbabwe	-11.8457
▁anxious	-11.8457
▁delusion	-11.8457
▁mobilize	-11.8457
▁funeral	-11.8457
▁sync	-11.8457
▁observing	-11.8457
▁apollo	-11.8457
▁abnormal	-11.8457
▁carrier	-11.8457
▁obligation	-11.8457
▁polite	-11.8457
▁railway	-11.8457
▁curator	-11.8457
▁entrepreneurial	-11.8457
▁shallow	-11.8458
▁cement	-11.8458
▁danny	-11.8458
▁disruptive	-11.8458
▁urgent	-11.8458
▁psychiatrist	-11.8458
▁incidentally	-11.8458
▁overlap	-11.8458
▁billboard	-11.8458
▁temporal	-11.8458
▁2015	-11.8459
▁tasmanian	-11.8459
▁breakdown	-11.846
▁frightened	-11.8461
▁qaeda	-11.8461
▁mandate	-11.8461
▁deliberately	-11.8461
▁gait	-11.8462
▁fever	-11.8462
▁spontaneously	-11.8462
▁huh	-11.8464
▁viable	-11.8464
▁max	-11.8465
▁flush	-11.8465
▁rig	-11.8465
▁upload	-11.8467
▁confined	-11.8467
▁chapters	-11.8471
▁teen	-11.8472
▁secondary	-11.8478
▁coup	-11.848
▁inclusive	-11.8482
▁honesty	-11.8484
▁dent	-11.849
▁hooked	-11.8491
▁rip	-11.8492
▁activated	-11.8496
▁siblings	-11.8497
▁/	-11.8497
▁skilled	-11.8504
▁illusions	-11.8507
▁sno	-11.8518
▁magazines	-11.8522
▁skip	-11.8525
▁moreover	-11.8527
▁marked	-11.8527
▁periods	-11.8533
too	-11.8536
▁amateur	-11.8537
▁mixing	-11.8538
▁prayer	-11.8545
▁yard	-11.8546
bran	-11.8547
▁copying	-11.8552
▁germ	-11.8552
▁respected	-11.856
▁individually	-11.8565
▁dancer	-11.8572
▁clues	-11.8578
▁bugs	-11.8592
▁neanderthals	-11.8598
▁mul	-11.8609
▁baker	-11.861
post	-11.862
▁greeks	-11.8622
▁tr	-11.8628
▁judgments	-11.8629
bra	-11.8638
angle	-11.8648
▁awake	-11.8666
▁collaborators	-11.8693
▁pc	-11.8697
ean	-11.8701
▁pursu	-11.8705
▁bonds	-11.8717
▁markers	-11.8718
▁jokes	-11.8718
▁prop	-11.8719
▁ethics	-11.8734
▁storms	-11.8739
born	-11.8746
▁52	-11.875
▁persuade	-11.8752
▁um	-11.8753
style	-11.8753
print	-11.8757
make	-11.8759
▁insert	-11.8763
▁bonus	-11.8767
friendly	-11.8767
▁anatomy	-11.8769
▁anesthesia	-11.8769
▁benign	-11.8769
▁bulk	-11.8769
▁colombia	-11.8769
▁controversy	-11.8769
▁convincing	-11.8769
▁distill	-11.8769
▁easiest	-11.8769
▁galapagos	-11.8769
▁injustice	-11.8769
▁kosovo	-11.8769
▁libraries	-11.8769
▁mammoth	-11.8769
▁module	-11.8769
▁norwegian	-11.8769
▁nucleus	-11.8769
▁oklahoma	-11.8769
▁patience	-11.8769
▁petition	-11.8769
▁reclaim	-11.8769
▁rectangle	-11.8769
▁transaction	-11.8769
▁inflation	-11.8769
▁nepal	-11.8769
▁infrared	-11.8769
▁warfare	-11.8769
▁indication	-11.8769
▁orgasm	-11.8769
▁siberia	-11.8769
▁surplus	-11.8769
▁ideological	-11.8769
▁hollow	-11.8769
▁altogether	-11.8769
▁posture	-11.8769
▁bombsight	-11.8769
▁ethanol	-11.877
▁tribal	-11.877
▁praise	-11.877
▁scroll	-11.877
▁flex	-11.877
▁meditation	-11.877
▁missile	-11.877
▁nike	-11.877
▁portray	-11.877
▁dependence	-11.877
▁duty	-11.8771
▁nazi	-11.8771
▁ease	-11.8771
▁wives	-11.8771
▁harmful	-11.8771
▁playground	-11.8771
▁adaptive	-11.8771
▁visitors	-11.8771
▁presidential	-11.8772
▁reflective	-11.8773
▁doubling	-11.8773
▁voters	-11.8773
▁98	-11.8775
▁angels	-11.8775
▁conductor	-11.8775
▁von	-11.8775
▁revolutionary	-11.8776
▁midst	-11.8776
▁subjective	-11.8776
▁acceptable	-11.8776
▁tanks	-11.8777
▁protective	-11.8777
▁deny	-11.8779
▁illnesses	-11.878
▁supportive	-11.878
▁crashes	-11.878
▁maximize	-11.8782
type	-11.8782
fall	-11.8788
▁dwell	-11.8791
ker	-11.8792
▁wounded	-11.8793
give	-11.8794
▁feeds	-11.8795
▁tricky	-11.8796
▁wandering	-11.88
▁publication	-11.8802
▁chickens	-11.8808
▁flights	-11.8808
▁efficiently	-11.8808
eye	-11.881
shot	-11.8811
▁pipes	-11.8812
▁geological	-11.8814
burg	-11.8815
▁bent	-11.8817
▁jay	-11.8817
▁apples	-11.8818
▁tooth	-11.8819
▁preserved	-11.8819
▁heroic	-11.8821
▁dye	-11.8822
▁financially	-11.8825
▁employer	-11.8828
▁documenting	-11.8829
▁partnerships	-11.8835
▁celebrated	-11.8837
▁cigarette	-11.886
dig	-11.8862
▁trait	-11.8863
▁pathway	-11.8864
▁civilian	-11.8865
▁painter	-11.8865
▁expectation	-11.8875
ali	-11.8879
▁dm	-11.888
▁linking	-11.888
▁plea	-11.8886
▁wonderfully	-11.8906
ugh	-11.891
grad	-11.8911
▁producer	-11.8918
▁dissolve	-11.8924
▁dreamed	-11.8927
efficient	-11.8935
▁forbid	-11.8941
▁projected	-11.8946
▁enzymes	-11.8953
▁boo	-11.8973
▁bomber	-11.8976
▁bananas	-11.8976
▁bud	-11.8983
cast	-11.9
▁developmental	-11.9006
▁whip	-11.9009
ink	-11.9012
any	-11.9012
▁alan	-11.9017
▁resonate	-11.9023
▁capitalist	-11.9025
mom	-11.903
▁variables	-11.9052
▁flor	-11.9062
▁heh	-11.9067
▁invade	-11.9072
▁expose	-11.9073
▁refine	-11.9073
▁recycle	-11.9074
nation	-11.9074
friend	-11.9075
▁assign	-11.9077
▁spear	-11.9079
▁graphs	-11.9079
specific	-11.9083
▁apparent	-11.9085
▁cuba	-11.9088
▁shi	-11.909
jeopardy	-11.9092
▁altruism	-11.9092
▁arbitrary	-11.9092
▁bangalore	-11.9092
▁carnegie	-11.9092
▁defect	-11.9092
▁discrimination	-11.9092
▁draft	-11.9092
▁dragonflies	-11.9092
▁enthusiasm	-11.9092
▁equilibrium	-11.9092
▁existential	-11.9092
▁falcon	-11.9092
▁fuzzy	-11.9092
▁gadget	-11.9092
▁galleries	-11.9092
▁generosity	-11.9092
▁intriguing	-11.9092
▁introducing	-11.9092
▁migraine	-11.9092
▁octopus	-11.9092
▁paralysis	-11.9092
▁penetrate	-11.9092
▁promising	-11.9092
▁satisfied	-11.9092
▁submersible	-11.9092
▁goliath	-11.9092
▁prioritize	-11.9092
▁entity	-11.9092
▁prophet	-11.9092
▁varieties	-11.9092
▁dispute	-11.9092
▁jill	-11.9092
▁denmark	-11.9092
▁ashamed	-11.9092
▁problematic	-11.9092
▁confusion	-11.9092
▁trek	-11.9092
▁midnight	-11.9092
▁hatred	-11.9092
▁conscience	-11.9092
▁banned	-11.9092
▁polish	-11.9092
▁suburban	-11.9092
▁adolescence	-11.9093
▁snowden	-11.9093
▁roger	-11.9093
▁gaze	-11.9093
▁wallet	-11.9093
▁distraction	-11.9093
▁distinctive	-11.9093
▁criticism	-11.9094
▁alright	-11.9094
keith	-11.9094
▁beast	-11.9094
▁monk	-11.9097
▁colorful	-11.9098
▁brit	-11.9101
▁34	-11.9101
▁clips	-11.9101
▁repeatedly	-11.9101
▁dentist	-11.9101
▁impressed	-11.9102
▁devoted	-11.9104
▁consistently	-11.9107
▁rendering	-11.9108
▁15,000	-11.9108
▁desires	-11.9109
▁tedx	-11.9112
▁solo	-11.9113
ini	-11.9114
▁tenth	-11.9114
▁accurately	-11.9116
▁coding	-11.9116
▁touches	-11.9119
rop	-11.912
▁trailer	-11.9121
▁recovered	-11.9121
▁interviewer	-11.9121
ball	-11.9122
▁47	-11.9122
▁ratings	-11.9129
▁sticky	-11.9132
▁fossils	-11.9132
▁booth	-11.9132
▁cracked	-11.9135
▁shadows	-11.9138
▁complaining	-11.9138
▁tuned	-11.9141
▁neo	-11.9142
▁biologically	-11.9144
▁budgets	-11.9147
▁pathogen	-11.9149
▁tb	-11.915
▁remembering	-11.9153
▁verbal	-11.9162
▁morally	-11.9164
erial	-11.9167
▁jumps	-11.9168
▁operated	-11.9169
edge	-11.9173
▁bloody	-11.9174
▁blocked	-11.9178
coming	-11.918
▁twins	-11.9191
▁hatch	-11.9192
▁aspiration	-11.9193
▁laying	-11.9195
ken	-11.9195
▁towns	-11.92
▁viewing	-11.9201
▁sequenced	-11.9215
▁suits	-11.9219
▁relates	-11.9234
▁uncover	-11.9234
▁meaningless	-11.9237
▁attacking	-11.9244
▁sucks	-11.9245
▁processed	-11.9246
▁rag	-11.9252
sani	-11.9259
ua	-11.926
▁explanations	-11.9262
▁125	-11.9265
▁practiced	-11.9271
▁manufacturers	-11.9275
▁shoots	-11.9281
▁lakes	-11.9286
▁boot	-11.9292
rap	-11.9297
uch	-11.9299
▁reveals	-11.9302
▁displays	-11.931
rip	-11.9315
▁buttons	-11.9317
▁24-	-11.932
▁emerges	-11.9332
▁def	-11.9337
▁snap	-11.9339
ional	-11.934
cho	-11.9341
▁slaves	-11.9361
inal	-11.9367
▁mob	-11.9372
body	-11.9375
▁retail	-11.9375
▁inventions	-11.9388
▁spit	-11.9389
▁posters	-11.9391
▁cc	-11.9392
▁allen	-11.9395
▁determin	-11.9403
▁presenting	-11.9405
▁retire	-11.9405
▁cro	-11.9405
▁northeast	-11.941
axis	-11.9411
material	-11.9416
social	-11.9417
lethal	-11.9417
▁exclusive	-11.9419
▁manifest	-11.9422
▁potato	-11.9423
▁automatic	-11.9425
▁sovereign	-11.9425
▁censor	-11.9425
▁arduino	-11.9425
▁auditorium	-11.9425
▁caribbean	-11.9425
▁cerebral	-11.9425
▁commodities	-11.9425
▁crocodile	-11.9425
▁cruise	-11.9425
▁edinburgh	-11.9425
▁embryo	-11.9425
▁eradication	-11.9425
▁gratitude	-11.9425
▁horrific	-11.9425
▁identities	-11.9425
▁infinity	-11.9425
▁kiribati	-11.9425
▁loneliness	-11.9425
▁michigan	-11.9425
▁swedish	-11.9425
▁synthesis	-11.9425
▁teszler	-11.9425
esteem	-11.9425
▁athletic	-11.9425
▁bluefin	-11.9425
▁erotic	-11.9425
▁pepper	-11.9425
▁unstable	-11.9425
▁warehouse	-11.9425
▁debris	-11.9425
▁crust	-11.9425
▁wavelength	-11.9425
▁ebay	-11.9425
▁elbow	-11.9425
▁supercomputer	-11.9426
▁assist	-11.9426
▁multiverse	-11.9426
▁orphanage	-11.9426
▁polymer	-11.9426
▁scanned	-11.9426
▁temptation	-11.9426
▁princeton	-11.9426
▁transmitted	-11.9426
▁grassland	-11.9426
▁blur	-11.9427
▁peru	-11.9427
▁minor	-11.9427
▁argentina	-11.9427
▁clap	-11.9427
▁mirrors	-11.9427
▁rejection	-11.9427
▁daddy	-11.9428
▁collar	-11.9428
▁7,000	-11.9428
▁inmates	-11.9429
▁susan	-11.9429
▁1.3	-11.9431
▁unified	-11.9431
▁annoying	-11.9431
▁breakthroughs	-11.9432
listen	-11.9432
▁displaced	-11.9435
▁compressed	-11.9436
▁crushed	-11.9436
▁300,000	-11.9436
▁degraded	-11.9436
▁newborn	-11.9437
▁composed	-11.9437
▁hindu	-11.9437
▁daylight	-11.9439
▁louder	-11.944
▁blessing	-11.9441
▁fruits	-11.9442
▁countryside	-11.9442
hell	-11.9444
mark	-11.9446
▁pac	-11.9446
▁cone	-11.9447
hal	-11.9448
▁kenyan	-11.9448
boy	-11.945
▁evaporate	-11.9451
▁dean	-11.9451
▁exploded	-11.9453
▁placebo	-11.9454
▁mathematically	-11.9456
uh	-11.9458
▁hence	-11.9458
▁fee	-11.9461
▁independently	-11.9461
▁scaled	-11.9467
▁careers	-11.9471
▁ke	-11.9476
▁legally	-11.9482
▁poop	-11.9484
▁rediscover	-11.9487
▁neurological	-11.9489
▁anytime	-11.9489
illa	-11.9492
▁disappearing	-11.95
oriented	-11.9504
▁educators	-11.9509
▁ce	-11.9517
▁gosh	-11.9519
performing	-11.9523
▁accepting	-11.9533
▁donated	-11.9534
▁pl	-11.9538
▁eighty	-11.9538
▁condom	-11.954
▁watt	-11.9541
▁requirement	-11.9541
▁exercises	-11.9547
▁lure	-11.9551
▁afterward	-11.9552
▁addressed	-11.9553
▁heights	-11.9557
▁balanced	-11.9558
▁democrats	-11.9569
▁commonly	-11.9577
▁tips	-11.9578
atur	-11.9578
▁slowed	-11.9579
▁rainforests	-11.9584
more	-11.9586
▁wished	-11.9594
lb	-11.9597
▁elders	-11.9598
▁firms	-11.9617
▁$100	-11.9621
▁chan	-11.9624
▁cleaning	-11.9625
oth	-11.9627
▁unite	-11.9629
▁bankers	-11.9631
▁den	-11.9638
itis	-11.9641
ending	-11.965
▁sb	-11.9659
▁operates	-11.9661
▁mag	-11.9664
▁squared	-11.9665
▁dreaming	-11.9682
▁mouths	-11.9684
ette	-11.969
▁diver	-11.9696
▁depths	-11.9698
▁perceptions	-11.9699
▁cousins	-11.9703
▁researching	-11.9711
ular	-11.9713
▁attributes	-11.9728
▁releas	-11.973
▁190	-11.9731
▁manipulat	-11.9746
gal	-11.9748
▁plac	-11.975
▁morph	-11.9756
▁reinforce	-11.9758
vascular	-11.9761
assembly	-11.9761
security	-11.9762
wash	-11.9762
▁numb	-11.9764
▁northwest	-11.9764
▁voyage	-11.9764
▁guilt	-11.9765
▁abu	-11.9766
▁cockroach	-11.9767
▁needles	-11.9768
▁francis	-11.977
▁1991	-11.977
▁amsterdam	-11.977
▁astronomical	-11.977
▁brigade	-11.977
▁calcium	-11.977
▁celebrating	-11.977
▁disadvantage	-11.977
▁essay	-11.977
▁execution	-11.977
▁georgia	-11.977
▁glory	-11.977
▁guinea	-11.977
▁happiest	-11.977
▁impaired	-11.977
▁improvisation	-11.977
▁intangible	-11.977
▁laundry	-11.977
▁limestone	-11.977
▁malnutrition	-11.977
▁nectar	-11.977
▁oecd	-11.977
▁pregnancy	-11.977
▁quantitative	-11.977
▁regain	-11.977
▁regulator	-11.977
▁repertoire	-11.977
▁reproductive	-11.977
▁specimen	-11.977
▁unacceptable	-11.977
▁unemployment	-11.977
▁venezuela	-11.977
▁babbage	-11.977
▁grape	-11.977
▁michelangelo	-11.977
▁monsoon	-11.977
▁mysteries	-11.977
▁natasha	-11.977
▁ninth	-11.977
▁psyche	-11.977
▁resort	-11.977
▁lewis	-11.977
▁tesla	-11.977
▁flexibility	-11.977
▁imitate	-11.977
▁hobby	-11.977
▁modify	-11.977
▁motorcycle	-11.977
▁masterpiece	-11.977
▁permit	-11.977
▁cried	-11.977
▁vegetation	-11.977
▁lagos	-11.9771
▁emily	-11.9771
▁misery	-11.9771
▁rainfall	-11.9771
▁typing	-11.9771
▁marvelous	-11.9771
▁nsa	-11.9771
▁grey	-11.9771
▁jewelry	-11.9771
▁romance	-11.9771
▁salad	-11.9771
▁circulation	-11.9771
▁piles	-11.9771
▁equipped	-11.9772
▁standpoint	-11.9772
▁boson	-11.9772
▁novelty	-11.9772
▁sword	-11.9772
▁stir	-11.9772
▁injection	-11.9773
mposing	-11.9773
▁justify	-11.9773
▁medal	-11.9773
▁leone	-11.9774
▁victory	-11.9774
70	-11.9774
▁250,000	-11.9775
▁attraction	-11.9775
▁180	-11.9776
▁distorted	-11.9779
▁certainty	-11.9779
▁diego	-11.978
▁accountable	-11.978
▁declared	-11.978
▁obtained	-11.9781
▁drip	-11.9783
▁dragge	-11.9784
▁firmly	-11.9786
▁taller	-11.9787
▁bypass	-11.979
▁hawking	-11.979
▁lover	-11.979
rl	-11.9791
▁horn	-11.9793
▁infinitely	-11.9795
▁fled	-11.9799
▁quietly	-11.9801
▁assembled	-11.9801
▁gius	-11.9802
▁winners	-11.9802
▁disgusting	-11.9802
▁sil	-11.9802
▁discussed	-11.9803
▁cultivate	-11.9804
▁successes	-11.9807
▁biased	-11.9808
▁gel	-11.9815
▁tremendously	-11.9819
▁moma	-11.982
hr	-11.9822
▁attempted	-11.9822
▁dug	-11.9824
▁pakistani	-11.9831
▁harvesting	-11.9832
▁articulate	-11.9832
▁dealer	-11.9833
▁cult	-11.9834
▁strangely	-11.9835
▁giga	-11.9837
▁parameters	-11.984
▁140	-11.9846
▁cit	-11.9846
▁judges	-11.9847
▁compact	-11.9848
udi	-11.9849
▁characterize	-11.9849
▁environmentally	-11.9854
entrepreneurship	-11.9854
▁glaciers	-11.986
▁bombing	-11.9873
▁gaining	-11.9873
▁carol	-11.9887
third	-11.9888
▁rhythms	-11.9889
▁tracked	-11.9889
maker	-11.9891
▁stab	-11.9892
▁demanding	-11.9894
▁gallon	-11.9895
▁believer	-11.9895
itude	-11.9896
▁banana	-11.9896
▁survivor	-11.9896
▁symptom	-11.9898
▁republican	-11.9898
▁folk	-11.9899
▁ngo	-11.9901
▁joyful	-11.9903
▁poorly	-11.9905
▁flap	-11.9909
▁veterans	-11.9915
saving	-11.9918
home	-11.9919
▁rolls	-11.9922
▁flee	-11.9925
▁votes	-11.9932
▁tedsters	-11.994
▁demographics	-11.9943
▁pumps	-11.9945
▁hood	-11.9947
▁medi	-11.9949
▁miracles	-11.996
▁cra	-11.9966
▁dates	-11.9966
▁ceos	-11.9977
▁incremental	-11.9977
▁electromagneti	-11.9979
▁mist	-11.9987
tti	-11.9988
▁slowing	-12.0012
▁ki	-12.0016
wan	-12.0028
▁450	-12.0028
▁slot	-12.0032
stone	-12.0049
▁strand	-12.0055
write	-12.0055
▁marsha	-12.0062
ander	-12.0063
▁thermo	-12.007
▁hay	-12.0082
▁metrics	-12.0092
ada	-12.0102
▁elect	-12.0107
▁swallow	-12.0113
▁kh	-12.0115
generation	-12.0115
▁wak	-12.0116
▁hind	-12.0117
screen	-12.0119
▁societ	-12.0122
▁bosnia	-12.0123
▁olive	-12.0123
lapse	-12.0124
▁promises	-12.0124
▁southeast	-12.0125
▁sneak	-12.0125
▁intrinsic	-12.0127
▁1993	-12.0127
▁acceleration	-12.0127
▁acumen	-12.0127
▁adequate	-12.0127
▁applause	-12.0127
▁bandwidth	-12.0127
▁commerce	-12.0127
▁conviction	-12.0127
▁declining	-12.0127
▁duration	-12.0127
▁fingertips	-12.0127
▁graffiti	-12.0127
▁julie	-12.0127
▁laureate	-12.0127
▁modified	-12.0127
▁mortgage	-12.0127
▁muhammad	-12.0127
▁mundane	-12.0127
▁nairobi	-12.0127
▁puberty	-12.0127
▁qualified	-12.0127
▁railroad	-12.0127
▁recipient	-12.0127
▁reservation	-12.0127
▁scope	-12.0127
▁simulator	-12.0127
▁summary	-12.0127
▁sunshine	-12.0127
▁technologist	-12.0127
▁thunder	-12.0127
▁tuberculosis	-12.0127
▁violation	-12.0127
▁gamma	-12.0127
▁mutant	-12.0127
▁landfill	-12.0127
▁shuttle	-12.0127
▁secular	-12.0127
▁blanket	-12.0127
▁jacket	-12.0127
▁inviting	-12.0127
▁resonance	-12.0127
▁biofuel	-12.0127
▁2.5	-12.0127
▁censorship	-12.0127
▁wilson	-12.0127
▁unemployed	-12.0128
▁vegas	-12.0128
▁irrigation	-12.0128
▁mythology	-12.0128
▁finland	-12.0128
▁battlefield	-12.0128
▁eager	-12.0128
▁warren	-12.0128
▁submitted	-12.0128
▁responsive	-12.0128
▁nicole	-12.0128
▁doaa	-12.0128
▁possession	-12.0128
▁referred	-12.0128
▁passport	-12.0128
▁emergent	-12.0128
▁86	-12.0129
▁attachment	-12.0129
▁shipped	-12.0129
▁noticing	-12.0129
▁hallway	-12.0129
▁disruption	-12.0129
▁victorian	-12.013
▁comparable	-12.013
▁ipad	-12.013
▁knot	-12.013
▁potatoes	-12.013
▁darwinian	-12.0131
fer	-12.0131
▁wax	-12.0131
▁backpack	-12.0132
▁reasonably	-12.0133
▁abstraction	-12.0133
▁shade	-12.0133
▁ninety	-12.0134
▁wool	-12.0134
▁syrian	-12.0134
these	-12.0135
▁crater	-12.0137
▁reuse	-12.0141
▁pest	-12.0141
▁assigned	-12.0143
▁turing	-12.0143
▁sounded	-12.0144
matic	-12.0144
▁nap	-12.0147
▁delighted	-12.0147
▁echo	-12.0148
▁globalized	-12.015
▁stall	-12.015
▁settled	-12.0154
▁flute	-12.0154
▁sections	-12.0154
▁coined	-12.0157
▁searches	-12.0159
▁implanted	-12.0161
▁promotion	-12.0161
▁bass	-12.0162
▁knocked	-12.0163
▁sailing	-12.0165
▁somalia	-12.0169
▁54	-12.0173
▁innovators	-12.0183
▁belonging	-12.0183
len	-12.0185
▁optimal	-12.0186
▁pilots	-12.0197
▁linguistic	-12.0198
▁maintaining	-12.0204
▁shuffle	-12.0216
tted	-12.0218
▁strengths	-12.0219
bone	-12.0235
▁buyer	-12.0235
era	-12.0237
▁sms	-12.0239
▁360	-12.024
▁fails	-12.0245
▁folds	-12.0247
▁williams	-12.025
lock	-12.0251
▁matching	-12.0256
▁ruin	-12.0259
▁genomics	-12.0261
open	-12.0262
▁negotiation	-12.0265
▁employee	-12.0269
▁accounting	-12.027
▁programmer	-12.0272
▁blocking	-12.0273
▁tickets	-12.0281
▁vet	-12.029
▁volumes	-12.0292
▁statements	-12.0292
▁lend	-12.0295
▁explorer	-12.0301
▁fixing	-12.0307
▁listed	-12.0307
eating	-12.0315
▁scenarios	-12.0316
▁hurts	-12.0328
▁accompanie	-12.0351
▁ruins	-12.0357
▁developers	-12.0357
▁spect	-12.0382
▁warp	-12.0383
▁cigarettes	-12.0391
▁civilians	-12.0391
▁160	-12.0397
rated	-12.0404
eval	-12.0406
▁hump	-12.0425
▁weekends	-12.0435
▁bun	-12.044
▁parasites	-12.0444
ata	-12.0446
stan	-12.045
▁cite	-12.0455
▁recruit	-12.0461
▁issued	-12.0461
▁experimenting	-12.047
▁combin	-12.0472
ulation	-12.0473
▁commands	-12.0475
▁hawk	-12.0477
▁excite	-12.0478
▁dj	-12.048
▁underestimate	-12.048
proof	-12.0486
mission	-12.0486
correct	-12.0489
learn	-12.0489
▁heavens	-12.0491
▁spontaneous	-12.0491
▁literal	-12.0491
▁hung	-12.0491
ended	-12.0492
▁selective	-12.0493
▁southwest	-12.0495
▁peel	-12.0495
linear	-12.0495
▁myths	-12.0495
▁compass	-12.0496
▁chick	-12.0497
%	-12.0498
regulating	-12.0498
▁accommodate	-12.0498
▁administrator	-12.0498
▁algebra	-12.0498
▁bhutan	-12.0498
▁cartilage	-12.0498
▁certificate	-12.0498
▁commute	-12.0498
▁connecticut	-12.0498
▁contagious	-12.0498
▁entitled	-12.0498
▁excellence	-12.0498
▁faculty	-12.0498
▁glorious	-12.0498
▁incomplete	-12.0498
▁jerry	-12.0498
▁mammography	-12.0498
▁opponent	-12.0498
▁orangutan	-12.0498
▁palestine	-12.0498
▁pennsylvania	-12.0498
▁pervasive	-12.0498
▁relevance	-12.0498
▁rhetoric	-12.0498
▁sapiens	-12.0498
▁sensible	-12.0498
▁shield	-12.0498
▁sulfur	-12.0498
▁supplement	-12.0498
▁suspicious	-12.0498
▁testosterone	-12.0498
▁unpredictable	-12.0498
▁ushahidi	-12.0498
▁velocity	-12.0498
▁inexpensive	-12.0498
▁radar	-12.0498
▁volcani	-12.0498
▁aquatic	-12.0498
▁divergence	-12.0498
▁neurogenesis	-12.0498
▁tennis	-12.0498
▁nanotechnology	-12.0498
▁arose	-12.0498
▁scotland	-12.0498
▁obey	-12.0498
▁biotechnology	-12.0498
▁enlightenment	-12.0498
▁caltech	-12.0498
▁1945	-12.0498
▁1975	-12.0498
▁worthwhile	-12.0498
▁hubble	-12.0498
▁finite	-12.0498
▁citizenship	-12.0498
▁persistent	-12.0498
▁consultant	-12.0498
▁shaping	-12.0498
▁franklin	-12.0498
▁remark	-12.0498
▁blogging	-12.0499
▁verge	-12.0499
▁larvae	-12.0499
▁biotech	-12.0499
▁accomplishment	-12.0499
▁ironically	-12.0499
▁johnny	-12.05
▁shortcut	-12.05
▁crispr	-12.05
▁urbanization	-12.0501
▁evan	-12.0501
▁rockets	-12.0501
▁skype	-12.0501
▁riots	-12.0502
▁rib	-12.0503
▁waterfall	-12.0503
▁explicitly	-12.0503
▁vest	-12.0504
▁forcing	-12.0505
▁inherited	-12.0505
▁skies	-12.0507
▁randomness	-12.0508
▁preventable	-12.0508
▁climbers	-12.051
▁executed	-12.051
▁controller	-12.0511
▁armor	-12.0512
▁forty	-12.0514
conduct	-12.0514
▁bleeding	-12.0514
ility	-12.0515
▁registered	-12.0515
▁disconnected	-12.0517
▁inflate	-12.0519
▁refined	-12.052
ggie	-12.0523
▁fighters	-12.0523
▁relaxed	-12.0524
▁likewise	-12.0525
▁appropriately	-12.0526
▁shouting	-12.0526
▁undergo	-12.0527
▁pity	-12.0528
▁humanities	-12.0528
▁metaphorical	-12.053
▁editing	-12.053
▁contractor	-12.0532
▁barrels	-12.0532
▁accelerated	-12.0532
▁reinventing	-12.0533
wall	-12.0535
▁pollutants	-12.0538
▁resolved	-12.0539
▁graduates	-12.0539
▁guaranteed	-12.0542
▁sue	-12.0545
▁cybercriminals	-12.0547
atory	-12.0548
▁doses	-12.055
▁phrases	-12.0562
▁culturally	-12.0564
▁julian	-12.0565
▁gifts	-12.0565
▁sums	-12.0569
aria	-12.0573
▁cooler	-12.0577
▁crowded	-12.0582
▁honeybees	-12.0582
▁recreate	-12.0586
▁spades	-12.0591
▁reviews	-12.0599
wire	-12.0602
▁corridors	-12.0609
▁orient	-12.0615
▁pesticides	-12.0618
▁operational	-12.062
▁stereotypes	-12.0627
▁labels	-12.0631
▁phd	-12.064
▁pier	-12.0643
▁cleaned	-12.0644
▁seize	-12.0648
▁initiatives	-12.0648
▁executive	-12.065
▁consist	-12.0651
▁conservatives	-12.0657
▁walker	-12.066
ask	-12.066
▁measurement	-12.0663
band	-12.0671
▁inefficient	-12.0671
ago	-12.0675
▁officers	-12.0678
▁geeks	-12.0681
▁vend	-12.0686
▁conditioning	-12.0686
▁dave	-12.069
link	-12.0707
▁geometric	-12.0713
▁ple	-12.0716
nine	-12.0722
▁negotiations	-12.0735
▁gallons	-12.0745
18	-12.0749
▁feared	-12.0749
▁aspirations	-12.0763
▁indoor	-12.0779
-2	-12.0791
▁specialists	-12.0798
mbi	-12.0799
nia	-12.0803
▁arrows	-12.0808
99	-12.0809
▁singers	-12.081
▁julia	-12.0813
▁magnets	-12.0822
▁projections	-12.0827
▁regrets	-12.083
list	-12.0835
▁synthesize	-12.0845
▁entertain	-12.086
▁satisfy	-12.0861
▁moo	-12.0867
▁maria	-12.0867
built	-12.0871
piece	-12.0873
sensitive	-12.0874
conflict	-12.0874
machine	-12.0874
forward	-12.0874
color	-12.0874
keep	-12.0874
sharing	-12.0876
hello	-12.0877
▁sculpt	-12.0878
▁uncertain	-12.0882
▁jewel	-12.0882
▁interfere	-12.0882
▁1996	-12.0882
▁adjacent	-12.0882
▁anecdote	-12.0882
▁arizona	-12.0882
▁beethoven	-12.0882
▁bruce	-12.0882
▁chalk	-12.0882
▁comprehensive	-12.0882
▁guatemala	-12.0882
▁holocaust	-12.0882
▁irrelevant	-12.0882
▁juggling	-12.0882
▁katrina	-12.0882
▁kepler	-12.0882
▁kyoto	-12.0882
▁lithium	-12.0882
▁mammogram	-12.0882
▁massachusetts	-12.0882
▁mediterranean	-12.0882
▁metropolitan	-12.0882
▁negotiating	-12.0882
▁nurturing	-12.0882
▁pancreatic	-12.0882
▁paradise	-12.0882
▁pentagon	-12.0882
▁pittsburgh	-12.0882
▁prototyping	-12.0882
▁puncture	-12.0882
▁queue	-12.0882
▁radius	-12.0882
▁samuel	-12.0882
▁smuggle	-12.0882
▁template	-12.0882
▁throat	-12.0882
▁unintended	-12.0882
▁vector	-12.0882
▁vibrating	-12.0882
í	-12.0882
▁complication	-12.0882
▁depressing	-12.0882
▁histories	-12.0882
▁hypothetical	-12.0882
▁melody	-12.0882
▁minimize	-12.0882
▁reply	-12.0882
▁synchronize	-12.0882
▁lamb	-12.0882
▁cheek	-12.0882
▁capsule	-12.0882
▁fundraising	-12.0882
▁toronto	-12.0882
▁amino	-12.0882
▁confusing	-12.0882
▁ozone	-12.0882
▁charities	-12.0883
▁veterinarian	-12.0883
▁petals	-12.0883
▁bald	-12.0883
▁sought	-12.0883
with	-12.0883
▁digits	-12.0883
▁versa	-12.0883
▁preferred	-12.0883
▁checklist	-12.0883
▁unsustainable	-12.0883
▁agile	-12.0883
▁announcement	-12.0883
▁vein	-12.0883
▁1940	-12.0883
▁bombard	-12.0883
▁erectus	-12.0883
▁evaluation	-12.0883
▁deployment	-12.0883
▁decode	-12.0884
▁gecko	-12.0884
▁cardio	-12.0884
▁mutate	-12.0884
▁64	-12.0884
ounce	-12.0885
▁yale	-12.0885
▁advancement	-12.0885
▁fishery	-12.0885
▁basin	-12.0885
▁stressful	-12.0886
▁mustard	-12.0888
▁strictly	-12.0889
touch	-12.0889
▁marvel	-12.089
▁freeway	-12.0891
▁400,000	-12.0891
▁hotter	-12.0892
▁needless	-12.0895
▁coma	-12.0898
▁conception	-12.0898
▁insisted	-12.0902
▁pools	-12.0902
▁broadly	-12.0902
▁lifelong	-12.0902
pass	-12.0903
▁satisfying	-12.0904
uous	-12.0904
▁edited	-12.0904
▁stein	-12.0905
▁mp	-12.0905
▁invaded	-12.0906
▁simulated	-12.0913
▁dick	-12.0916
▁retrofit	-12.0918
▁reactors	-12.092
▁organizational	-12.0923
▁loaded	-12.0929
▁cam	-12.093
▁collector	-12.093
▁preach	-12.0932
▁hunters	-12.0932
▁newly	-12.094
▁titles	-12.0942
▁appliances	-12.0942
▁unity	-12.0952
▁suburbs	-12.0952
▁firsthand	-12.0955
▁sling	-12.0957
▁spheres	-12.0969
▁embraced	-12.097
▁53	-12.0976
▁reminder	-12.0978
▁appreciated	-12.0979
▁commander	-12.0979
▁streaming	-12.0982
▁nonviolen	-12.0994
▁listener	-12.0995
▁zip	-12.1009
▁chap	-12.1036
▁addicts	-12.1036
▁quiz	-12.1037
▁kilograms	-12.1045
▁margins	-12.1048
▁turtle	-12.1049
▁scholar	-12.1049
▁routes	-12.105
▁enzyme	-12.1051
▁deer	-12.1051
▁poetic	-12.1061
▁iq	-12.1067
active	-12.1073
▁pore	-12.1082
ripped	-12.1085
spot	-12.1086
▁opt	-12.1092
them	-12.1098
▁russians	-12.1105
▁pee	-12.1106
▁cues	-12.1115
▁lin	-12.1133
▁cue	-12.1142
▁strain	-12.1151
▁lastly	-12.1152
▁thumbs	-12.1152
istan	-12.1155
bble	-12.1156
▁fees	-12.1159
▁dogma	-12.1161
spiring	-12.1162
▁photographers	-12.1197
▁exceptional	-12.1206
▁builder	-12.1232
cell	-12.1232
wise	-12.1233
ison	-12.1246
▁yell	-12.1261
wide	-12.1262
▁eradicate	-12.1263
▁dominate	-12.1263
▁chew	-12.1264
craft	-12.1266
▁distract	-12.1267
▁align	-12.1267
▁exhaust	-12.1268
▁enrich	-12.127
bound	-12.1271
market	-12.1273
resistant	-12.1274
white	-12.1274
growing	-12.1274
first	-12.1274
▁extensive	-12.1275
▁strict	-12.1275
six	-12.1276
beat	-12.1276
▁tunisia	-12.1278
▁flick	-12.1278
scape	-12.1279
most	-12.1279
▁volcano	-12.1279
▁enforce	-12.1282
▁preced	-12.1282
▁2013	-12.1282
▁agnostic	-12.1282
▁ambiguity	-12.1282
▁approval	-12.1282
▁coalition	-12.1282
▁cognition	-12.1282
▁communist	-12.1282
▁conspiracy	-12.1282
▁darfur	-12.1282
▁dylan	-12.1282
▁erosion	-12.1282
▁excerpt	-12.1282
▁hippocampus	-12.1282
▁humiliation	-12.1282
▁imaginary	-12.1282
▁implicit	-12.1282
▁improbable	-12.1282
▁lesbian	-12.1282
▁liberation	-12.1282
▁margaret	-12.1282
▁offensive	-12.1282
▁pepsi	-12.1282
▁physiological	-12.1282
▁pneumonia	-12.1282
▁presumably	-12.1282
▁propulsion	-12.1282
▁provoke	-12.1282
▁quantity	-12.1282
▁replied	-12.1282
▁simplistic	-12.1282
▁tectonic	-12.1282
▁tropics	-12.1282
▁wetsuit	-12.1282
▁whistling	-12.1282
▁wolfram	-12.1282
sweeney	-12.1282
▁communal	-12.1282
▁explosive	-12.1282
▁gorilla	-12.1282
▁lawrence	-12.1282
▁rival	-12.1282
▁ucla	-12.1282
▁urine	-12.1282
▁bmw	-12.1282
▁auction	-12.1282
▁taiwan	-12.1282
▁grind	-12.1282
▁instability	-12.1282
▁snapshot	-12.1282
▁venice	-12.1282
▁packet	-12.1282
▁beloved	-12.1282
hhh	-12.1282
▁lesion	-12.1283
▁banjo	-12.1283
▁provision	-12.1283
▁ideo	-12.1283
▁encryption	-12.1283
▁telecom	-12.1283
▁innate	-12.1283
▁orleans	-12.1283
▁notebook	-12.1283
▁sputnik	-12.1284
▁delta	-12.1284
▁iteration	-12.1284
▁courageous	-12.1284
▁57	-12.1285
▁recommendation	-12.1285
▁continually	-12.1285
▁58	-12.1285
▁fatty	-12.1285
▁skate	-12.1285
▁outrage	-12.1285
▁tourism	-12.1286
▁collider	-12.1286
▁flickr	-12.1286
▁portable	-12.1287
▁similarities	-12.1287
▁industrialized	-12.1288
▁sketches	-12.1289
▁intrigued	-12.1289
▁castle	-12.129
▁tolerate	-12.129
▁drowning	-12.1291
▁hmm	-12.1291
▁addicted	-12.1294
▁revolutionize	-12.1294
▁denied	-12.1296
▁aged	-12.1296
▁phil	-12.1296
▁beaches	-12.1298
▁partial	-12.13
▁confirmed	-12.1302
▁richness	-12.1303
▁corresponding	-12.1303
▁bicycles	-12.1305
▁mistaken	-12.1306
▁permanently	-12.1308
▁contributions	-12.1311
▁verse	-12.1313
▁automobiles	-12.132
▁boiling	-12.1323
tract	-12.1326
▁costa	-12.1333
▁meantime	-12.1335
▁tuck	-12.134
▁rooted	-12.1344
▁competitors	-12.1345
▁clar	-12.1345
last	-12.1347
counterintuitive	-12.1351
▁lava	-12.1352
▁kal	-12.1357
▁mineral	-12.1361
▁beard	-12.1364
▁drilling	-12.1366
▁badge	-12.1371
▁hoo	-12.1371
▁toxins	-12.1374
then	-12.1375
▁gum	-12.1375
▁dictate	-12.1376
▁periodic	-12.1377
▁1:	-12.1377
▁mau	-12.1381
lash	-12.1383
▁crashing	-12.1387
▁himalayas	-12.1393
▁synapses	-12.1393
▁4:	-12.1401
lee	-12.1404
▁appearing	-12.1409
▁identifying	-12.1416
ality	-12.1422
▁cel	-12.1435
▁kilos	-12.1436
▁avoiding	-12.1442
▁weekly	-12.1444
▁correspond	-12.1445
▁highways	-12.1446
yard	-12.1457
▁ruler	-12.1465
▁centimeter	-12.147
▁athlete	-12.1471
▁limitation	-12.1473
▁manufacturer	-12.1473
round	-12.1481
▁backward	-12.1493
▁pra	-12.1497
cker	-12.1502
▁poo	-12.1513
▁banker	-12.1519
▁scholars	-12.152
▁executives	-12.153
ifying	-12.1535
▁developer	-12.1538
▁liberals	-12.1544
▁explorers	-12.1547
▁fil	-12.1557
▁requirements	-12.156
▁bark	-12.156
quot	-12.1568
▁sessions	-12.1574
▁96	-12.1577
▁lined	-12.1582
▁sr	-12.1595
▁18-	-12.1603
▁goats	-12.1607
▁poses	-12.1609
▁wages	-12.1611
▁nut	-12.1635
▁rot	-12.1636
rig	-12.164
enberg	-12.165
▁900	-12.1654
▁generalize	-12.1658
▁triangles	-12.1659
▁demonstrat	-12.1664
walk	-12.1666
▁loser	-12.1669
▁kidneys	-12.1669
▁instincts	-12.1669
▁detectors	-12.1671
flow	-12.1681
▁erase	-12.1684
found	-12.1688
▁specialize	-12.169
wandering	-12.169
sound	-12.169
degree	-12.169
positive	-12.169
▁escalat	-12.169
hmm	-12.1691
▁vivid	-12.1692
green	-12.1693
turn	-12.1693
5,000	-12.1693
trans	-12.1695
▁potter	-12.1697
▁erect	-12.1698
▁affirm	-12.1699
)	-12.1699
▁1968	-12.1699
▁1989	-12.1699
▁acquisition	-12.1699
▁antibodies	-12.1699
▁aquarium	-12.1699
▁arithmetic	-12.1699
▁bioluminescence	-12.1699
▁cochlea	-12.1699
▁companion	-12.1699
▁convenience	-12.1699
▁darpa	-12.1699
▁eagle	-12.1699
▁educating	-12.1699
▁empirical	-12.1699
▁energetic	-12.1699
▁envy	-12.1699
▁estrogen	-12.1699
▁everglades	-12.1699
▁extremist	-12.1699
▁fracture	-12.1699
▁fraud	-12.1699
▁giraffe	-12.1699
▁grief	-12.1699
▁identification	-12.1699
▁imaginative	-12.1699
▁inadequate	-12.1699
▁ingenuity	-12.1699
▁intricate	-12.1699
▁investigating	-12.1699
▁jersey	-12.1699
▁kibera	-12.1699
▁lettuce	-12.1699
▁lightweight	-12.1699
▁mermaid	-12.1699
▁monopoly	-12.1699
▁murray	-12.1699
▁oregon	-12.1699
▁reagan	-12.1699
▁respiratory	-12.1699
▁servant	-12.1699
▁socket	-12.1699
▁sponge	-12.1699
▁sprawl	-12.1699
▁squeak	-12.1699
▁starvation	-12.1699
▁sterile	-12.1699
▁substitute	-12.1699
▁swear	-12.1699
▁sydney	-12.1699
▁turbine	-12.1699
▁uranium	-12.1699
▁vapor	-12.1699
▁variability	-12.1699
▁vinci	-12.1699
▁wolves	-12.1699
▁wrestle	-12.1699
▁dallas	-12.1699
▁lazy	-12.1699
▁qatar	-12.1699
▁cairo	-12.1699
▁foreground	-12.1699
▁kelly	-12.1699
▁gossip	-12.1699
▁risd	-12.1699
▁forehead	-12.1699
▁ultrasound	-12.1699
▁packaging	-12.1699
▁pension	-12.1699
▁rigorous	-12.1699
▁messaging	-12.1699
▁scuba	-12.1699
▁linux	-12.1699
▁pinpoint	-12.1699
▁transferred	-12.1699
▁beaver	-12.1699
▁rooftop	-12.1699
▁geese	-12.17
▁intrinsically	-12.17
▁worries	-12.17
▁thou	-12.17
▁surrender	-12.17
▁scottish	-12.17
▁certified	-12.17
▁evident	-12.17
▁tipping	-12.17
▁97	-12.17
▁bladder	-12.1701
▁sprint	-12.1701
▁turk	-12.1701
▁fred	-12.1701
▁offshore	-12.1701
▁poland	-12.1701
▁hurdle	-12.1702
▁christianity	-12.1702
▁suff	-12.1702
▁ancestry	-12.1702
▁+	-12.1702
▁titanic	-12.1702
▁82	-12.1703
▁invasive	-12.1704
▁1800	-12.1704
▁occupied	-12.1704
▁slate	-12.1704
▁camels	-12.1706
▁stain	-12.1706
▁extraction	-12.1707
▁nickname	-12.1707
▁norman	-12.1707
▁raft	-12.1707
▁runner	-12.1708
▁payoff	-12.1708
▁lenses	-12.1709
▁suggestions	-12.1709
▁restricted	-12.1709
▁shortage	-12.171
▁moderate	-12.1711
▁paulo	-12.1714
▁exhausted	-12.1714
▁enjoyable	-12.1715
▁sec	-12.1715
▁recruited	-12.1715
▁counterpart	-12.1715
▁swallowed	-12.1715
▁switches	-12.1717
▁chill	-12.1719
▁cia	-12.1724
▁crosses	-12.1726
▁employed	-12.1727
▁weighed	-12.1731
▁tortured	-12.1731
▁shrinking	-12.1733
▁crawling	-12.1734
▁eliminated	-12.1734
▁threatening	-12.1739
▁reconnect	-12.1743
▁fairy	-12.1744
▁inventors	-12.1746
▁flown	-12.175
▁valued	-12.1751
▁bid	-12.1752
▁recreation	-12.1752
▁doug	-12.1753
▁aesthetics	-12.1759
▁easter	-12.1764
▁pickle	-12.1766
▁cooked	-12.1771
▁ranch	-12.1773
▁pope	-12.1777
▁surroundings	-12.1779
fulness	-12.1779
▁abused	-12.1784
▁orbiting	-12.179
▁ringing	-12.1797
▁wounds	-12.18
▁prevented	-12.1808
▁internationally	-12.1812
▁reflecting	-12.1812
▁donation	-12.1814
▁warn	-12.1815
▁interviewing	-12.1816
▁mentors	-12.182
▁glu	-12.1827
▁axes	-12.1836
▁icons	-12.1848
▁deni	-12.1849
▁bumps	-12.185
▁clicking	-12.186
key	-12.1861
▁tru	-12.1863
ek	-12.1866
itz	-12.187
▁protests	-12.1871
▁illustrates	-12.1871
wn	-12.1883
▁infer	-12.1892
▁rabbits	-12.1896
▁kim	-12.1901
▁implication	-12.1905
▁accuse	-12.191
fat	-12.191
▁excuses	-12.1911
▁sri	-12.1912
▁dun	-12.1914
▁neuroscientists	-12.1917
▁bake	-12.1918
▁facilitate	-12.1923
hin	-12.1925
▁preserv	-12.1933
▁signing	-12.1934
▁mite	-12.1937
ometer	-12.1942
15	-12.1951
part	-12.1957
▁indoors	-12.1958
▁handy	-12.1981
door	-12.1986
▁token	-12.2011
▁germs	-12.202
▁amateurs	-12.202
▁sticker	-12.2025
▁grounded	-12.2031
ural	-12.2052
cam	-12.2063
▁sony	-12.208
ides	-12.2082
▁induce	-12.2092
olic	-12.2097
▁fulfill	-12.2097
▁render	-12.2098
▁bc	-12.21
▁representatives	-12.2103
▁bp	-12.2103
▁announce	-12.2107
▁learner	-12.211
▁exceed	-12.2112
▁scaffold	-12.2112
heart	-12.2113
▁prescribe	-12.2114
cub	-12.2115
▁arises	-12.2124
▁creators	-12.2124
organizing	-12.2125
resolution	-12.2125
industrial	-12.2125
growth	-12.2125
child	-12.2125
fight	-12.2126
▁loo	-12.2127
▁explicit	-12.2127
▁cooper	-12.2127
▁frequent	-12.213
▁cubic	-12.2131
▁superhero	-12.2131
▁fried	-12.2133
▁advent	-12.2134
▁$3	-12.2134
▁1973	-12.2134
▁24/7	-12.2134
▁automotive	-12.2134
▁bioluminescent	-12.2134
▁bronze	-12.2134
▁bulgaria	-12.2134
▁bumblebee	-12.2134
▁carpenter	-12.2134
▁charcoal	-12.2134
▁compliment	-12.2134
▁decentralized	-12.2134
▁degradation	-12.2134
▁embark	-12.2134
▁hudson	-12.2134
▁insecure	-12.2134
▁junior	-12.2134
▁literary	-12.2134
▁migrant	-12.2134
▁obscure	-12.2134
▁palace	-12.2134
▁penicillin	-12.2134
▁prevalent	-12.2134
▁senate	-12.2134
▁skyscraper	-12.2134
▁starbucks	-12.2134
▁stimulus	-12.2134
▁storycorps	-12.2134
▁sympathy	-12.2134
▁tadpole	-12.2134
▁tamiflu	-12.2134
▁twelve	-12.2134
disciplinary	-12.2134
▁astounding	-12.2134
▁diffuse	-12.2134
▁fission	-12.2134
▁hominid	-12.2134
▁miraculous	-12.2134
▁policing	-12.2134
▁ridicule	-12.2134
▁seizure	-12.2134
▁immerse	-12.2134
▁personnel	-12.2134
▁plunge	-12.2134
▁scripture	-12.2134
▁availability	-12.2134
▁unveil	-12.2134
ibility	-12.2134
▁agnes	-12.2134
▁integrating	-12.2134
▁auditory	-12.2134
▁pedal	-12.2134
▁bookstore	-12.2134
▁venue	-12.2134
▁rainbow	-12.2134
▁comedian	-12.2134
▁guidance	-12.2134
▁paragraph	-12.2134
▁dictatorship	-12.2134
▁zipcar	-12.2134
▁championship	-12.2134
▁ignorant	-12.2134
▁overseas	-12.2134
▁chuck	-12.2134
▁moses	-12.2134
▁outrageous	-12.2134
▁marcus	-12.2134
▁methodology	-12.2135
▁furthermore	-12.2135
▁clash	-12.2135
▁wiki	-12.2135
▁competent	-12.2135
▁desertification	-12.2135
▁tagging	-12.2135
▁superstar	-12.2135
▁wiring	-12.2135
▁walter	-12.2135
▁jury	-12.2136
▁59	-12.2136
▁establishment	-12.2136
▁oxide	-12.2136
▁underpin	-12.2136
▁marx	-12.2136
▁parade	-12.2136
▁dining	-12.2136
aternal	-12.2137
▁progressive	-12.2137
▁popping	-12.2137
▁porn	-12.2138
▁emma	-12.2138
▁functionality	-12.2139
▁reluctant	-12.214
▁drowned	-12.214
▁automated	-12.214
▁nudge	-12.2141
▁varied	-12.2141
▁uplift	-12.2142
▁feat	-12.2143
▁constitute	-12.2144
▁portal	-12.2144
▁upstream	-12.2144
▁devised	-12.2145
▁strongest	-12.2145
▁elevated	-12.2146
stein	-12.2146
▁constrained	-12.2147
▁accidental	-12.2148
▁500,000	-12.2149
▁uber	-12.2149
▁moth	-12.2151
town	-12.2151
▁uploaded	-12.2154
▁conform	-12.2155
proving	-12.2157
▁fulfilling	-12.2158
▁poke	-12.2159
▁retired	-12.216
▁mach	-12.216
▁perfection	-12.2162
▁dumped	-12.2165
galactic	-12.2166
▁followers	-12.2166
▁flooding	-12.2166
▁defi	-12.2167
▁sealed	-12.2172
▁14-	-12.2174
▁anticipated	-12.2175
▁complained	-12.2176
▁absorbed	-12.2178
miss	-12.2179
▁islamist	-12.2182
▁acknowledged	-12.2182
▁ferr	-12.2187
▁appealing	-12.2191
▁tweets	-12.2197
▁jon	-12.2206
▁secretly	-12.2208
▁reacting	-12.2215
▁organizer	-12.2216
risk	-12.2224
▁inventing	-12.223
ford	-12.2232
▁fluctuations	-12.2234
▁coherent	-12.2242
organized	-12.2244
▁monthly	-12.2246
▁poorer	-12.2246
▁plato	-12.2249
▁founder	-12.2256
▁seasonal	-12.2265
pple	-12.2265
▁kin	-12.2271
▁timeline	-12.2272
▁curse	-12.2274
▁favelas	-12.2276
▁commandments	-12.2276
▁sank	-12.2297
▁preferences	-12.2298
only	-12.2302
▁mir	-12.2312
kar	-12.232
▁ballet	-12.2323
▁costly	-12.2325
▁troubled	-12.2339
▁elder	-12.2352
▁neuroscientist	-12.2355
▁slap	-12.2357
▁shal	-12.2359
erated	-12.2375
▁centimeters	-12.2383
▁donations	-12.2383
▁sur	-12.2385
ight	-12.2386
▁110	-12.2395
▁esp	-12.2413
▁rode	-12.2417
fashioned	-12.2429
▁rider	-12.2441
▁strap	-12.2445
leg	-12.245
▁trusting	-12.2451
actor	-12.2479
▁friendships	-12.248
▁respectful	-12.2484
▁backup	-12.2485
▁poppe	-12.2487
▁upwards	-12.2502
▁leaks	-12.2503
▁tales	-12.2503
▁mock	-12.2511
▁nico	-12.2513
zu	-12.2514
▁undermine	-12.2516
mann	-12.2522
▁barn	-12.2524
▁heated	-12.2527
-3	-12.2534
▁sentiment	-12.254
low	-12.2551
▁crush	-12.2553
▁exams	-12.2556
▁confuse	-12.2569
▁compress	-12.2573
▁constrain	-12.2573
▁impress	-12.2573
▁obtain	-12.2574
▁dismiss	-12.2574
▁thrill	-12.2574
▁shatter	-12.2574
▁bless	-12.2575
fix	-12.2576
▁animate	-12.2577
held	-12.2577
mobile	-12.2579
maybe	-12.258
living	-12.258
gras	-12.258
▁deliberate	-12.2582
▁browse	-12.2582
▁creep	-12.2583
▁supernova	-12.2584
▁savanna	-12.2587
flu	-12.2587
▁causal	-12.2588
▁converge	-12.2588
▁epic	-12.2588
▁exxon	-12.2588
▁1976	-12.2588
▁1985	-12.2588
▁1986	-12.2588
▁accelerator	-12.2588
▁aerodynamic	-12.2588
▁apprentice	-12.2588
▁balancing	-12.2588
▁beekeepers	-12.2588
▁browsing	-12.2588
▁buffet	-12.2588
▁cafeteria	-12.2588
▁capacities	-12.2588
▁catalyst	-12.2588
▁ceramic	-12.2588
▁cherish	-12.2588
▁decipher	-12.2588
▁decoration	-12.2588
▁desalination	-12.2588
▁disposal	-12.2588
▁dominance	-12.2588
▁eliminating	-12.2588
▁embassy	-12.2588
▁emphasis	-12.2588
▁epiphany	-12.2588
▁fertility	-12.2588
▁fountain	-12.2588
▁hyena	-12.2588
▁hypotheses	-12.2588
▁illiterate	-12.2588
▁incubator	-12.2588
▁intercept	-12.2588
▁lakota	-12.2588
▁lawsuit	-12.2588
▁livelihood	-12.2588
▁mangrove	-12.2588
▁microwave	-12.2588
▁nevada	-12.2588
▁patriot	-12.2588
▁pavilion	-12.2588
▁perceptual	-12.2588
▁periphery	-12.2588
▁plague	-12.2588
▁pollinators	-12.2588
▁pragmatic	-12.2588
▁prejudice	-12.2588
▁primal	-12.2588
▁racism	-12.2588
▁resign	-12.2588
▁scalable	-12.2588
▁sebastian	-12.2588
▁simplify	-12.2588
▁sociologist	-12.2588
▁steak	-12.2588
▁syringe	-12.2588
▁tennessee	-12.2588
▁unequal	-12.2588
▁unpleasant	-12.2588
▁vibrate	-12.2588
▁vicious	-12.2588
▁widow	-12.2588
▁behaving	-12.2588
▁colorado	-12.2588
▁hunch	-12.2588
▁navy	-12.2588
▁abusive	-12.2588
▁cereal	-12.2588
▁mound	-12.2588
▁scandal	-12.2588
▁toyota	-12.2588
▁cnn	-12.2588
▁variant	-12.2588
▁guidelines	-12.2588
▁rift	-12.2588
▁plural	-12.2588
▁interference	-12.2588
▁2.0	-12.2588
▁hydrocarbon	-12.2588
▁reconcile	-12.2588
▁replicator	-12.2588
▁gym	-12.2588
▁pristine	-12.2588
▁napkin	-12.2588
▁embarrassment	-12.2589
▁mortal	-12.2589
▁vietnamese	-12.2589
▁ikea	-12.2589
▁cern	-12.2589
▁nancy	-12.2589
▁clapping	-12.2589
▁holistic	-12.2589
▁rotating	-12.2589
▁rubble	-12.2589
▁admission	-12.2589
▁fingerprint	-12.2589
▁reckless	-12.2589
▁eleven	-12.2589
▁advertisement	-12.2589
▁immortality	-12.2589
▁sewage	-12.2589
▁preservation	-12.2589
▁portland	-12.2589
▁rotation	-12.2589
▁boyfriend	-12.259
▁unaware	-12.259
▁interval	-12.259
▁maze	-12.259
▁restoration	-12.259
▁lesters	-12.259
▁involvement	-12.259
▁veronica	-12.259
▁misuse	-12.259
▁socio	-12.259
▁constructive	-12.2591
▁payload	-12.2591
▁mason	-12.2591
▁merit	-12.2591
▁dude	-12.2591
▁instructor	-12.2591
▁spam	-12.2592
▁roommate	-12.2592
▁droplet	-12.2593
▁hitler	-12.2593
▁oliver	-12.2593
▁enlightened	-12.2594
▁mba	-12.2595
▁grandma	-12.2595
▁haul	-12.2597
▁centralized	-12.2597
istine	-12.2597
▁imf	-12.2597
western	-12.2597
▁bono	-12.2599
▁smartest	-12.2599
▁fairness	-12.2601
▁80,000	-12.2601
▁adviser	-12.2602
▁void	-12.2602
▁immensely	-12.2603
hearted	-12.2603
▁rendered	-12.2603
▁hike	-12.2604
▁underway	-12.2604
▁distracted	-12.2604
▁criticized	-12.2607
▁dreadful	-12.2607
▁toaster	-12.2608
▁municipal	-12.2609
▁experimentation	-12.261
▁difficulties	-12.2611
▁peek	-12.2611
▁cameron	-12.2614
▁officially	-12.2616
▁hacked	-12.2617
▁beep	-12.2619
▁severely	-12.262
▁steering	-12.2621
▁murdered	-12.2625
add	-12.2625
▁dorm	-12.2628
▁tense	-12.2628
▁sucked	-12.263
▁speculate	-12.2631
▁broadcasting	-12.2634
▁foraging	-12.2635
▁rage	-12.264
rise	-12.2646
▁defending	-12.2647
▁uv	-12.2648
▁dodo	-12.2649
▁revealing	-12.2659
▁concluded	-12.266
berry	-12.2662
▁claimed	-12.2664
▁petri	-12.2665
▁crashed	-12.2667
▁pastor	-12.2673
▁pine	-12.2677
▁escaped	-12.2678
▁gifted	-12.268
▁char	-12.2681
▁curved	-12.2689
bad	-12.269
▁supposedly	-12.2691
huh	-12.2695
▁uk	-12.2695
▁brakes	-12.2704
▁claws	-12.2704
legged	-12.2709
▁humane	-12.2715
pin	-12.2717
odd	-12.2718
▁grad	-12.2722
▁caregivers	-12.2726
▁marginal	-12.2732
▁fonts	-12.2738
▁switching	-12.2738
▁beau	-12.2749
ured	-12.2775
▁$2	-12.2777
▁collaborat	-12.278
▁adolescents	-12.2782
▁parked	-12.2792
▁bonobos	-12.2793
▁providers	-12.2807
▁73	-12.2812
▁experimenter	-12.2812
▁performers	-12.2816
▁transistors	-12.2816
▁mimick	-12.2817
▁dunes	-12.2819
▁geek	-12.2828
▁headache	-12.2831
▁transistor	-12.2831
▁luc	-12.2837
▁dune	-12.284
▁tedster	-12.2846
▁ensu	-12.2856
▁strains	-12.2858
▁weave	-12.2862
▁var	-12.2865
▁lied	-12.2867
▁carbonate	-12.2871
▁ivan	-12.2873
gatherer	-12.2881
▁78	-12.2889
effective	-12.2907
comb	-12.2907
generated	-12.2918
var	-12.2926
▁3:	-12.294
▁prayers	-12.2946
ome	-12.2949
eight	-12.295
▁diagnostics	-12.2952
▁floods	-12.2964
▁eb	-12.2965
▁aura	-12.2982
▁founders	-12.2998
know	-12.3003
11	-12.3015
position	-12.3015
barack	-12.3018
▁paw	-12.3029
▁captur	-12.3033
▁sla	-12.3034
▁ignor	-12.3035
▁swam	-12.3041
after	-12.3042
▁bleed	-12.3043
▁concentrat	-12.3045
▁amaze	-12.3045
▁atmospher	-12.3051
cycle	-12.3051
force	-12.3052
quarters	-12.3053
assemble	-12.3054
technology	-12.3055
funded	-12.3056
fifth	-12.3056
lived	-12.3056
▁collide	-12.306
▁proc	-12.3061
▁stole	-12.3063
▁advertise	-12.3063
▁prosper	-12.3063
▁loyal	-12.3064
▁genital	-12.3064
▁intellect	-12.3064
=	-12.3064
lecommunications	-12.3064
▁activism	-12.3064
▁analytical	-12.3064
▁appetite	-12.3064
▁atrazine	-12.3064
▁cassini	-12.3064
▁cumulative	-12.3064
▁deceased	-12.3064
▁deceive	-12.3064
▁destined	-12.3064
▁diffusion	-12.3064
▁disbelief	-12.3064
▁disparate	-12.3064
▁doodling	-12.3064
▁downstairs	-12.3064
▁embryonic	-12.3064
▁excavat	-12.3064
▁facade	-12.3064
▁galileo	-12.3064
▁gyrus	-12.3064
▁hazard	-12.3064
▁hectare	-12.3064
▁memorable	-12.3064
▁mismatch	-12.3064
▁modular	-12.3064
▁oblivio	-12.3064
▁overweight	-12.3064
▁panbanisha	-12.3064
▁populated	-12.3064
▁premature	-12.3064
▁prompt	-12.3064
▁quantify	-12.3064
▁savage	-12.3064
▁serotonin	-12.3064
▁stunning	-12.3064
▁superconductor	-12.3064
▁synesthesia	-12.3064
▁tehran	-12.3064
▁translating	-12.3064
▁tribute	-12.3064
▁unfamiliar	-12.3064
▁unfinished	-12.3064
▁vague	-12.3064
▁vibrant	-12.3064
▁wrinkle	-12.3064
▁contributor	-12.3064
▁crochet	-12.3064
▁exoplanet	-12.3064
▁fungus	-12.3064
▁latitude	-12.3064
▁nursing	-12.3064
▁precipitat	-12.3064
▁ribbon	-12.3064
▁vegetarian	-12.3064
▁wilderness	-12.3064
▁worn	-12.3064
▁hebrew	-12.3064
▁inhabitants	-12.3064
▁senator	-12.3064
▁twentie	-12.3064
▁rachel	-12.3064
▁gordon	-12.3064
▁movember	-12.3064
▁starving	-12.3064
▁1,100	-12.3065
▁rosling	-12.3065
ão	-12.3065
▁blunt	-12.3065
▁ivory	-12.3065
▁intentional	-12.3065
fifteen	-12.3065
▁casualties	-12.3065
▁continuum	-12.3065
▁cynic	-12.3065
▁boreal	-12.3065
▁residential	-12.3065
▁anchor	-12.3065
▁continuity	-12.3065
▁tiniest	-12.3065
▁unimaginable	-12.3065
▁suitcase	-12.3065
▁isaac	-12.3065
▁biomaterial	-12.3065
▁marble	-12.3065
▁knight	-12.3065
▁mahat	-12.3065
▁underlie	-12.3065
▁gaza	-12.3065
▁radioactive	-12.3065
▁mantis	-12.3065
▁stink	-12.3065
▁nonverbal	-12.3065
▁corps	-12.3065
▁patron	-12.3065
▁surge	-12.3065
▁duke	-12.3065
▁flipped	-12.3065
▁summon	-12.3065
▁foam	-12.3066
▁barefoot	-12.3066
▁excessive	-12.3066
▁measurable	-12.3066
▁shoreline	-12.3066
▁vow	-12.3066
▁drank	-12.3066
▁composite	-12.3066
▁determination	-12.3066
▁wastewater	-12.3066
▁stripped	-12.3066
▁93	-12.3066
▁cosmology	-12.3066
▁cobra	-12.3067
▁electora	-12.3067
▁romo	-12.3067
▁groom	-12.3067
▁plotted	-12.3067
▁vase	-12.3068
▁instinctively	-12.3068
▁flatten	-12.3068
▁volcanoes	-12.3068
▁exploitation	-12.3068
▁thoroughly	-12.3069
▁artery	-12.3069
▁subsequently	-12.3069
▁dislike	-12.307
▁expressive	-12.307
▁sars	-12.3071
▁sunny	-12.3071
▁cuban	-12.3071
▁traumatic	-12.3071
▁standardized	-12.3072
▁suitable	-12.3072
▁partially	-12.3073
▁visionary	-12.3073
▁barry	-12.3073
▁handsome	-12.3075
▁princess	-12.3075
▁joel	-12.3076
▁substantially	-12.3076
▁192	-12.3077
▁mantra	-12.3079
▁mentality	-12.3079
▁bern	-12.3081
▁sweeping	-12.3085
▁arranged	-12.3085
▁animated	-12.3085
▁derived	-12.3086
▁homeland	-12.3087
▁hull	-12.3087
▁beans	-12.3087
▁eradicated	-12.3088
▁drifted	-12.3089
▁perpetual	-12.309
▁chin	-12.3094
▁commissioned	-12.3097
peer	-12.3097
▁crown	-12.3103
▁jr	-12.3105
▁ideally	-12.3109
▁surfing	-12.3114
▁rg	-12.3116
▁stretched	-12.3117
▁universally	-12.3118
▁alarming	-12.312
▁differential	-12.3121
▁conducting	-12.3121
▁downside	-12.3124
▁packaged	-12.3128
awa	-12.3132
▁watches	-12.3138
▁murderer	-12.3139
▁dressing	-12.3143
▁hid	-12.3148
▁weep	-12.3148
▁pol	-12.3151
▁evaluat	-12.3152
▁fro	-12.3158
▁khan	-12.3159
▁colonize	-12.3175
▁declined	-12.3175
will	-12.3185
▁restrictions	-12.3186
▁snapp	-12.3189
▁pul	-12.3195
▁vc	-12.3196
▁contacted	-12.3198
▁clam	-12.3198
▁wetlands	-12.321
▁awaken	-12.3226
▁leverag	-12.3228
mother	-12.3232
governmental	-12.3233
▁indicators	-12.3233
robot	-12.324
ancy	-12.3243
▁nutritional	-12.3247
▁thesis	-12.326
▁donate	-12.3266
▁offend	-12.3267
▁increment	-12.3269
▁lone	-12.329
▁headaches	-12.3304
▁photographing	-12.3304
▁ruled	-12.3322
▁miner	-12.3329
▁neanderthal	-12.3333
▁circumstance	-12.3335
▁clark	-12.3349
▁mites	-12.335
▁turtles	-12.3351
▁traded	-12.3354
▁performer	-12.336
▁mali	-12.3366
▁makeup	-12.3367
▁ranger	-12.3369
▁strapp	-12.3375
close	-12.3392
solving	-12.3392
▁thoughtful	-12.3404
▁resulted	-12.3417
ggle	-12.3426
▁learners	-12.3427
ben	-12.3427
▁rabbit	-12.3433
▁enthusiastic	-12.3442
uk	-12.3442
ggy	-12.3456
▁shove	-12.348
▁nun	-12.3481
▁cab	-12.3494
▁diplomatic	-12.3509
dale	-12.3515
ppe	-12.3517
▁39	-12.3521
nor	-12.3528
break	-12.3531
liber	-12.3536
▁sweep	-12.3543
party	-12.3544
ground	-12.3544
▁conceive	-12.3545
▁digitize	-12.3545
▁devote	-12.3545
▁clone	-12.3547
▁neglect	-12.355
atomic	-12.3555
giving	-12.3555
confidence	-12.3556
blood	-12.3556
driving	-12.3556
group	-12.3556
—	-12.3556
animate	-12.3556
track	-12.3557
week	-12.3557
▁victor	-12.3558
▁scor	-12.3559
girl	-12.3559
▁greed	-12.356
pick	-12.356
▁admitted	-12.356
plus	-12.3563
▁immortal	-12.3563
á	-12.3564
▁sequester	-12.3564
▁spoil	-12.3564
”	-12.3564
▁$4	-12.3564
▁achilles	-12.3564
▁advancing	-12.3564
▁analyst	-12.3564
▁anthropology	-12.3564
▁arguably	-12.3564
▁asylum	-12.3564
▁biblical	-12.3564
▁brute	-12.3564
▁captcha	-12.3564
▁chariot	-12.3564
▁cheetah	-12.3564
▁compatible	-12.3564
▁credible	-12.3564
▁deprive	-12.3564
▁discomfort	-12.3564
▁doctrine	-12.3564
▁durable	-12.3564
▁elastic	-12.3564
▁elusive	-12.3564
▁enceladus	-12.3564
▁eyebrow	-12.3564
▁fibonacci	-12.3564
▁gamble	-12.3564
▁glenn	-12.3564
▁hurry	-12.3564
▁imitation	-12.3564
▁inferior	-12.3564
▁judaism	-12.3564
▁lesterland	-12.3564
▁lyric	-12.3564
▁maldives	-12.3564
▁modification	-12.3564
▁pantheon	-12.3564
▁participatory	-12.3564
▁photosynthesis	-12.3564
▁plummet	-12.3564
▁primordial	-12.3564
▁reception	-12.3564
▁russell	-12.3564
▁semester	-12.3564
▁subsidies	-12.3564
▁supplier	-12.3564
▁taxpayer	-12.3564
▁terrestrial	-12.3564
▁therapeutic	-12.3564
▁titus	-12.3564
▁unhealthy	-12.3564
▁urgency	-12.3564
▁utilize	-12.3564
▁wizard	-12.3564
▁amplify	-12.3564
▁arteries	-12.3564
▁dairy	-12.3564
▁discrete	-12.3564
▁nathan	-12.3564
▁plume	-12.3564
▁teapot	-12.3564
▁crises	-12.3564
▁forensic	-12.3564
▁trawl	-12.3564
▁pollinate	-12.3565
paid	-12.3565
▁motto	-12.3565
▁convergence	-12.3565
▁pornography	-12.3565
▁glance	-12.3565
▁lanka	-12.3565
▁gently	-12.3565
▁oscar	-12.3565
▁1,200	-12.3565
▁aviation	-12.3565
▁hijack	-12.3565
▁imbalance	-12.3565
▁prostitution	-12.3565
▁armstrong	-12.3565
▁“	-12.3565
▁condense	-12.3565
▁scarcity	-12.3565
▁discourse	-12.3565
▁craving	-12.3565
▁disclose	-12.3565
▁mainframe	-12.3565
▁exposing	-12.3565
▁turkish	-12.3565
▁android	-12.3565
▁oftentimes	-12.3565
▁irish	-12.3565
▁fond	-12.3565
▁saddle	-12.3565
sanitary	-12.3565
▁aspire	-12.3565
▁adulthood	-12.3565
▁2,500	-12.3565
▁rainwater	-12.3565
▁converse	-12.3565
▁aaron	-12.3565
▁flare	-12.3566
▁europa	-12.3566
▁friedman	-12.3566
▁edible	-12.3566
▁jackson	-12.3566
▁confession	-12.3566
▁subset	-12.3566
▁clarify	-12.3566
▁referring	-12.3566
▁expo	-12.3566
▁heartbreak	-12.3566
▁commentary	-12.3566
▁serial	-12.3566
▁allocate	-12.3567
▁liking	-12.3567
▁latter	-12.3567
▁aisle	-12.3567
▁68	-12.3567
▁devastated	-12.3567
▁rebound	-12.3567
▁reconstruction	-12.3567
▁shaman	-12.3567
▁circuitry	-12.3568
▁viewpoint	-12.3568
▁yves	-12.3569
▁embed	-12.3569
▁rica	-12.3569
▁roar	-12.357
16	-12.357
▁gland	-12.357
▁creepy	-12.357
▁ambien	-12.357
▁weakness	-12.3571
▁assert	-12.3571
▁vendor	-12.3571
▁guru	-12.3572
▁voyager	-12.3573
▁eden	-12.3574
▁torn	-12.3574
▁canoe	-12.3575
▁madness	-12.3575
▁propeller	-12.3576
ware	-12.3577
▁accidentally	-12.3577
▁fragmented	-12.3577
▁endlessly	-12.3579
▁fundamentalism	-12.3579
▁atlas	-12.3579
▁bait	-12.3579
▁shattered	-12.358
▁contaminated	-12.3581
▁dysfunctional	-12.3583
bank	-12.3584
▁effectiveness	-12.3584
▁mao	-12.3584
▁mario	-12.3587
▁tailor	-12.3589
▁enduring	-12.3591
▁westerners	-12.3592
▁chewing	-12.3592
▁weaker	-12.3592
▁vertically	-12.3594
▁defeated	-12.3594
▁lining	-12.3595
▁sim	-12.3596
▁nitr	-12.3596
▁xl	-12.3598
▁plank	-12.3599
▁tougher	-12.3603
▁rented	-12.3603
▁mechanically	-12.3604
▁stimulated	-12.3605
▁mania	-12.3623
▁shave	-12.3624
▁rebuilding	-12.3638
▁manipulated	-12.3638
▁monitored	-12.3639
▁antidepressants	-12.3644
▁ger	-12.3655
▁rewarded	-12.3663
▁extending	-12.3665
▁cling	-12.3671
▁wit	-12.3676
▁directed	-12.3678
▁alley	-12.3678
▁adore	-12.3682
▁packing	-12.3684
▁starch	-12.3692
▁extr	-12.3694
▁understandable	-12.37
▁shredde	-12.3706
▁merc	-12.3712
▁41	-12.3721
▁bathe	-12.3741
▁gloves	-12.3742
▁bearing	-12.3749
▁pixels	-12.3754
▁inhale	-12.3754
▁astronauts	-12.3767
▁guerrillas	-12.3767
▁projector	-12.3772
▁quoted	-12.3779
designed	-12.3799
▁suite	-12.384
▁bonobo	-12.3858
▁antibiotic	-12.3862
▁remov	-12.3863
▁emission	-12.3863
▁185	-12.3891
▁exo	-12.3892
92	-12.3907
dependent	-12.3937
▁provider	-12.394
▁guid	-12.3943
▁optimist	-12.3952
▁stor	-12.3974
▁slam	-12.3989
▁bam	-12.3994
▁tease	-12.3999
▁penn	-12.4018
haired	-12.4047
▁tempt	-12.4068
▁accord	-12.407
▁memorize	-12.4071
▁derive	-12.4073
▁criticize	-12.4073
▁distort	-12.4075
▁unleash	-12.4076
▁diminish	-12.4076
▁piss	-12.4077
high	-12.4082
carbon	-12.4082
educated	-12.4082
grain	-12.4082
function	-12.4082
nothing	-12.4082
▁midwest	-12.4084
▁fierce	-12.4084
▁casual	-12.4084
heard	-12.4084
range	-12.4085
square	-12.4085
parent	-12.4086
▁whil	-12.4087
▁erupt	-12.4089
▁confess	-12.4089
▁1957	-12.4091
▁1974	-12.4091
▁1982	-12.4091
▁accumulation	-12.4091
▁adversity	-12.4091
▁alabama	-12.4091
▁announcing	-12.4091
▁apparatus	-12.4091
▁aquaculture	-12.4091
▁arriving	-12.4091
▁baltimore	-12.4091
▁bargain	-12.4091
▁buffalo	-12.4091
▁centigrade	-12.4091
▁cliche	-12.4091
▁coconut	-12.4091
▁communism	-12.4091
▁contemplate	-12.4091
▁cyclist	-12.4091
▁cymatic	-12.4091
▁daunting	-12.4091
▁defecat	-12.4091
▁derivative	-12.4091
▁desirable	-12.4091
▁desperation	-12.4091
▁dividing	-12.4091
▁dubai	-12.4091
▁efficacy	-12.4091
▁exaggerate	-12.4091
▁exhilarating	-12.4091
▁fascination	-12.4091
▁framing	-12.4091
▁fridge	-12.4091
▁graham	-12.4091
▁hygiene	-12.4091
▁ignite	-12.4091
▁imperial	-12.4091
▁irregular	-12.4091
▁lymph	-12.4091
▁matthew	-12.4091
▁miami	-12.4091
▁microrna	-12.4091
▁misconception	-12.4091
▁philippines	-12.4091
▁plaster	-12.4091
▁pollination	-12.4091
▁proliferation	-12.4091
▁proposing	-12.4091
▁puppy	-12.4091
▁puzzling	-12.4091
▁reconciliation	-12.4091
▁reservoir	-12.4091
▁roosevelt	-12.4091
▁seatbelt	-12.4091
▁sergio	-12.4091
▁slick	-12.4091
▁squirrel	-12.4091
▁susceptible	-12.4091
▁tahrir	-12.4091
▁toothbrush	-12.4091
▁treadmill	-12.4091
▁troubling	-12.4091
▁tweak	-12.4091
▁unravel	-12.4091
▁unthinkable	-12.4091
▁vancouver	-12.4091
▁virtuous	-12.4091
▁bruise	-12.4091
▁cohen	-12.4091
▁dialect	-12.4091
▁doodle	-12.4091
▁fiddle	-12.4091
▁harlem	-12.4091
▁hippie	-12.4091
▁hummingbird	-12.4091
▁immoral	-12.4091
▁intestine	-12.4091
▁jamaica	-12.4091
▁qualify	-12.4091
▁solitary	-12.4091
▁stockpile	-12.4091
▁toddler	-12.4091
▁undercover	-12.4091
▁ingenious	-12.4091
▁tornado	-12.4091
▁uprising	-12.4091
▁windmill	-12.4091
▁bbc	-12.4091
▁foremost	-12.4091
▁jesse	-12.4091
▁fringe	-12.4091
▁socioeconomic	-12.4091
▁ripple	-12.4091
▁biomimicry	-12.4091
▁denounce	-12.4091
▁proxy	-12.4091
▁rumor	-12.4091
▁damaging	-12.4091
▁costume	-12.4091
▁hungarian	-12.4091
▁benchmark	-12.4091
▁skirt	-12.4091
▁crease	-12.4091
▁bleach	-12.4091
▁admin	-12.4091
▁broadband	-12.4091
▁oakland	-12.4091
▁rotten	-12.4091
▁hostility	-12.4091
▁pluck	-12.4091
▁courtyard	-12.4091
▁sideways	-12.4091
▁burger	-12.4091
▁brink	-12.4091
▁enlist	-12.4091
▁comparative	-12.4091
▁subconscious	-12.4091
▁avian	-12.4091
▁attendance	-12.4091
▁revolt	-12.4092
▁kitten	-12.4092
▁enroll	-12.4092
▁stiff	-12.4092
▁stirling	-12.4092
▁attain	-12.4092
▁categorize	-12.4092
▁foragers	-12.4092
▁testimony	-12.4092
▁niche	-12.4092
▁strive	-12.4092
▁webcam	-12.4092
▁chapel	-12.4092
▁babylon	-12.4092
▁rodent	-12.4092
▁dried	-12.4093
▁josh	-12.4093
▁typeface	-12.4093
▁slash	-12.4093
▁shack	-12.4093
▁exile	-12.4093
▁heartbeat	-12.4093
▁refresh	-12.4093
▁84	-12.4094
▁cabin	-12.4094
▁chu	-12.4094
▁confrontation	-12.4094
▁ballot	-12.4094
▁dissect	-12.4095
▁accountant	-12.4095
▁readily	-12.4095
▁bride	-12.4096
▁astro	-12.4097
▁toughest	-12.4097
▁encrypted	-12.4097
▁antennae	-12.4099
▁pledge	-12.4099
▁bali	-12.41
▁coaches	-12.4101
▁bakery	-12.4101
front	-12.4101
▁exclusively	-12.4102
ffer	-12.4102
▁butcher	-12.4102
zen	-12.4103
▁pissed	-12.4105
▁villagers	-12.4107
▁fulfilled	-12.4108
▁affection	-12.4109
▁correlated	-12.4109
▁charming	-12.4109
▁fitting	-12.4109
▁fitness	-12.411
▁cloned	-12.4112
▁shortest	-12.4112
nature	-12.4112
▁instrumental	-12.4113
▁finest	-12.4114
▁rug	-12.4115
▁coil	-12.4117
▁interrupted	-12.4118
each	-12.4118
▁attended	-12.4122
▁speeches	-12.4125
▁divorced	-12.4129
▁flourishing	-12.4129
▁assured	-12.4129
▁peril	-12.4129
▁passionately	-12.4129
▁handling	-12.413
▁coordinated	-12.4134
▁enhanced	-12.4137
▁melted	-12.4141
▁cognitively	-12.4147
▁withdraw	-12.4148
▁clinically	-12.4149
▁dumping	-12.4149
▁tearing	-12.4152
▁downloaded	-12.4152
▁leaning	-12.4153
▁suspected	-12.4156
▁replicated	-12.4161
▁reviewed	-12.4173
ime	-12.4174
▁nothingness	-12.4174
▁ramp	-12.4175
▁democrat	-12.4177
▁displayed	-12.418
▁bending	-12.4181
▁milliseconds	-12.4187
▁messed	-12.4192
▁lest	-12.4195
▁bombed	-12.4197
▁filed	-12.4201
iva	-12.4202
▁sac	-12.4209
▁perpetrators	-12.4213
▁attempting	-12.4213
▁onset	-12.4214
▁creatively	-12.4223
▁algorithmic	-12.423
▁digitally	-12.4233
▁margin	-12.4239
▁ineffective	-12.4259
doc	-12.4264
racy	-12.4267
pending	-12.4279
▁diy	-12.4281
▁cured	-12.4297
▁conve	-12.4316
dragging	-12.4317
▁powerfully	-12.4322
▁lacking	-12.4323
▁vene	-12.4323
▁tickle	-12.4325
graders	-12.433
▁focuse	-12.4333
▁robbe	-12.4342
▁circulat	-12.4352
▁correction	-12.4353
▁pic	-12.4358
▁tel	-12.4365
▁crow	-12.4366
tec	-12.4374
▁slid	-12.4397
▁fragment	-12.4399
▁roller	-12.4401
erous	-12.4407
▁adolescent	-12.4413
▁kilogram	-12.4414
▁veteran	-12.4414
▁participant	-12.4417
▁dual	-12.4425
rsw	-12.4434
aging	-12.4451
▁mop	-12.446
▁swat	-12.4461
▁pitt	-12.4464
pur	-12.4491
▁186	-12.4529
▁conserve	-12.4532
▁kir	-12.4539
raw	-12.4553
▁seller	-12.4553
▁scot	-12.4563
connected	-12.4578
▁lag	-12.4585
▁proportional	-12.4589
▁carcinogen	-12.4592
aye	-12.4609
▁compose	-12.4612
▁61	-12.462
▁dread	-12.4623
▁inspect	-12.4624
▁violate	-12.4627
▁liberate	-12.4627
▁dedicate	-12.4627
▁confine	-12.4627
▁arrange	-12.463
▁possess	-12.463
▁restrict	-12.4631
conscious	-12.4635
lord	-12.4636
patient	-12.4637
author	-12.4638
scientific	-12.4638
species	-12.4638
focus	-12.4638
virus	-12.4639
▁tack	-12.4639
▁summe	-12.4639
performance	-12.464
▁rive	-12.4641
▁crisp	-12.4642
rub	-12.4645
▁resurrect	-12.4645
▁replica	-12.4646
▁harass	-12.4646
▁steward	-12.4646
▁1983	-12.4646
▁academia	-12.4646
▁albeit	-12.4646
▁alfred	-12.4646
▁ambiguous	-12.4646
▁amphibi	-12.4646
▁antidote	-12.4646
▁appointment	-12.4646
▁astonished	-12.4646
▁astrolabe	-12.4646
▁attorney	-12.4646
▁aurora	-12.4646
▁bahamas	-12.4646
▁brilliance	-12.4646
▁bureau	-12.4646
▁bureaucracy	-12.4646
▁champagne	-12.4646
▁comprised	-12.4646
▁constellation	-12.4646
▁discount	-12.4646
▁dwarf	-12.4646
▁ecologist	-12.4646
▁elevation	-12.4646
▁epilepsy	-12.4646
▁galois	-12.4646
▁granny	-12.4646
▁illumination	-12.4646
▁integral	-12.4646
▁jazeera	-12.4646
▁jennifer	-12.4646
▁legitimacy	-12.4646
▁leisure	-12.4646
▁liberating	-12.4646
▁litigation	-12.4646
▁madagascar	-12.4646
▁mahmoud	-12.4646
▁messenger	-12.4646
▁mississippi	-12.4646
▁missouri	-12.4646
▁moisture	-12.4646
▁phthalates	-12.4646
▁picasso	-12.4646
▁pinnacle	-12.4646
▁plaza	-12.4646
▁plywood	-12.4646
▁prostitute	-12.4646
▁psychiatry	-12.4646
▁qualitative	-12.4646
▁radiologist	-12.4646
▁repetitive	-12.4646
▁revenge	-12.4646
▁sanctuary	-12.4646
▁scissors	-12.4646
▁separating	-12.4646
▁sequel	-12.4646
▁simplified	-12.4646
▁stockholm	-12.4646
▁stratosphere	-12.4646
▁taylor	-12.4646
▁thursday	-12.4646
▁transgender	-12.4646
▁unlimited	-12.4646
▁wondrous	-12.4646
▁applaud	-12.4646
▁automation	-12.4646
▁barbie	-12.4646
▁hopkins	-12.4646
▁orthodox	-12.4646
▁pianist	-12.4646
▁sniff	-12.4646
▁venom	-12.4646
▁zambia	-12.4646
▁abalone	-12.4646
▁sleeve	-12.4646
▁zoning	-12.4646
▁swirl	-12.4646
▁massacre	-12.4646
▁motive	-12.4646
▁inquiry	-12.4646
▁wolf	-12.4646
▁offense	-12.4646
▁enact	-12.4646
▁lousy	-12.4646
▁christophe	-12.4646
▁sorrow	-12.4646
▁knob	-12.4646
▁staple	-12.4646
▁morgan	-12.4646
ligible	-12.4646
▁dashboard	-12.4646
▁acronym	-12.4647
▁grappl	-12.4647
▁inference	-12.4647
▁walmart	-12.4647
▁charging	-12.4647
▁supermassive	-12.4647
▁impatient	-12.4647
▁discriminate	-12.4647
▁bassem	-12.4647
▁biography	-12.4647
▁loyalty	-12.4647
▁bertie	-12.4647
▁pessimistic	-12.4647
▁burial	-12.4647
▁thanksgiving	-12.4647
▁gateway	-12.4647
▁jonas	-12.4647
▁1918	-12.4647
▁joking	-12.4647
▁waving	-12.4647
▁inuit	-12.4647
▁congratulations	-12.4648
▁regenerative	-12.4648
▁diana	-12.4648
▁crane	-12.4648
▁tofu	-12.4648
▁persistence	-12.4648
▁jason	-12.4648
▁blackberry	-12.4648
▁tragically	-12.4648
▁purse	-12.4649
▁scrub	-12.4649
▁hiring	-12.4649
▁disagreement	-12.4649
▁1920	-12.4649
▁forgiveness	-12.4649
▁hostage	-12.4649
▁resin	-12.465
▁neil	-12.465
▁sunset	-12.465
▁pisa	-12.465
▁stance	-12.465
▁cubicle	-12.465
▁indirectly	-12.4651
sook	-12.4651
▁lip	-12.4651
▁barber	-12.4651
▁reset	-12.4651
▁downstream	-12.4652
▁coward	-12.4652
▁riverside	-12.4652
▁foxo	-12.4652
▁karl	-12.4652
▁robin	-12.4652
▁annoyed	-12.4653
▁1.4	-12.4653
▁penny	-12.4654
▁imam	-12.4655
▁progressively	-12.4655
▁relational	-12.4656
▁navigation	-12.4656
▁selectively	-12.4657
▁dataset	-12.4657
▁sandwiches	-12.4658
▁teddy	-12.4658
▁deem	-12.4658
help	-12.4659
▁dice	-12.466
▁waist	-12.466
▁jose	-12.4661
▁miller	-12.4661
▁funders	-12.4661
▁forgetting	-12.4662
went	-12.4662
▁marrie	-12.4662
▁venter	-12.4663
▁treaties	-12.4664
▁seventy	-12.4664
▁reside	-12.4665
▁hp	-12.4665
▁satan	-12.4666
▁shiny	-12.4666
▁muti	-12.4666
▁fearless	-12.4669
▁denser	-12.4669
▁intuitively	-12.467
▁similarity	-12.4671
▁seriousness	-12.4672
▁roy	-12.4677
▁patrol	-12.4679
▁sponsored	-12.468
▁intensely	-12.4682
▁borrowed	-12.4683
▁inappropriate	-12.4685
▁tutoring	-12.4687
▁bash	-12.4689
▁governed	-12.469
▁cheated	-12.469
▁aimed	-12.4693
▁twisted	-12.4695
▁glowing	-12.4695
▁leo	-12.4696
induced	-12.4701
▁regarded	-12.4702
▁artificially	-12.4705
▁reptiles	-12.4708
lder	-12.471
▁quicker	-12.471
▁spy	-12.4713
▁reacted	-12.4716
▁chad	-12.472
▁startling	-12.4721
▁tunneling	-12.4723
▁sweating	-12.4725
▁locking	-12.4738
▁skim	-12.4744
▁fishes	-12.475
▁husk	-12.475
▁welcomed	-12.4751
▁titled	-12.4753
▁adapting	-12.4757
▁lifting	-12.4766
▁cp	-12.4767
thon	-12.4772
▁darker	-12.4772
▁padd	-12.4779
▁demanded	-12.4781
▁heap	-12.4786
▁massage	-12.4803
settling	-12.4807
trained	-12.4808
▁rewarding	-12.4811
▁democratize	-12.4813
▁fad	-12.4819
▁noah	-12.4822
▁mah	-12.4838
▁dated	-12.4842
▁sued	-12.4844
▁tra	-12.486
▁bon	-12.4891
▁revers	-12.49
earth	-12.4946
▁curate	-12.495
other	-12.4952
▁grove	-12.4974
building	-12.4975
▁addict	-12.4986
▁enslave	-12.4991
▁77	-12.4993
▁astronaut	-12.5001
▁guerrilla	-12.5001
▁degrade	-12.5003
▁electrode	-12.5006
▁photoshop	-12.5024
mara	-12.5032
iger	-12.5052
▁shadi	-12.5099
▁semina	-12.5117
ager	-12.5121
▁66	-12.5132
▁franc	-12.5152
▁tab	-12.5158
wheel	-12.5192
place	-12.5195
▁writ	-12.52
▁echoe	-12.5202
▁pub	-12.5204
▁appreciat	-12.5212
▁correlate	-12.5215
▁locate	-12.5215
▁execute	-12.5216
named	-12.5217
evolution	-12.5225
computer	-12.5225
course	-12.5226
culture	-12.5226
blowing	-12.5226
shelf	-12.5226
click	-12.5226
definition	-12.5226
organization	-12.5226
death	-12.5226
teacher	-12.5226
woman	-12.5227
billion	-12.5227
sense	-12.5228
vision	-12.5229
▁slim	-12.5231
boat	-12.5231
▁villa	-12.5232
▁imperfect	-12.5233
▁prohibit	-12.5233
▁jelly	-12.5234
communica	-12.5235
extraterrestrial	-12.5235
▁advocacy	-12.5235
▁amygdala	-12.5235
▁anticipation	-12.5235
▁archimedes	-12.5235
▁arrival	-12.5235
▁asphalt	-12.5235
▁barbara	-12.5235
▁brook	-12.5235
▁cockpit	-12.5235
▁collapsing	-12.5235
▁congolese	-12.5235
▁crunch	-12.5235
▁cycling	-12.5235
▁dementia	-12.5235
▁discharge	-12.5235
▁energies	-12.5235
▁evolutionarily	-12.5235
▁extremism	-12.5235
▁feminine	-12.5235
▁gratification	-12.5235
▁heterosexual	-12.5235
▁hyperbolic	-12.5235
▁hypertension	-12.5235
▁illuminate	-12.5235
▁immunity	-12.5235
▁infamous	-12.5235
▁influential	-12.5235
▁investigative	-12.5235
▁jurisdiction	-12.5235
▁knives	-12.5235
▁lexicon	-12.5235
▁monetary	-12.5235
▁mongolia	-12.5235
▁mubarak	-12.5235
▁niece	-12.5235
▁occurrence	-12.5235
▁ominous	-12.5235
▁oprah	-12.5235
▁paintbrush	-12.5235
▁petroleum	-12.5235
▁postcards	-12.5235
▁prominent	-12.5235
▁questionnaire	-12.5235
▁rehearsal	-12.5235
▁rhyme	-12.5235
▁rouge	-12.5235
▁sampling	-12.5235
▁schizophrenic	-12.5235
▁secrecy	-12.5235
▁sioux	-12.5235
▁spores	-12.5235
▁stanley	-12.5235
▁stunned	-12.5235
▁tempest	-12.5235
▁thriving	-12.5235
▁tobacco	-12.5235
▁unnecessary	-12.5235
▁vocation	-12.5235
▁advisor	-12.5235
▁arthriti	-12.5235
▁blaming	-12.5235
▁diabetic	-12.5235
▁examining	-12.5235
▁impairment	-12.5235
▁incision	-12.5235
▁indefinite	-12.5235
▁jeep	-12.5235
▁maslow	-12.5235
▁motivator	-12.5235
▁nephew	-12.5235
▁sentient	-12.5235
▁squatter	-12.5235
▁transcript	-12.5235
destruct	-12.5235
▁bundle	-12.5235
▁logistics	-12.5235
▁multimedia	-12.5235
▁nominate	-12.5235
▁tidy	-12.5235
▁intractable	-12.5235
▁parrot	-12.5235
▁stitch	-12.5235
▁tactics	-12.5235
▁width	-12.5235
▁classmates	-12.5235
▁invoke	-12.5235
,300	-12.5235
▁absent	-12.5235
▁seaweed	-12.5235
▁antiangiogenic	-12.5235
▁neurobiolog	-12.5235
▁sobule	-12.5235
▁doomed	-12.5235
▁kidnapped	-12.5235
▁creek	-12.5235
▁antiretroviral	-12.5235
▁speculation	-12.5235
▁intermediate	-12.5235
▁orchid	-12.5235
▁purchasing	-12.5235
▁multicultural	-12.5235
▁humpback	-12.5235
▁gaming	-12.5235
▁decay	-12.5235
▁buddy	-12.5235
▁flour	-12.5235
▁pillow	-12.5235
▁trance	-12.5235
▁manure	-12.5235
▁mellon	-12.5235
▁audition	-12.5236
▁archie	-12.5236
▁policymakers	-12.5236
▁benki	-12.5236
▁dividend	-12.5236
▁emitted	-12.5236
▁customization	-12.5236
▁plow	-12.5236
▁polarization	-12.5236
▁nanoscale	-12.5236
▁blindfold	-12.5237
▁tolerant	-12.5237
▁83	-12.5237
▁pathology	-12.5237
▁mystical	-12.5237
▁transmitter	-12.5238
▁sufi	-12.5238
letter	-12.5238
▁classified	-12.5239
▁edition	-12.5239
▁occasional	-12.5239
▁diary	-12.5239
▁cockroaches	-12.5239
▁fluent	-12.5239
▁cough	-12.524
osphere	-12.524
▁traumatiz	-12.5241
▁sculptor	-12.5241
▁spirituality	-12.5241
▁dropout	-12.5241
▁forged	-12.5242
▁adaptable	-12.5243
tuned	-12.5243
▁dispersed	-12.5244
▁600,000	-12.5244
▁101	-12.5244
▁suey	-12.5244
▁disturbed	-12.5244
▁personalization	-12.5244
▁deadline	-12.5245
▁undertake	-12.5248
▁verify	-12.5249
▁vascular	-12.525
▁rally	-12.525
▁superman	-12.525
▁pitches	-12.5251
▁grasses	-12.5251
▁overwhelmingly	-12.5253
▁theoretically	-12.5253
▁plantation	-12.5254
▁liberated	-12.5256
▁halve	-12.5258
▁warmth	-12.5259
▁lineage	-12.526
▁synthesizer	-12.5262
▁sixty	-12.5262
actic	-12.5264
▁flooded	-12.5264
▁99.9	-12.5267
▁reconstructed	-12.5268
▁objection	-12.5268
▁juan	-12.5269
▁catches	-12.527
▁fooled	-12.5274
▁momentous	-12.5276
▁cb	-12.5279
▁addresses	-12.528
▁drifting	-12.5281
▁fran	-12.5285
▁sparked	-12.5286
▁unfolding	-12.5288
▁attending	-12.5288
▁altruistic	-12.5289
▁ticking	-12.5292
▁walkable	-12.5294
▁borrowing	-12.5294
▁rainy	-12.5296
▁volunteered	-12.53
▁proudly	-12.5304
▁cheaply	-12.5304
▁broaden	-12.5304
▁sustaining	-12.531
▁billy	-12.5311
▁recovering	-12.5314
▁maintained	-12.532
▁restored	-12.5326
▁flashing	-12.5331
▁skiing	-12.5332
▁nih	-12.5336
ike	-12.5346
ssembling	-12.5346
▁folder	-12.5348
▁cascade	-12.5353
▁kilo	-12.5361
▁robe	-12.5361
▁succeeding	-12.5375
▁wil	-12.5377
▁usda	-12.5379
▁participated	-12.5381
▁systemic	-12.5382
▁locker	-12.5385
▁rude	-12.5388
riel	-12.5389
▁sampled	-12.5392
achi	-12.5398
chen	-12.5406
▁sane	-12.5408
▁endure	-12.5424
▁migrat	-12.5427
▁170	-12.5461
flat	-12.5468
▁flop	-12.5472
▁lyn	-12.5495
▁peacebuild	-12.5497
▁flo	-12.5514
▁deepen	-12.5515
▁photographic	-12.553
ellar	-12.5563
▁shah	-12.557
▁scu	-12.559
▁coli	-12.5595
▁divert	-12.56
▁worthless	-12.5604
change	-12.5607
lateral	-12.5618
night	-12.5619
▁pixel	-12.5626
▁genomic	-12.5627
▁preference	-12.5628
▁astronomer	-12.5628
▁resident	-12.563
▁tile	-12.5635
▁74	-12.5654
jected	-12.5658
▁ep	-12.567
bill	-12.5706
focal	-12.573
▁linguist	-12.5735
▁mediate	-12.5746
▁emulate	-12.575
gun	-12.5761
code	-12.5775
lasting	-12.5807
▁oppos	-12.5821
▁advise	-12.5821
▁chatt	-12.5825
una	-12.5829
▁excel	-12.583
design	-12.5835
▁prevail	-12.5838
▁tinker	-12.5838
▁requir	-12.5839
▁relat	-12.584
▁intersect	-12.5843
▁gla	-12.5845
should	-12.5846
train	-12.5849
happy	-12.5849
estial	-12.5851
qaeda	-12.5851
script	-12.5851
which	-12.5851
could	-12.5851
from	-12.5851
father	-12.5851
burn	-12.5851
ocean	-12.5852
leave	-12.5853
articulate	-12.5856
stage	-12.5856
▁pivot	-12.5856
▁insula	-12.5858
anthrop	-12.5859
▁tempo	-12.5859
enhancing	-12.586
▁1965	-12.586
▁1967	-12.586
[...]
