<unk>	0
,	-2.71237
.	-3.0262
▁und	-3.74055
▁die	-3.81375
▁sie	-4.22907
▁das	-4.26394
▁der	-4.27525
▁ich	-4.29413
▁ist	-4.40192
▁wir	-4.4336
▁in	-4.44721
▁es	-4.46057
▁zu	-4.52564
en	-4.62949
s	-4.79118
▁ein	-4.83163
n	-4.91837
e	-4.99741
▁nicht	-5.00087
▁eine	-5.01095
▁von	-5.01666
▁dass	-5.04624
▁den	-5.17247
▁mit	-5.19435
▁auf	-5.24353
▁wie	-5.291
:	-5.41263
-	-5.42055
▁sich	-5.42835
▁sind	-5.46345
▁	-5.47492
▁aber	-5.47634
▁an	-5.47991
▁man	-5.48265
▁für	-5.49241
▁haben	-5.51168
▁wenn	-5.52533
▁so	-5.57787
▁was	-5.58138
▁als	-5.58626
▁diese	-5.64753
▁war	-5.64895
?	-5.65724
▁um	-5.66283
▁er	-5.66429
▁"	-5.69851
▁im	-5.75637
▁dem	-5.84624
▁aus	-5.86573
▁also	-5.92678
er	-5.94323
▁uns	-5.94628
▁oder	-5.97228
▁einen	-5.98629
▁können	-5.98861
▁über	-6.01148
▁werden	-6.02854
▁hier	-6.05054
▁hat	-6.08646
▁des	-6.10022
▁auch	-6.12158
▁einer	-6.16229
▁kann	-6.17577
▁einem	-6.19795
▁nur	-6.20536
▁dann	-6.22362
▁sehr	-6.23304
▁wird	-6.24361
▁menschen	-6.29169
t	-6.30454
▁vor	-6.31473
▁mich	-6.31616
▁--	-6.32178
▁sein	-6.32488
▁gibt	-6.33604
▁ihnen	-6.34326
▁nach	-6.36505
▁–	-6.37102
▁etwas	-6.43804
▁sehen	-6.43873
▁noch	-6.4449
▁dieser	-6.44642
r	-6.47941
▁habe	-6.49795
▁mir	-6.5011
▁bei	-6.51624
▁welt	-6.56573
▁mehr	-6.57939
▁alle	-6.58887
▁ihre	-6.65235
es	-6.65688
▁meine	-6.6637
▁da	-6.67822
▁durch	-6.68222
."	-6.68741
▁zum	-6.69907
▁weil	-6.70577
▁leben	-6.71025
▁wurde	-6.71862
▁machen	-6.77076
▁wirklich	-6.7757
▁dieses	-6.79991
▁am	-6.81196
▁immer	-6.81886
▁unsere	-6.81912
"	-6.83463
▁ihr	-6.8409
▁nun	-6.85583
m	-6.85869
▁tun	-6.87139
▁jetzt	-6.88248
▁viel	-6.89655
▁wissen	-6.90016
▁zeit	-6.90509
▁keine	-6.90708
▁viele	-6.9114
▁hatte	-6.91888
▁zwei	-6.9703
▁du	-6.99029
▁leute	-6.99217
▁dies	-6.99904
▁müssen	-7.01969
▁selbst	-7.02257
▁einfach	-7.02704
▁wo	-7.03337
▁sagen	-7.0375
▁diesem	-7.04092
▁dinge	-7.05294
▁sagte	-7.0544
▁andere	-7.05586
▁♫	-7.06229
▁-	-7.06612
▁denn	-7.06863
▁waren	-7.07586
▁alles	-7.08249
▁bin	-7.08422
▁jahren	-7.08735
▁diesen	-7.09335
▁eines	-7.09876
▁art	-7.11325
▁mein	-7.13327
▁anderen	-7.13464
▁damit	-7.13982
▁würde	-7.1445
▁ab	-7.17527
▁vielleicht	-7.17935
▁bis	-7.19534
▁zur	-7.20101
d	-7.22078
▁gut	-7.22318
▁mal	-7.23
▁geht	-7.2532
▁jahre	-7.27009
▁wieder	-7.27305
▁muss	-7.30891
▁heute	-7.32317
▁schon	-7.33802
▁all	-7.35998
▁einige	-7.38231
▁möchte	-7.39946
▁tatsächlich	-7.41299
▁ganz	-7.41492
▁macht	-7.41651
▁kinder	-7.4242
▁unter	-7.42562
st	-7.42682
▁ja	-7.43459
▁ob	-7.43739
▁genau	-7.44215
▁warum	-7.44427
▁davon	-7.44768
▁ver	-7.45248
▁drei	-7.45633
▁zurück	-7.47247
▁dort	-7.47437
▁seine	-7.48509
▁geschichte	-7.49303
▁denken	-7.50283
;	-7.51211
▁paar	-7.51762
▁hatten	-7.51886
▁könnte	-7.5294
▁ihn	-7.53298
▁weg	-7.53413
te	-7.54814
▁gehen	-7.55314
▁jahr	-7.5532
▁wollen	-7.5533
k	-7.55984
ung	-7.5633
▁darüber	-7.56518
▁be	-7.5686
▁weiter	-7.57633
▁meiner	-7.581
in	-7.5814
▁werde	-7.60347
▁teil	-7.61255
▁wurden	-7.61801
▁sondern	-7.62094
▁beispiel	-7.63729
▁gab	-7.641
▁ihren	-7.64247
▁lassen	-7.64811
?"	-7.64888
▁vielen	-7.65243
▁jeder	-7.65439
▁wäre	-7.65539
▁problem	-7.66448
▁dazu	-7.67008
▁kein	-7.67015
▁doch	-7.67233
▁unserer	-7.68293
▁neue	-7.68358
g	-7.68881
▁zusammen	-7.69296
▁sogar	-7.69403
▁während	-7.69738
▁frage	-7.69851
▁kommen	-7.70903
▁natürlich	-7.71685
vom	-7.71743
▁unser	-7.72251
▁weiß	-7.72378
▁denke	-7.72463
▁zwischen	-7.72759
▁finden	-7.73072
▁einmal	-7.7398
▁gerade	-7.75034
▁wasser	-7.75834
▁tag	-7.75973
▁glaube	-7.7641
▁ohne	-7.77072
▁ihrer	-7.77676
b	-7.77956
▁gemacht	-7.78227
▁geben	-7.78256
▁will	-7.79065
▁dafür	-7.79345
▁kommt	-7.79395
y	-7.7991
ten	-7.81056
▁frauen	-7.81463
h	-7.81698
em	-7.81975
▁arbeit	-7.82015
▁würden	-7.82372
!	-7.83814
▁verstehen	-7.83902
▁zeigen	-7.84068
'	-7.8415
▁nie	-7.84589
de	-7.84775
▁sieht	-7.85276
▁passiert	-7.85343
▁konnte	-7.85583
▁land	-7.85705
▁welche	-7.85928
▁nichts	-7.87097
▁etwa	-7.87323
▁erste	-7.87658
▁ge	-7.8813
▁ersten	-7.88215
▁stellen	-7.88415
▁ganze	-7.89094
l	-7.89202
▁prozent	-7.89362
▁daran	-7.89422
▁millionen	-7.89592
▁denen	-7.9017
▁sollte	-7.9048
▁nehmen	-7.91997
▁fragen	-7.92153
▁große	-7.92508
▁letzten	-7.92799
▁dabei	-7.93566
▁gehirn	-7.94083
▁sollten	-7.94659
▁arbeiten	-7.94976
▁bild	-7.95112
▁besser	-7.95438
▁idee	-7.95853
▁könnten	-7.9593
▁geld	-7.96425
den	-7.97884
▁ziemlich	-7.97885
▁daten	-7.97952
▁sprechen	-7.98183
▁wollte	-7.98239
▁meinem	-7.98703
▁meisten	-7.98761
ich	-7.99138
a	-7.99961
▁kam	-8.00339
▁ging	-8.00519
▁heraus	-8.0071
▁dank	-8.01075
▁wichtig	-8.01209
▁meinen	-8.01271
▁pro	-8.01316
▁sagt	-8.01578
▁grund	-8.02422
sten	-8.02613
▁eigentlich	-8.02768
▁darauf	-8.02885
▁bekommen	-8.03396
ge	-8.04526
▁ende	-8.05262
▁vier	-8.05425
dem	-8.07054
▁jemand	-8.07281
▁glauben	-8.07438
▁weniger	-8.07658
▁danke	-8.09036
▁10	-8.09326
▁kleinen	-8.10152
▁raum	-8.10312
be	-8.10843
▁wahrscheinlich	-8.11134
▁bedeutet	-8.11462
c	-8.1167
▁dollar	-8.11838
▁richtig	-8.12022
ern	-8.12135
▁kleine	-8.12376
▁hin	-8.12636
▁seit	-8.13341
o	-8.13344
▁technologie	-8.13351
▁lernen	-8.13655
▁computer	-8.14878
▁un	-8.15034
▁sache	-8.15063
▁großen	-8.15512
▁dachte	-8.15669
▁ihm	-8.16217
▁bringen	-8.16566
▁weise	-8.17546
▁ihrem	-8.17726
▁gegen	-8.17737
▁brauchen	-8.18007
▁gesehen	-8.18086
▁unseren	-8.1814
▁wissenschaft	-8.19219
▁beim	-8.19307
an	-8.19348
▁jedes	-8.19704
ste	-8.19842
▁ganzen	-8.20255
▁„	-8.20672
▁wer	-8.20868
▁hätte	-8.21613
▁energie	-8.21728
▁nutzen	-8.21806
▁hoch	-8.21886
▁versuchen	-8.21918
▁seite	-8.21948
▁sicher	-8.22102
▁später	-8.22147
▁jeden	-8.22475
▁20	-8.22519
▁fünf	-8.23553
▁frau	-8.24295
▁fast	-8.24483
z	-8.2487
▁stadt	-8.25052
▁schnell	-8.25889
▁körper	-8.26607
▁menge	-8.27013
▁ort	-8.27025
▁person	-8.27027
der	-8.27427
▁mann	-8.27474
▁jede	-8.27521
▁zukunft	-8.27555
▁gesagt	-8.27716
▁gute	-8.2853
sch	-8.2987
▁keinen	-8.30071
▁funktioniert	-8.30111
▁je	-8.30251
ü	-8.30477
▁kind	-8.3101
".	-8.31747
▁oft	-8.32302
▁schaffen	-8.32659
▁heißt	-8.32735
▁wenig	-8.33042
ig	-8.33221
▁konnten	-8.33795
ver	-8.34298
▁moment	-8.34329
▁eigenen	-8.34725
▁erde	-8.35386
▁lebens	-8.35914
▁lange	-8.35994
▁licht	-8.36016
▁b	-8.36255
▁weit	-8.36439
re	-8.36889
▁möglich	-8.36986
keit	-8.37521
▁natur	-8.3801
▁fall	-8.39253
▁probleme	-8.39369
▁anders	-8.39781
▁sah	-8.39931
▁helfen	-8.40008
▁klar	-8.40299
▁liebe	-8.40327
▁system	-8.40403
ä	-8.40493
▁schauen	-8.40565
▁lang	-8.40661
▁mutter	-8.40901
▁essen	-8.41552
▁erst	-8.41862
▁ungefähr	-8.41909
▁erzählen	-8.42117
▁genug	-8.42418
▁zeigt	-8.42942
▁seiner	-8.43212
▁spielen	-8.43463
▁nächsten	-8.43616
w	-8.43674
▁hand	-8.4402
f	-8.44336
u	-8.44338
▁darum	-8.44527
▁unserem	-8.44904
▁gleich	-8.45241
▁neuen	-8.45448
▁sei	-8.45797
▁begann	-8.45966
▁manchmal	-8.45979
▁usa	-8.46104
ieren	-8.46404
▁allen	-8.46467
al	-8.46675
▁bauen	-8.46697
▁überall	-8.46776
▁ca	-8.47633
▁buch	-8.48
le	-8.48758
▁gehört	-8.49323
▁entwicklung	-8.49896
▁gesellschaft	-8.49958
▁internet	-8.50078
▁bevor	-8.50465
▁nein	-8.50817
▁form	-8.51005
▁herum	-8.51143
▁bisschen	-8.51146
▁verändern	-8.51237
▁liegt	-8.51369
▁euch	-8.51691
▁ins	-8.52095
▁planeten	-8.52185
▁reden	-8.52293
▁schwer	-8.52555
▁punkt	-8.52654
▁30	-8.52797
▁deshalb	-8.52944
▁projekt	-8.53059
▁augen	-8.5307
▁stehen	-8.53132
▁schule	-8.53176
▁ideen	-8.5366
▁sechs	-8.53739
▁design	-8.53797
▁z	-8.54028
▁dich	-8.5463
▁antwort	-8.54747
▁informationen	-8.54851
▁nennen	-8.55053
p	-8.5513
▁kennen	-8.55148
▁s	-8.55196
▁gar	-8.55464
▁k	-8.56276
▁leuten	-8.56507
▁soll	-8.57617
",	-8.57709
▁besonders	-8.57858
▁milliarden	-8.58261
▁musste	-8.58395
▁neu	-8.58468
▁männer	-8.58504
▁recht	-8.58514
▁tat	-8.58577
▁new	-8.58698
▁unternehmen	-8.58774
▁50	-8.58824
▁fest	-8.58952
▁hören	-8.59009
▁ent	-8.59454
lich	-8.59512
▁okay	-8.59852
▁bereits	-8.60006
▁mädchen	-8.60066
▁spiel	-8.60443
▁auto	-8.60692
▁entwickelt	-8.60735
▁sagten	-8.60919
▁erreichen	-8.61207
▁erkennen	-8.61279
▁haus	-8.6137
▁kopf	-8.61594
to	-8.61749
▁halten	-8.62083
▁verschiedene	-8.62108
▁musik	-8.62381
▁afrika	-8.62462
liche	-8.62628
▁anderes	-8.62974
▁hätten	-8.63001
▁darin	-8.63464
▁gefühl	-8.63676
▁oben	-8.63727
▁100	-8.64199
▁namens	-8.64233
▁ted	-8.64283
▁seinen	-8.64411
▁steht	-8.64483
▁minuten	-8.64604
▁benutzen	-8.64651
▁familie	-8.65191
▁film	-8.65422
▁♪	-8.6586
▁arten	-8.66118
▁gerne	-8.66298
▁los	-8.667
▁groß	-8.6682
▁sch	-8.673
▁a	-8.68082
ch	-8.6842
▁indien	-8.68652
▁angst	-8.68661
▁vater	-8.68897
zu	-8.68948
▁irgendwie	-8.69031
▁gruppe	-8.69198
▁kunst	-8.69282
▁machte	-8.69375
▁niemand	-8.69497
▁braucht	-8.70108
▁innerhalb	-8.70111
▁teilen	-8.70311
▁wohl	-8.70413
▁einzige	-8.70506
▁t	-8.70556
▁geschichten	-8.7057
▁jedem	-8.70726
▁15	-8.71209
▁m	-8.71247
iert	-8.71445
et	-8.71543
▁her	-8.71556
▁besten	-8.71598
▁bewegen	-8.71703
▁gleiche	-8.71758
▁bilder	-8.71915
▁menschliche	-8.71965
▁entwickeln	-8.72029
▁kurz	-8.72321
▁3	-8.72408
lichen	-8.7243
▁sprache	-8.72671
▁daher	-8.72783
▁ziel	-8.72951
▁bitte	-8.72977
▁vorstellen	-8.73046
▁patienten	-8.73083
▁unglaublich	-8.73656
▁wegen	-8.73809
▁möglichkeit	-8.74338
▁co	-8.74489
▁alt	-8.74957
▁dir	-8.75034
▁erhalten	-8.75068
▁wort	-8.75145
▁treffen	-8.75245
▁nämlich	-8.75265
▁verändert	-8.75305
▁hinter	-8.75552
▁hause	-8.7562
▁aller	-8.75854
▁obwohl	-8.75871
▁ok	-8.76023
▁ändern	-8.76575
▁stunden	-8.7659
▁mag	-8.7672
▁gott	-8.77188
▁solche	-8.77492
▁beiden	-8.77568
ra	-8.77615
▁verschiedenen	-8.77698
gen	-8.77966
▁%	-8.78186
ö	-8.78418
▁damals	-8.78461
▁re	-8.78553
]	-8.78637
ri	-8.78769
▁einigen	-8.79034
▁eltern	-8.79336
▁wahr	-8.79496
▁luft	-8.79536
▁roboter	-8.79703
▁verhalten	-8.79762
▁2	-8.79859
▁wollten	-8.79881
▁krebs	-8.79978
▁sinn	-8.80548
▁eher	-8.80864
▁sage	-8.81043
▁video	-8.81205
▁direkt	-8.8128
▁regierung	-8.8155
▁[	-8.81813
li	-8.81891
▁beginnen	-8.81893
▁verwenden	-8.82273
▁...	-8.82624
us	-8.82764
it	-8.83125
▁führen	-8.83168
isch	-8.83202
▁china	-8.83243
▁unterschiedlich	-8.8327
▁wert	-8.83324
▁gebäude	-8.83333
▁fand	-8.83595
▁überhaupt	-8.83609
▁sachen	-8.83742
el	-8.84179
▁stück	-8.84429
▁menschlichen	-8.8469
▁schreiben	-8.85113
ur	-8.85172
▁getan	-8.85204
▁e	-8.85317
lo	-8.85396
▁versucht	-8.85569
▁länder	-8.85767
ische	-8.8609
▁nächste	-8.86165
▁tut	-8.86229
ie	-8.86246
▁zwar	-8.86291
▁junge	-8.86483
on	-8.8712
i	-8.87177
um	-8.87811
▁kindern	-8.87834
▁schön	-8.88267
se	-8.88507
▁lage	-8.88726
▁glück	-8.88743
▁letzte	-8.88788
▁freunde	-8.89284
ing	-8.89472
▁erfahrung	-8.8959
▁gleichen	-8.89611
▁allem	-8.89781
▁jedoch	-8.89861
▁universum	-8.90035
ar	-8.90347
▁herausforderung	-8.90701
wir	-8.9075
▁tiere	-8.90899
▁manche	-8.9093
▁p	-8.91458
▁beste	-8.91581
▁wusste	-8.9164
▁de	-8.91863
▁nachdem	-8.92101
▁fühlen	-8.92271
▁anfang	-8.92361
▁unterschied	-8.92484
▁frei	-8.9279
▁weitere	-8.92828
▁betrachten	-8.92859
igen	-8.93103
▁unten	-8.93307
▁mussten	-8.93712
▁völlig	-8.9374
▁falsch	-8.93751
▁genauso	-8.93765
▁kamen	-8.94195
▁kultur	-8.94424
ischen	-8.94642
▁eigene	-8.94733
▁schließlich	-8.94951
▁erinnern	-8.95475
das	-8.95563
▁bereit	-8.95567
▁publikum	-8.95665
▁wissenschaftler	-8.9569
▁markt	-8.95858
▁gedanken	-8.97146
▁plötzlich	-8.9724
▁18	-8.97301
▁modell	-8.97535
ma	-8.97547
▁thema	-8.97551
▁sieben	-8.97715
▁lesen	-8.97724
▁40	-8.97823
▁wochen	-8.97824
▁danach	-8.97989
▁grunde	-8.98083
▁hilfe	-8.98147
▁york	-8.98314
was	-8.98424
ne	-8.9857
▁möglichkeiten	-8.98711
▁lässt	-8.98719
heit	-8.98789
ja	-8.98796
▁bringt	-8.98907
ter	-8.98969
▁umwelt	-8.98975
▁acht	-8.99054
▁worden	-8.99081
▁dingen	-8.9913
▁suchen	-8.9928
▁na	-8.9943
▁interessant	-8.99454
▁'	-8.99633
ab	-8.99643
me	-8.99772
▁lehrer	-8.99922
or	-8.99958
la	-9.00065
▁zuerst	-9.00145
▁stellt	-9.00233
2	-9.0029
▁zweite	-9.00444
▁jungen	-9.00505
▁wären	-9.00687
▁meines	-9.00731
▁boden	-9.00757
▁wirtschaft	-9.00811
▁d	-9.00819
▁tage	-9.00962
ro	-9.00995
▁größte	-9.01248
▁monate	-9.01412
▁lösen	-9.01511
▁glücklich	-9.01759
▁bleiben	-9.01773
▁la	-9.01788
▁sterben	-9.0196
▁tages	-9.02055
▁gemeinschaft	-9.02199
ungen	-9.02409
▁fragte	-9.02606
▁namen	-9.02726
▁zahlen	-9.02817
▁staaten	-9.0294
▁bewusst	-9.03347
▁woche	-9.0356
▁dessen	-9.03669
ta	-9.03677
▁lösung	-9.03728
wie	-9.03758
▁sollen	-9.03964
▁besteht	-9.04064
chen	-9.0468
ul	-9.04786
▁öl	-9.04861
▁erfolg	-9.05043
▁zuvor	-9.05144
▁prozess	-9.05316
▁welches	-9.05628
▁kosten	-9.05835
▁krieg	-9.06376
▁mensch	-9.06694
die	-9.06777
▁hast	-9.06796
▁führt	-9.0681
bar	-9.06833
is	-9.0689
▁sprach	-9.06919
▁1	-9.06984
▁muster	-9.07049
▁zahl	-9.07181
▁voll	-9.07411
▁zehn	-9.07873
▁richtige	-9.07975
▁jahrhundert	-9.08087
▁5	-9.08099
▁stand	-9.08419
▁falls	-9.08467
ren	-9.0847
▁verbunden	-9.08528
▁aussehen	-9.08627
▁soziale	-9.08668
▁kaufen	-9.08705
▁zellen	-9.08747
▁ländern	-9.08862
▁tatsache	-9.09144
▁daraus	-9.09145
ität	-9.0915
▁gesundheit	-9.09151
▁neues	-9.09152
▁reihe	-9.0938
▁leicht	-9.09566
▁herz	-9.09592
▁bewegung	-9.09644
▁fähigkeit	-9.09654
man	-9.09674
▁gefunden	-9.09759
▁schwierig	-9.0986
▁schritt	-9.10083
▁stelle	-9.10115
▁draußen	-9.10149
lt	-9.10381
▁wahrheit	-9.10384
ah	-9.10385
▁labor	-9.10415
▁beide	-9.10423
▁egal	-9.10555
▁genannt	-9.10759
at	-9.10856
los	-9.10864
▁oh	-9.10883
▁stimmt	-9.11081
▁eis	-9.11139
▁autos	-9.11171
▁erschaffen	-9.11234
▁scheint	-9.11396
▁laufen	-9.11424
▁wahl	-9.11545
un	-9.11619
▁c	-9.11761
ige	-9.12227
il	-9.12333
▁funktionieren	-9.12456
▁platz	-9.12604
▁gelernt	-9.1261
▁gebaut	-9.12687
▁anderer	-9.12804
▁fliegen	-9.12998
▁nacht	-9.13106
▁nahm	-9.13292
▁f	-9.13708
▁morgen	-9.14056
▁deine	-9.14118
▁stimme	-9.14295
▁bist	-9.14329
▁verbindung	-9.14401
▁offensichtlich	-9.14497
▁entfernt	-9.15007
▁familien	-9.15065
▁haupt	-9.15105
▁schlecht	-9.15176
▁gewesen	-9.1536
▁nimmt	-9.155
▁ähnlich	-9.15511
▁bekannt	-9.15553
▁guten	-9.1566
▁r	-9.15713
▁absolut	-9.15742
▁sehe	-9.15762
▁verwendet	-9.15967
▁anstatt	-9.1604
▁tier	-9.16068
▁erklären	-9.16276
▁richtung	-9.16448
▁hinein	-9.16534
▁klein	-9.16761
▁passieren	-9.16857
▁gegenüber	-9.16861
▁mittel	-9.16888
▁rein	-9.16947
▁allein	-9.16992
▁technik	-9.1732
▁statt	-9.17336
▁fanden	-9.17354
▁preis	-9.17527
▁vorstellung	-9.17653
ha	-9.17749
▁miteinander	-9.17865
▁mo	-9.17947
▁mache	-9.17985
▁reise	-9.18169
oh	-9.18175
▁nachdenken	-9.18247
▁unseres	-9.18327
▁jemals	-9.18382
▁komplett	-9.18442
▁gezeigt	-9.18602
br	-9.18661
▁stark	-9.18684
▁12	-9.18732
▁foto	-9.18741
▁länger	-9.18909
▁dr	-9.18937
▁bedeutung	-9.19012
▁alter	-9.19017
▁kraft	-9.19107
▁möchten	-9.1921
▁geworden	-9.19274
▁medien	-9.19497
▁60	-9.19594
▁g	-9.19737
sp	-9.20043
▁beginnt	-9.20046
▁studenten	-9.20286
▁anzahl	-9.20362
▁kleiner	-9.20429
aus	-9.20723
ut	-9.20791
▁umgebung	-9.20811
system	-9.21186
▁verloren	-9.21232
▁realität	-9.21288
▁raus	-9.2143
▁weltweit	-9.21448
▁anfangen	-9.21452
▁w	-9.21646
▁schrieb	-9.21674
▁bereich	-9.21712
▁erreicht	-9.21853
▁80	-9.21911
▁findet	-9.22113
▁technologien	-9.22131
▁freund	-9.22164
▁größten	-9.2218
▁städte	-9.22219
▁folgen	-9.22289
▁fehler	-9.22294
gt	-9.22427
und	-9.22548
▁rolle	-9.22611
mal	-9.22659
▁sofort	-9.22829
▁kleines	-9.23218
fl	-9.23287
▁aufgabe	-9.23301
▁extrem	-9.23326
▁studie	-9.23355
bo	-9.23377
▁rest	-9.23459
▁ihres	-9.23657
▁teile	-9.23856
▁bildung	-9.23992
▁veränderung	-9.24023
▁niemals	-9.24039
▁fahren	-9.24051
1	-9.24162
▁gewalt	-9.242
▁forschung	-9.24208
▁stellte	-9.24389
▁material	-9.24391
▁meinung	-9.24406
▁4	-9.24679
▁situation	-9.24762
▁hälfte	-9.2478
▁größe	-9.24834
▁25	-9.24885
▁bekommt	-9.24996
▁größer	-9.25461
▁benutzt	-9.25696
▁alten	-9.25731
▁papier	-9.2574
▁arm	-9.25824
ein	-9.26074
▁bau	-9.26431
▁h	-9.26612
▁struktur	-9.26619
na	-9.26787
zeit	-9.26924
▁gemeinsam	-9.27134
▁langsam	-9.27294
▁team	-9.27413
▁mögen	-9.27427
▁vorher	-9.27464
▁hoffnung	-9.27564
▁einzelne	-9.27684
5	-9.27714
▁amerika	-9.28229
▁online	-9.2832
▁versuche	-9.28331
▁blut	-9.28642
▁zeige	-9.28769
▁bekam	-9.28823
▁hoffe	-9.28954
▁interessiert	-9.2928
▁ständig	-9.29397
▁gesamte	-9.29433
▁pflanzen	-9.29542
▁ziehen	-9.29643
▁schneller	-9.29728
kt	-9.29735
▁sicherheit	-9.29925
▁rechts	-9.29933
▁revolution	-9.29968
▁vereinigte	-9.30037
▁sonst	-9.3005
▁setzen	-9.30059
ation	-9.30261
.“	-9.30298
▁beziehung	-9.30326
▁hinaus	-9.30495
▁gleichzeitig	-9.30532
▁jemanden	-9.30638
sie	-9.30791
▁trotzdem	-9.30802
▁entscheidungen	-9.30846
▁formen	-9.30965
pa	-9.31251
ck	-9.31269
3	-9.31347
.000	-9.31517
▁us	-9.31727
4	-9.31868
▁europa	-9.32288
▁dna	-9.32333
▁experiment	-9.32495
▁sonne	-9.3261
▁heutzutage	-9.32793
▁links	-9.3314
▁bewegt	-9.33228
op	-9.33241
▁wichtiger	-9.33302
▁eins	-9.33308
ist	-9.3338
▁straße	-9.33421
▁gegeben	-9.33462
!"	-9.33551
▁fertig	-9.33635
▁genommen	-9.3378
wohl	-9.33822
ismus	-9.33945
▁tod	-9.33978
▁straßen	-9.34042
▁mitte	-9.34685
▁neben	-9.34745
▁geboren	-9.3492
os	-9.35075
as	-9.35218
▁brachte	-9.35252
▁bestimmt	-9.35269
▁u	-9.35293
▁generation	-9.35497
▁medizin	-9.35531
▁gingen	-9.35798
pf	-9.35869
ierung	-9.35885
▁st	-9.35907
▁bevölkerung	-9.35921
▁wind	-9.35968
▁le	-9.35971
▁meter	-9.36076
▁6	-9.36182
▁geschieht	-9.36416
▁herauszufinden	-9.36418
▁wann	-9.36421
▁zeug	-9.36547
ft	-9.36552
▁mitgefühl	-9.36563
▁ergebnis	-9.36669
▁google	-9.36679
▁oberfläche	-9.36684
▁demokratie	-9.367
▁maschine	-9.36743
▁sorgen	-9.36894
▁krankheit	-9.36945
di	-9.37311
▁blick	-9.37443
▁nennt	-9.37475
▁karte	-9.37511
▁strom	-9.37592
th	-9.37598
▁vortrag	-9.37663
bi	-9.37668
ik	-9.37679
▁firma	-9.37846
▁bald	-9.37884
▁tragen	-9.37942
▁liegen	-9.37956
▁geschrieben	-9.38076
▁wichtige	-9.3809
▁lieben	-9.38199
▁außer	-9.38245
▁gesicht	-9.38614
▁vergessen	-9.38645
▁ka	-9.38664
▁ding	-9.3876
▁nachrichten	-9.38869
▁normalerweise	-9.3909
▁gutes	-9.39153
▁fähigkeiten	-9.39313
▁000	-9.39358
mi	-9.3983
▁außerdem	-9.39933
▁sozialen	-9.39979
bald	-9.40053
▁früher	-9.40117
▁einfache	-9.40335
tra	-9.40399
▁gesprochen	-9.40461
▁produkt	-9.40487
ol	-9.40492
▁beobachten	-9.40493
▁dadurch	-9.40745
▁überleben	-9.4093
▁ansehen	-9.40946
▁sitzen	-9.4115
är	-9.41178
▁bücher	-9.41222
▁gerät	-9.41269
▁al	-9.41519
▁vorbei	-9.41581
▁gesundheits	-9.41663
▁wachsen	-9.4178
▁evolution	-9.41831
▁dachten	-9.41969
▁mehrere	-9.42013
land	-9.42176
▁verlassen	-9.42192
▁begannen	-9.42423
▁finde	-9.42427
▁regeln	-9.42435
▁großer	-9.42521
▁konzept	-9.42533
“	-9.42551
da	-9.42586
du	-9.42676
art	-9.42885
▁aufmerksamkeit	-9.42953
▁näher	-9.43006
▁wussten	-9.43044
▁programm	-9.43207
▁fisch	-9.43226
▁übrigens	-9.43235
▁gruppen	-9.43529
▁machten	-9.43594
ken	-9.43844
▁gern	-9.43958
▁schulen	-9.44007
▁einzelnen	-9.44092
▁uhr	-9.44145
▁dritte	-9.44166
▁betrachtet	-9.44296
▁information	-9.44373
▁90	-9.44722
▁kannst	-9.44796
▁ozean	-9.44938
▁sp	-9.44983
▁zumindest	-9.45321
▁rund	-9.45491
▁tief	-9.45497
▁orte	-9.45527
the	-9.45672
▁denkt	-9.45901
ion	-9.45904
auf	-9.45953
iv	-9.46196
▁passierte	-9.46287
▁innovation	-9.46299
▁monat	-9.46334
▁künstler	-9.46345
▁job	-9.46378
▁gearbeitet	-9.46421
▁hohe	-9.46488
▁kontrolle	-9.46544
▁pa	-9.4655
▁universität	-9.46623
ti	-9.46642
▁bestimmten	-9.46687
nt	-9.46742
stand	-9.46774
am	-9.46819
▁versuchte	-9.46854
▁tausende	-9.4686
▁chris	-9.46935
vi	-9.46956
▁telefon	-9.47003
▁zugang	-9.47092
go	-9.47388
▁8	-9.47456
▁sahen	-9.47464
leben	-9.47644
▁7	-9.47817
▁bessere	-9.47927
▁kern	-9.47932
▁seiten	-9.48065
▁200	-9.48106
▁gebiet	-9.48118
x	-9.48164
▁erlaubt	-9.48283
ton	-9.48363
ler	-9.48426
▁interessante	-9.48457
▁vertrauen	-9.4851
▁studien	-9.48563
schaft	-9.48628
▁feuer	-9.48845
▁fort	-9.4907
▁einfluss	-9.49197
▁zweiten	-9.49323
▁bleibt	-9.49382
▁amerikaner	-9.49422
▁li	-9.49572
▁software	-9.49574
▁typ	-9.49631
▁monaten	-9.49721
▁aufgrund	-9.49728
▁zusammenarbeit	-9.49862
her	-9.49884
▁verbessern	-9.49938
▁geschehen	-9.49949
▁sohn	-9.49954
▁menschheit	-9.49958
v	-9.49998
▁19	-9.50108
▁schul	-9.50513
ier	-9.50566
▁großes	-9.50921
▁irgendwo	-9.51198
▁se	-9.5124
▁bio	-9.51385
▁rede	-9.51406
▁spaß	-9.51459
▁verlieren	-9.51488
▁taten	-9.51509
▁zer	-9.51635
kommen	-9.51782
▁dorf	-9.52105
ll	-9.5221
▁durchschnitt	-9.52573
▁leider	-9.52574
▁anschauen	-9.5258
▁entscheidung	-9.52598
▁möglichen	-9.52755
▁entscheiden	-9.52826
▁neun	-9.52889
▁druck	-9.52898
▁ehrlich	-9.52978
ke	-9.53052
▁politik	-9.53127
▁diejenigen	-9.53228
6	-9.53286
ell	-9.53315
▁grenzen	-9.53403
▁hab	-9.53469
▁gewinnen	-9.53553
▁arbeitete	-9.53607
▁krankheiten	-9.5361
au	-9.53705
▁schüler	-9.53881
▁kaum	-9.53967
▁spezies	-9.54003
▁firmen	-9.54032
pe	-9.54097
▁nenne	-9.54154
▁ebenso	-9.5426
he	-9.54327
sche	-9.54333
▁erzeugen	-9.54337
▁erzählt	-9.54536
▁vergangenheit	-9.54571
cht	-9.54577
▁armut	-9.54582
▁hiv	-9.54583
▁sinne	-9.54592
▁medizinische	-9.54709
▁bestimmte	-9.54764
8	-9.54767
▁nahe	-9.54786
▁nachricht	-9.5488
▁objekt	-9.55002
▁erstaunlich	-9.55036
ien	-9.55158
▁traf	-9.55293
▁voller	-9.55309
ia	-9.55332
▁unmöglich	-9.55349
zi	-9.55419
▁produzieren	-9.55554
▁büro	-9.55608
igkeit	-9.55728
▁ebene	-9.55796
▁sodass	-9.55846
▁per	-9.55847
gehen	-9.55868
▁aussieht	-9.55873
▁bilden	-9.56079
id	-9.56143
ere	-9.56165
▁beispiele	-9.56302
▁arbeitet	-9.56458
▁personen	-9.56492
▁bakterien	-9.56511
▁wirklichkeit	-9.56565
▁wand	-9.56589
▁orten	-9.5668
▁nachzudenken	-9.56805
▁dein	-9.56808
▁sprachen	-9.56872
▁riesige	-9.56935
▁of	-9.56937
▁16	-9.56968
▁gebracht	-9.57001
▁landes	-9.57167
▁keiner	-9.57303
▁worte	-9.57394
ze	-9.57468
▁ergebnisse	-9.5748
▁großartige	-9.57525
ungs	-9.57629
▁14	-9.57677
▁erfahren	-9.57679
▁gene	-9.57702
▁flugzeug	-9.57729
▁erfolgreich	-9.57751
▁70	-9.57763
▁entweder	-9.57779
ka	-9.58005
▁o	-9.5804
▁gen	-9.58126
ba	-9.58274
▁geist	-9.58275
▁retten	-9.58435
▁eben	-9.58442
▁»	-9.58498
▁freiheit	-9.58536
▁alte	-9.58722
▁führte	-9.58822
po	-9.59036
▁17	-9.59078
▁toll	-9.59079
end	-9.59218
▁antworten	-9.59302
äu	-9.59312
▁entdecken	-9.59424
▁gesamten	-9.59433
▁behandlung	-9.5951
▁kamera	-9.59671
▁bürger	-9.59736
▁sammeln	-9.59757
▁befinden	-9.59768
▁verbinden	-9.59789
▁theorie	-9.59818
sa	-9.59877
▁sekunden	-9.59889
▁ermöglicht	-9.60316
eln	-9.6038
▁dasselbe	-9.60425
ach	-9.60447
▁mathematik	-9.60454
▁hundert	-9.60458
▁nummer	-9.60464
▁ressourcen	-9.60564
ert	-9.60573
▁bühne	-9.60818
▁untersuchen	-9.60825
weg	-9.60842
▁solchen	-9.60946
mo	-9.60981
zen	-9.61051
▁runter	-9.61101
▁—	-9.61127
▁englisch	-9.61206
▁gekommen	-9.61289
▁offen	-9.61322
▁liste	-9.61344
▁versuch	-9.6145
▁haut	-9.61497
▁meer	-9.61499
▁ordnung	-9.61572
▁großartig	-9.61606
▁hände	-9.61747
▁tagen	-9.61883
▁kampf	-9.61902
▁chance	-9.62079
▁lebt	-9.62119
▁sex	-9.62154
▁globalen	-9.62171
▁gründe	-9.62239
▁warten	-9.62372
▁gefragt	-9.62455
▁handeln	-9.62537
▁laut	-9.62667
▁baby	-9.62767
▁bezug	-9.62836
▁risiko	-9.62875
▁gestellt	-9.62945
plan	-9.62956
ende	-9.62958
▁zeigte	-9.6296
/	-9.63063
▁linie	-9.63264
äh	-9.6342
▁hilft	-9.63496
des	-9.63502
7	-9.63569
▁gründen	-9.63609
son	-9.63623
▁leidenschaft	-9.63829
up	-9.64147
▁handelt	-9.64206
tz	-9.64293
▁regierungen	-9.64319
▁arzt	-9.64605
▁kollegen	-9.64718
▁halb	-9.6481
▁leisten	-9.64885
▁sicht	-9.64936
ick	-9.65023
spiel	-9.65124
▁netzwerk	-9.65165
fall	-9.65241
▁br	-9.65262
▁erzählte	-9.65299
nein	-9.65468
▁himmel	-9.65538
▁herausfinden	-9.65588
▁organisation	-9.65782
▁verstanden	-9.65835
▁welcher	-9.65844
▁bewusstsein	-9.65907
▁amerikanischen	-9.65936
ko	-9.66128
▁hörte	-9.66217
▁fangen	-9.66226
▁fing	-9.66298
▁mikro	-9.66327
▁prinzip	-9.66343
▁läuft	-9.66401
▁hält	-9.66479
▁auswirkungen	-9.66538
▁entschieden	-9.66652
▁auszu	-9.66821
▁wachstum	-9.67091
ierte	-9.67096
▁finger	-9.67152
▁verstand	-9.67172
▁reaktion	-9.67189
▁schützen	-9.6736
▁außerhalb	-9.6736
▁name	-9.67432
▁million	-9.67486
▁see	-9.6762
▁beginn	-9.6768
▁spielt	-9.67704
ant	-9.67716
▁grad	-9.67797
▁artikel	-9.67806
▁designer	-9.67842
▁einander	-9.67896
▁verantwortung	-9.68041
bu	-9.68042
▁trotz	-9.68054
▁l	-9.68055
▁entdeckt	-9.68181
▁wieso	-9.68203
9	-9.68301
▁tür	-9.68312
no	-9.68423
ho	-9.68709
▁messen	-9.68769
▁ha	-9.68833
▁methode	-9.6892
▁fotos	-9.69071
▁hunderte	-9.69106
industrie	-9.69117
▁geschäft	-9.69162
ster	-9.69178
▁herstellen	-9.69181
▁netz	-9.69212
▁schlüssel	-9.69221
▁ko	-9.6938
▁geschaffen	-9.69543
▁he	-9.69566
▁krankenhaus	-9.69576
▁arbeits	-9.69589
▁ärzte	-9.69593
än	-9.69606
▁fuß	-9.69634
%	-9.69752
▁verrückt	-9.69757
ad	-9.69823
▁tisch	-9.699
▁öffentlichen	-9.69946
▁jene	-9.69996
▁höher	-9.70173
▁befindet	-9.70274
▁interesse	-9.70305
▁schlechte	-9.70315
▁erleben	-9.70341
▁super	-9.70347
▁gesetz	-9.70362
tag	-9.70562
va	-9.7062
▁unterstützen	-9.70644
▁sozial	-9.70647
▁test	-9.70774
ziehen	-9.70824
▁industrie	-9.70868
▁wesen	-9.70879
▁geschah	-9.71024
▁erstens	-9.71032
del	-9.71168
iger	-9.71175
fe	-9.71265
▁architektur	-9.71428
▁letztes	-9.7143
▁arbeite	-9.71599
▁zufällig	-9.7172
▁erzeugt	-9.71765
▁farbe	-9.71939
▁suche	-9.72022
▁einzigen	-9.72156
▁beziehungen	-9.72163
▁regel	-9.72232
▁ho	-9.72487
▁nahrung	-9.72516
▁wählen	-9.72517
▁lachen	-9.72542
▁folgendes	-9.72611
▁wandel	-9.72654
gel	-9.72658
▁zeitpunkt	-9.72707
▁zweitens	-9.72824
▁früh	-9.72913
▁i	-9.7304
▁zunächst	-9.7306
▁fühlte	-9.73118
▁hervor	-9.73275
▁wunder	-9.73339
▁bisher	-9.73367
ic	-9.73399
▁systeme	-9.73509
▁wichtigste	-9.7354
▁außergewöhnlich	-9.73658
▁selben	-9.73686
welt	-9.7403
▁deswegen	-9.74045
▁verursacht	-9.74096
▁auge	-9.74097
▁stunde	-9.74137
▁position	-9.74155
▁punkte	-9.74164
▁klasse	-9.74188
▁fluss	-9.74206
ner	-9.74229
schen	-9.74379
▁bloß	-9.74425
▁spiele	-9.74486
▁lag	-9.74504
▁gebe	-9.74529
▁fällt	-9.74598
bild	-9.74757
▁traum	-9.74807
▁getroffen	-9.74811
▁produziert	-9.74811
sicht	-9.74841
▁wald	-9.74845
▁armen	-9.74856
▁erwarten	-9.74929
▁ernst	-9.75
legen	-9.75107
▁verständnis	-9.75264
ve	-9.75332
▁berg	-9.75445
co	-9.7552
▁ta	-9.75543
▁erinnere	-9.75589
▁san	-9.75659
do	-9.75738
▁ebenfalls	-9.75981
▁maschinen	-9.75993
▁werte	-9.76142
▁ausdruck	-9.76156
▁stattdessen	-9.76372
▁kontakt	-9.764
▁version	-9.7655
geben	-9.767
▁wirtschaftliche	-9.7679
▁existiert	-9.76812
▁partner	-9.76844
stellung	-9.76853
▁unglaubliche	-9.76968
▁westen	-9.77005
▁kar	-9.77086
▁wenige	-9.77103
warum	-9.7715
hand	-9.77182
▁hart	-9.77184
▁guter	-9.77244
mp	-9.77296
▁schaut	-9.7731
form	-9.77356
nde	-9.77373
▁jemandem	-9.77387
▁heutigen	-9.77468
▁sommer	-9.77557
▁ahnung	-9.77557
▁verkaufen	-9.77579
▁größere	-9.77583
▁projekte	-9.77588
▁aktiv	-9.77631
▁bo	-9.77646
▁hört	-9.77676
▁endlich	-9.7768
▁medikamente	-9.7769
arbeit	-9.77771
▁öffentliche	-9.77783
▁national	-9.77927
▁spricht	-9.77955
bel	-9.78075
▁wörter	-9.78077
erweise	-9.78131
▁rot	-9.78283
▁herzen	-9.7831
▁london	-9.78355
▁öffnen	-9.78356
▁freude	-9.7844
▁abend	-9.7846
▁schicken	-9.78475
▁spät	-9.78478
▁ma	-9.78494
▁vergleich	-9.78532
▁km	-9.78718
▁echte	-9.789
zellen	-9.78957
dr	-9.79
isten	-9.79034
▁erfahrungen	-9.79122
fi	-9.79136
▁politische	-9.79138
▁kostet	-9.79161
▁beeinflusst	-9.79177
▁nähe	-9.79198
▁jahrhunderts	-9.79227
▁globale	-9.79244
▁fortschritt	-9.7931
00	-9.79376
im	-9.79405
▁polizei	-9.79598
▁lösungen	-9.79618
vor	-9.79631
▁amerikanische	-9.79746
▁stolz	-9.79971
▁behandeln	-9.79972
▁stimmen	-9.80077
om	-9.80115
▁gehe	-9.80165
▁abzu	-9.80229
▁gedacht	-9.80379
▁fenster	-9.80446
▁veränderungen	-9.80456
ber	-9.80504
▁nahmen	-9.80659
▁mars	-9.80664
geht	-9.80682
▁schwarze	-9.80744
▁drogen	-9.80744
▁ton	-9.80788
▁behandelt	-9.8079
innen	-9.80797
▁landwirtschaft	-9.80816
▁gefängnis	-9.8082
▁gehirns	-9.80874
▁cool	-9.80921
▁arme	-9.80942
▁mond	-9.80956
bau	-9.81084
▁the	-9.81229
▁veröffentlicht	-9.81254
▁echt	-9.81346
▁eigenschaften	-9.81585
▁erfunden	-9.81614
nd	-9.81636
▁region	-9.81864
▁spitze	-9.81895
▁genutzt	-9.82029
bringen	-9.82075
▁angefangen	-9.82118
▁klima	-9.82337
▁komme	-9.82343
▁13	-9.82368
hi	-9.8237
▁leiden	-9.82412
▁ließ	-9.82445
▁wege	-9.82476
▁konzentrieren	-9.825
▁hirn	-9.82507
▁biologie	-9.82511
▁po	-9.82519
▁bienen	-9.82578
▁500	-9.82604
▁stein	-9.82656
▁außen	-9.82692
teil	-9.82741
▁bett	-9.82751
▁schönheit	-9.82896
▁web	-9.82899
ce	-9.82967
▁täglich	-9.82979
▁farben	-9.82987
▁verbringen	-9.83029
▁verkauft	-9.83079
ker	-9.83103
▁worten	-9.83314
▁seien	-9.83351
▁leid	-9.8346
▁religion	-9.83604
raum	-9.83722
▁john	-9.83734
▁schmerz	-9.83787
▁ganzes	-9.83806
▁blau	-9.83863
▁park	-9.83994
▁gang	-9.84116
▁entstehen	-9.84146
rat	-9.84378
▁neuro	-9.84457
▁produkte	-9.84508
▁11	-9.84537
▁letztendlich	-9.84556
▁v	-9.84559
▁schöne	-9.84588
▁lernte	-9.84766
▁opfer	-9.84772
▁fa	-9.84791
▁osten	-9.84877
▁plan	-9.84958
▁kontrollieren	-9.85006
ca	-9.8502
wenn	-9.85026
▁wohin	-9.85048
▁spreche	-9.85059
▁botschaft	-9.85328
▁ki	-9.85374
▁deutlich	-9.85412
▁lautet	-9.85563
rt	-9.85569
tri	-9.85676
ry	-9.85689
▁abge	-9.85738
so	-9.85798
▁männern	-9.85865
▁hinsicht	-9.85876
▁weiterhin	-9.85883
▁kämpfen	-9.85997
▁ändert	-9.86141
ag	-9.86266
▁karriere	-9.86276
▁trifft	-9.86276
▁sauerstoff	-9.86277
▁zustand	-9.86283
▁tolle	-9.86288
▁städten	-9.86364
▁frühen	-9.86403
werk	-9.8641
▁phänomen	-9.86466
▁legen	-9.86477
▁flug	-9.86499
▁do	-9.86595
▁gegangen	-9.86595
ger	-9.86701
▁bestehen	-9.86713
▁verfügung	-9.86714
▁dennoch	-9.86734
▁neuer	-9.86789
▁sicherlich	-9.86852
▁geschwindigkeit	-9.86917
pi	-9.86982
▁zelle	-9.86987
▁lieblings	-9.87093
▁physik	-9.87111
▁lief	-9.87124
▁allerdings	-9.87148
▁überzeugt	-9.87149
▁gewisse	-9.87149
▁darf	-9.87154
▁herzustellen	-9.87156
▁fallen	-9.87259
▁somit	-9.87312
▁waffen	-9.87395
ph	-9.87469
▁gelegenheit	-9.87528
▁kreativität	-9.87592
▁fällen	-9.87695
▁materialien	-9.87695
▁glas	-9.87751
▁wichtigsten	-9.87768
▁innen	-9.87812
▁rechten	-9.87858
▁x	-9.87881
ill	-9.87911
▁unterschiede	-9.87948
▁eigenes	-9.8799
▁fühle	-9.88003
▁begonnen	-9.88027
▁geschafft	-9.88027
▁aufgenommen	-9.88055
▁infrastruktur	-9.88055
▁perfekt	-9.88162
▁fühlt	-9.88165
▁bäume	-9.88236
▁ansatz	-9.88363
▁nötig	-9.88469
▁sand	-9.88483
▁nächstes	-9.88554
tisch	-9.88572
▁einfacher	-9.88706
▁tieren	-9.88735
▁aufzu	-9.88761
▁erstellen	-9.88763
▁freunden	-9.88782
ben	-9.88785
ß	-9.88859
▁irgendwann	-9.88913
▁verantwortlich	-9.88914
gang	-9.88921
▁japan	-9.88957
▁sport	-9.88996
▁zeichen	-9.89127
▁afghanistan	-9.8936
▁vielfalt	-9.89383
isiert	-9.89408
▁total	-9.89537
fa	-9.89639
▁riesigen	-9.89703
▁baum	-9.89728
tik	-9.89788
▁hinzu	-9.89914
▁praktisch	-9.89988
▁24	-9.90255
▁qualität	-9.90379
▁kilometer	-9.90457
▁kenne	-9.90488
▁relativ	-9.90711
▁sogenannte	-9.90711
▁tochter	-9.90711
▁großbritannien	-9.90713
▁gewicht	-9.90855
projekt	-9.9108
▁erlauben	-9.91166
▁reagieren	-9.91166
▁entlang	-9.91182
▁benötigt	-9.91183
punkt	-9.91201
▁lebensmittel	-9.91218
▁grün	-9.91241
▁y	-9.91437
▁verbindungen	-9.91515
igt	-9.91523
▁gesetze	-9.91696
▁massen	-9.91724
▁brauchte	-9.91768
wa	-9.91798
▁selten	-9.91803
▁ausbildung	-9.91822
▁300	-9.91862
▁charakter	-9.91971
▁werkzeuge	-9.91975
▁dar	-9.92059
▁ermöglichen	-9.92082
▁weiss	-9.92084
▁hielt	-9.9212
▁dahin	-9.92174
▁davor	-9.92224
▁kommunikation	-9.92341
tion	-9.92345
▁politischen	-9.92392
▁schlaf	-9.92435
▁normal	-9.92441
ga	-9.92443
▁beeinflussen	-9.92543
▁dorthin	-9.92589
▁halbe	-9.92632
amp	-9.92724
▁herunter	-9.92775
▁eure	-9.92937
▁investieren	-9.93005
▁größeren	-9.93012
▁dagegen	-9.93063
▁gefühle	-9.93132
▁verbreitet	-9.93179
▁ar	-9.93314
▁tr	-9.93379
▁klingt	-9.9347
▁gilt	-9.93474
▁zusammenhang	-9.93488
▁identität	-9.93495
▁atmosphäre	-9.93508
▁sa	-9.93556
▁halte	-9.93594
▁einsatz	-9.93603
▁ehe	-9.93701
▁habt	-9.93747
▁genom	-9.93803
eck	-9.93806
zug	-9.93849
schw	-9.93913
arten	-9.93957
rei	-9.94041
▁las	-9.94086
▁westliche	-9.94163
▁vers	-9.94268
▁voraus	-9.94304
▁erwartet	-9.94323
▁nah	-9.94354
"-	-9.94389
▁vermutlich	-9.94407
▁überrascht	-9.94407
▁großteil	-9.94426
seite	-9.94489
▁kurzem	-9.9463
▁nehme	-9.94727
▁gefährlich	-9.9476
lei	-9.94813
feld	-9.94921
▁erforschen	-9.94959
enden	-9.94979
▁schutz	-9.94987
▁erstes	-9.94989
▁temperatur	-9.95033
▁gemeinde	-9.95217
▁jahres	-9.95257
▁rechte	-9.95349
▁entsteht	-9.95359
▁bildschirm	-9.95407
▁loch	-9.95446
▁begriff	-9.95488
▁virus	-9.9549
▁kunden	-9.95495
▁fernsehen	-9.95496
ale	-9.95497
ei	-9.95633
▁materie	-9.95635
▁el	-9.95641
▁rück	-9.95814
haft	-9.95946
▁konferenz	-9.9597
▁bar	-9.96094
schlag	-9.96158
▁me	-9.96174
▁anzu	-9.96302
▁mittlere	-9.96309
▁neuronen	-9.96315
▁erklärt	-9.96337
▁durchgeführt	-9.96362
ür	-9.96377
über	-9.96459
▁erinnert	-9.96465
▁dieselbe	-9.96537
jährigen	-9.96665
▁falsche	-9.96669
▁beschäftigt	-9.96734
▁feld	-9.96739
▁kr	-9.96751
▁entschied	-9.9678
▁intelligenz	-9.96788
▁plastik	-9.96788
tt	-9.96794
▁präsident	-9.96838
▁ba	-9.96963
▁soldaten	-9.97073
▁vi	-9.97093
▁facebook	-9.97271
rin	-9.97474
▁erstellt	-9.97476
dy	-9.97505
▁ziele	-9.97657
ow	-9.97665
setzen	-9.97671
▁elektrische	-9.9769
▁werkzeug	-9.97707
cken	-9.9773
▁david	-9.97757
▁hoffentlich	-9.97758
▁komplexität	-9.97763
▁wunsch	-9.97832
▁ro	-9.97865
▁wiederum	-9.97966
▁alleine	-9.97974
▁dreht	-9.98035
▁verfügbar	-9.98221
▁steckt	-9.9823
▁betrifft	-9.98244
▁to	-9.98255
▁ausge	-9.98312
▁titel	-9.98326
▁irgendeine	-9.98432
▁einfachen	-9.98512
▁satz	-9.98539
▁bedingungen	-9.98565
▁heran	-9.98748
▁saß	-9.9875
▁knochen	-9.98812
lu	-9.98834
▁funktion	-9.98847
▁finanz	-9.98895
▁aufgaben	-9.989
▁insekten	-9.98914
▁gesellschaften	-9.99204
▁kommunizieren	-9.99227
▁töten	-9.99227
▁kontext	-9.99228
▁zuhause	-9.99234
▁unterstützung	-9.9924
laden	-9.99251
genommen	-9.99258
▁sterne	-9.99311
▁klimawandel	-9.99384
▁karten	-9.99406
▁stellten	-9.99443
ki	-9.9956
▁sekunde	-9.99618
▁j	-9.9965
▁zeiten	-9.99755
▁kreis	-9.99762
ine	-9.9986
zahl	-10.0002
▁ange	-10.0003
▁zentrum	-10.0005
▁einge	-10.002
▁folge	-10.0023
▁beschreiben	-10.0024
▁2000	-10.0026
▁drittel	-10.0028
▁wider	-10.003
▁effektiv	-10.0036
▁holz	-10.0036
▁werfen	-10.0042
▁irak	-10.0043
▁typen	-10.0045
▁schafft	-10.0058
▁gestalten	-10.0066
stehen	-10.0067
▁weder	-10.0073
▁null	-10.0074
▁vollständig	-10.0078
▁benötigen	-10.008
▁reisen	-10.0089
▁mu	-10.0089
fahren	-10.0099
▁ra	-10.0106
▁passt	-10.0109
▁handy	-10.011
▁gas	-10.0112
▁weiteres	-10.0118
▁seines	-10.012
▁gewonnen	-10.0122
▁bezahlt	-10.0126
▁verbracht	-10.013
▁klang	-10.0131
programm	-10.0136
▁natürliche	-10.015
iz	-10.0153
▁chinesische	-10.016
▁sowie	-10.0172
▁buchstäblich	-10.0173
rum	-10.0177
▁entwerfen	-10.0178
▁notwendig	-10.0183
▁gewebe	-10.0189
ling	-10.0189
▁gaben	-10.0205
▁unbedingt	-10.0224
▁krank	-10.0226
ssystem	-10.0226
▁möglicherweise	-10.0226
▁city	-10.023
▁linken	-10.0233
▁drehen	-10.0245
org	-10.025
haus	-10.0267
problem	-10.027
▁bemerkt	-10.0271
▁begeistert	-10.0274
▁vollkommen	-10.0276
▁fiel	-10.0276
▁geräte	-10.0277
▁basis	-10.028
▁langen	-10.0281
▁perspektive	-10.0284
▁kräfte	-10.0294
▁stecken	-10.0295
▁gesch	-10.0298
jährige	-10.0307
▁lern	-10.031
▁forscher	-10.0318
▁heim	-10.032
lang	-10.0321
▁universums	-10.0326
▁hintergrund	-10.0329
▁erinnerung	-10.0331
▁vision	-10.0332
▁objekte	-10.0339
▁naja	-10.034
ed	-10.0344
▁laufe	-10.0345
▁basiert	-10.0354
▁hund	-10.0366
▁high	-10.0377
▁herausgefunden	-10.0378
▁kontinent	-10.0379
▁fische	-10.0383
▁go	-10.0385
▁masse	-10.0396
▁geführt	-10.04
▁regen	-10.0402
▁brot	-10.0416
buch	-10.0417
krieg	-10.0418
▁hauptsächlich	-10.0429
▁wa	-10.0432
führen	-10.0443
▁umgehen	-10.045
▁wild	-10.0451
▁militär	-10.0453
▁ameisen	-10.0458
▁roten	-10.0467
▁höhe	-10.0472
▁staat	-10.0472
▁lustig	-10.0481
▁kürzlich	-10.0481
▁kümmern	-10.0481
▁usw	-10.0486
▁tumor	-10.0488
▁übertragen	-10.049
▁verdienen	-10.0491
▁bitten	-10.0505
j	-10.0506
ir	-10.0514
ok	-10.0517
▁versch	-10.0522
▁tausend	-10.0527
▁besitzen	-10.0531
▁vertraut	-10.0535
▁bat	-10.0539
bahn	-10.0542
▁schließen	-10.0548
▁modelle	-10.0548
▁reich	-10.0554
nden	-10.0559
technologie	-10.0576
sh	-10.0578
▁entwickelten	-10.0585
▁übrig	-10.0585
▁kohle	-10.0585
▁hängt	-10.0589
che	-10.0592
▁organisationen	-10.0592
▁nochmal	-10.0592
▁selber	-10.0593
▁politiker	-10.0596
▁meistens	-10.061
ku	-10.0613
▁lieber	-10.0621
si	-10.0626
▁frieden	-10.0632
▁sozusagen	-10.0639
▁verfolgen	-10.0639
▁mindestens	-10.0641
▁ru	-10.065
▁sitzt	-10.065
daten	-10.0656
▁jobs	-10.0661
▁gelangen	-10.0666
▁hohen	-10.0666
tel	-10.0669
weise	-10.067
▁testen	-10.0675
▁modernen	-10.0689
▁leistung	-10.069
▁vergleichen	-10.0691
▁ex	-10.0691
▁kohlenstoff	-10.0692
▁verbessert	-10.0692
▁bezahlen	-10.0695
▁reicht	-10.0706
▁laden	-10.0708
▁krise	-10.0713
▁affen	-10.0715
▁schlimmer	-10.0727
geschichte	-10.0728
▁stärker	-10.0744
▁zerstört	-10.0746
▁bestimmen	-10.0747
▁hinweg	-10.0751
mann	-10.0751
▁gefangen	-10.0757
&	-10.0758
▁schwarz	-10.0761
▁schluss	-10.077
▁&	-10.0788
▁getötet	-10.08
▁gold	-10.0802
▁gegenteil	-10.0803
▁erklärung	-10.0805
▁professor	-10.0809
bare	-10.0832
▁beine	-10.0833
bt	-10.0838
▁milliarde	-10.0841
▁glaubt	-10.0852
▁fragt	-10.0852
▁anderem	-10.0853
▁dürfen	-10.0854
wo	-10.0883
▁inspiriert	-10.0908
▁golf	-10.0908
mon	-10.0909
▁gestern	-10.091
▁kindheit	-10.0915
▁besondere	-10.0916
mittel	-10.0917
▁wächst	-10.0918
▁wahre	-10.0925
hin	-10.0925
▁stammt	-10.093
▁herr	-10.0934
▁meeres	-10.0943
▁wirtschafts	-10.0945
▁fragten	-10.0946
▁nützlich	-10.0947
▁iran	-10.0956
reich	-10.0958
schrift	-10.0963
▁gespräch	-10.0965
▁kalifornien	-10.0967
lose	-10.0978
ett	-10.0992
▁stress	-10.0994
ment	-10.0995
sam	-10.1006
▁boot	-10.101
markt	-10.1014
▁twitter	-10.1018
▁vogel	-10.1023
▁themen	-10.1024
ak	-10.1025
▁genauer	-10.1025
▁babys	-10.1027
▁gefahr	-10.1032
▁geburt	-10.1033
▁erster	-10.1036
▁maus	-10.1051
stein	-10.1056
▁interagieren	-10.1073
▁grafik	-10.108
▁gegenseitig	-10.1088
▁häufig	-10.1089
all	-10.1091
lassen	-10.1095
▁einsetzen	-10.1107
▁text	-10.111
▁ecke	-10.1111
▁überzeugen	-10.1113
▁fr	-10.1116
com	-10.1117
men	-10.1123
▁dritten	-10.1132
▁jo	-10.1138
▁erlebt	-10.1146
▁meilen	-10.1148
▁institutionen	-10.1169
▁code	-10.1171
▁verwandeln	-10.1184
▁einzel	-10.1191
▁fleisch	-10.1197
▁bank	-10.1198
▁zimmer	-10.12
▁daß	-10.12
sitz	-10.1205
▁reichen	-10.1206
▁scheinen	-10.121
▁deinen	-10.1212
▁grundlegende	-10.1223
▁sichtbar	-10.1226
wert	-10.1228
▁folgt	-10.1229
▁tiefe	-10.1229
▁wunderbare	-10.1259
▁ri	-10.126
ip	-10.1262
▁erhält	-10.128
ly	-10.1286
licher	-10.1292
folge	-10.1296
▁vorhanden	-10.1297
wirtschaft	-10.1305
▁haufen	-10.1309
▁standard	-10.1314
▁tue	-10.132
forschung	-10.1334
isieren	-10.1352
ging	-10.1353
▁rätsel	-10.1356
▁wahrnehmung	-10.1358
▁moleküle	-10.1359
▁könnt	-10.1361
▁wach	-10.1364
gegangen	-10.1369
▁filme	-10.1381
▁augenblick	-10.1387
▁fern	-10.1395
▁eingesetzt	-10.1397
bereich	-10.1398
▁bildern	-10.1399
▁sucht	-10.1406
q	-10.1409
halten	-10.1414
▁wesentlichen	-10.1414
▁rat	-10.1419
▁jungs	-10.142
nun	-10.142
▁museum	-10.1422
▁spiegel	-10.1424
kommt	-10.1424
▁interessieren	-10.1425
▁experimente	-10.1428
▁pe	-10.1444
▁unabhängig	-10.1446
▁tot	-10.1448
▁einkommen	-10.1462
tu	-10.1464
▁band	-10.1464
isierung	-10.1465
▁zitat	-10.1469
▁kerl	-10.1469
▁müll	-10.1477
▁anti	-10.1486
▁konflikt	-10.1491
ts	-10.1497
▁aktivität	-10.1501
▁erzähle	-10.1504
▁internationale	-10.1508
▁älter	-10.1511
▁norden	-10.1512
▁wunderbar	-10.1517
▁vorteil	-10.1524
▁gäbe	-10.1526
▁irgendetwas	-10.1526
▁verhindern	-10.1526
▁gewissen	-10.1531
▁rahmen	-10.1537
ff	-10.1539
▁strukturen	-10.1542
berg	-10.1545
▁starb	-10.1546
▁erstaunliche	-10.1551
▁fach	-10.1561
führung	-10.1565
ack	-10.1566
▁bruder	-10.1584
▁kaffee	-10.1584
▁england	-10.1585
▁steuern	-10.1591
▁nord	-10.16
▁geschäfts	-10.161
▁lasst	-10.1612
▁indische	-10.1613
▁radio	-10.1619
ium	-10.1625
▁kennt	-10.1628
▁spieler	-10.1637
▁grundsätzlich	-10.1643
▁verschwinden	-10.1643
▁gehabt	-10.1643
▁lied	-10.1646
▁9	-10.1652
▁morgens	-10.1656
▁mission	-10.1658
▁bestand	-10.1662
stellen	-10.1669
ring	-10.1674
zugehen	-10.1676
▁beweis	-10.1678
▁normale	-10.1679
▁dauert	-10.1682
gleich	-10.1699
modell	-10.1701
▁september	-10.1702
▁dinosaurier	-10.1704
▁website	-10.1706
▁einzu	-10.1709
▁mach	-10.1713
istische	-10.1714
▁holen	-10.1721
mail	-10.1724
systeme	-10.1731
▁träume	-10.1738
▁mitarbeiter	-10.1745
▁zugänglich	-10.1761
▁worüber	-10.1761
▁verteilt	-10.1761
▁wein	-10.1768
▁150	-10.1772
▁seitdem	-10.1785
▁forschungs	-10.1785
▁experten	-10.1789
kraft	-10.1791
▁35	-10.1792
▁fantastisch	-10.1793
▁unge	-10.1797
▁gedanke	-10.1798
▁existieren	-10.1799
▁kurze	-10.1801
eren	-10.1802
▁post	-10.1806
ierten	-10.1807
▁mütter	-10.1808
wer	-10.1814
▁kapital	-10.182
▁bieten	-10.1821
▁teuer	-10.1821
▁faszinierend	-10.1824
▁schien	-10.1825
▁mögliche	-10.1831
▁entdeckung	-10.1843
▁ball	-10.185
▁aufge	-10.185
▁beobachtet	-10.1854
▁inhalt	-10.186
▁wirst	-10.1868
▁erkenntnis	-10.187
og	-10.1872
▁college	-10.188
▁beantworten	-10.188
▁unterscheiden	-10.188
▁ah	-10.188
▁öffentlichkeit	-10.1882
ator	-10.1891
▁müsste	-10.1892
▁nutzt	-10.1896
▁normalen	-10.1901
▁schrift	-10.1905
▁tanz	-10.1914
▁landschaft	-10.1921
▁unternehmer	-10.1925
▁entworfen	-10.194
▁hergestellt	-10.1941
▁mund	-10.1948
nahm	-10.1956
▁steigen	-10.1962
nahme	-10.1969
▁hunde	-10.197
▁gesund	-10.1971
▁versuchten	-10.1987
▁nannte	-10.1988
▁setzt	-10.1991
▁schwester	-10.1992
▁verbrachte	-10.1994
▁ad	-10.2003
▁moderne	-10.2009
▁wettbewerb	-10.201
▁erfinden	-10.2015
▁aufhören	-10.2029
zukommen	-10.203
lin	-10.203
hm	-10.2033
▁schaute	-10.2043
gruppe	-10.2044
▁minute	-10.2049
▁positive	-10.2055
▁bill	-10.2065
▁händen	-10.2072
len	-10.2078
verständlich	-10.2081
▁medikament	-10.2082
kon	-10.2086
▁besseren	-10.2095
pu	-10.2107
▁enorme	-10.2112
▁still	-10.2113
▁schlechter	-10.2117
▁rote	-10.2119
ep	-10.2121
▁entspricht	-10.2123
▁zuschauer	-10.2124
▁ausmaß	-10.2136
▁hoffen	-10.2148
fallen	-10.215
stoff	-10.2163
▁dran	-10.2178
▁lebte	-10.2182
▁richard	-10.2185
▁no	-10.2185
▁erscheinen	-10.2186
▁definition	-10.2187
fen	-10.2188
▁zweck	-10.219
▁abhängig	-10.2194
▁erkannte	-10.2195
▁schimpansen	-10.2197
▁schau	-10.2199
▁aspekt	-10.2201
▁entstanden	-10.2203
▁signal	-10.2209
▁videos	-10.2213
▁genetische	-10.2219
▁erwähnt	-10.2227
▁schönen	-10.2228
▁west	-10.2231
▁wesentlich	-10.2231
▁mitten	-10.2232
▁solch	-10.2235
▁hu	-10.2237
pr	-10.2241
▁unterstützt	-10.2247
▁verbreiten	-10.2247
▁besagt	-10.2247
ob	-10.2258
glücklicherweise	-10.2263
▁viertel	-10.2264
kultur	-10.2268
▁problemen	-10.227
▁bedeuten	-10.2271
▁geh	-10.2279
▁nett	-10.2282
▁zog	-10.2292
▁angenommen	-10.23
ör	-10.2302
▁washington	-10.231
▁bi	-10.2312
▁gehalten	-10.2314
druck	-10.2315
▁weiteren	-10.2325
gezogen	-10.2328
▁aufbauen	-10.2328
zentrum	-10.2331
▁angesehen	-10.2331
▁voran	-10.2334
▁eng	-10.2338
▁rand	-10.2342
▁arbeiteten	-10.2344
unternehmen	-10.2351
▁lernt	-10.2353
▁digitale	-10.2359
▁starke	-10.2367
▁individuen	-10.2373
▁su	-10.2373
▁gelesen	-10.2375
▁wobei	-10.2375
▁unterhaltung	-10.2377
▁behalten	-10.2378
▁rücken	-10.2387
technik	-10.2394
▁mut	-10.2395
ischer	-10.2405
▁elemente	-10.241
▁gedicht	-10.2415
▁aufregend	-10.2417
ug	-10.2424
▁galaxien	-10.2431
we	-10.2432
▁reduzieren	-10.2436
▁beliebt	-10.2436
▁auseinander	-10.2438
▁gegensatz	-10.2438
▁kon	-10.2443
richtung	-10.2444
▁for	-10.245
▁bedürfnisse	-10.2452
▁meiste	-10.2452
▁schlagen	-10.2454
▁not	-10.2457
▁allgemein	-10.2457
▁ließen	-10.2457
▁fakten	-10.2474
▁netzwerke	-10.2475
ard	-10.2482
essen	-10.2483
▁existenz	-10.25
▁verlangen	-10.25
▁live	-10.25
▁fett	-10.2505
▁diagramm	-10.2507
▁meist	-10.2509
▁atom	-10.251
igung	-10.2521
▁kompliziert	-10.2522
▁drin	-10.2523
▁nationen	-10.2533
▁zucker	-10.2533
▁anwendung	-10.2534
macht	-10.256
▁hell	-10.2561
test	-10.2561
▁darwin	-10.2564
▁bekamen	-10.2565
▁nation	-10.2566
▁bauern	-10.2572
▁10.000	-10.2573
▁mar	-10.2575
lass	-10.2577
▁zeitalter	-10.2579
▁fördern	-10.2584
▁studieren	-10.2597
▁grüne	-10.26
fach	-10.2603
▁musst	-10.2607
▁könig	-10.2614
▁informations	-10.2615
licht	-10.2615
▁app	-10.2616
▁mi	-10.2618
▁gr	-10.2619
▁schrecklich	-10.2622
▁brust	-10.2628
▁brasilien	-10.2628
▁brauche	-10.2631
tische	-10.2632
wand	-10.2639
▁zählen	-10.2641
▁wenigen	-10.2643
▁grenze	-10.2649
platz	-10.2652
ive	-10.2656
▁produktion	-10.2658
▁fu	-10.2659
▁insel	-10.2661
▁fuhr	-10.2671
▁blieb	-10.2672
lichkeit	-10.2681
▁seele	-10.2685
▁geändert	-10.2693
▁gericht	-10.2699
heim	-10.2722
res	-10.2731
▁helden	-10.2733
sehen	-10.2741
hu	-10.2746
▁visuelle	-10.2757
▁beinahe	-10.2758
▁hunger	-10.2759
▁blaue	-10.2764
▁geschickt	-10.2766
▁trägt	-10.2767
▁höhere	-10.2771
▁auswahl	-10.2772
▁eindruck	-10.2776
▁wirkung	-10.2777
io	-10.2789
▁entwickelte	-10.2793
▁rad	-10.2795
▁starten	-10.2799
▁persönlich	-10.2805
ian	-10.2805
▁400	-10.2811
voll	-10.2818
▁weißen	-10.2821
▁eindeutig	-10.2824
▁schatten	-10.2824
▁zerstören	-10.2824
▁mikroben	-10.2825
▁bewegungen	-10.2829
▁gehören	-10.283
▁inneren	-10.2835
▁kontrolliert	-10.2835
▁dunkle	-10.2837
fälle	-10.2839
▁schnitt	-10.2844
▁ähnliche	-10.2849
if	-10.2854
schein	-10.2858
▁schlechten	-10.2861
▁start	-10.2861
nder	-10.2862
tte	-10.2868
▁gemeinsame	-10.2873
▁überlegen	-10.2874
▁innere	-10.2875
ologie	-10.2876
▁brachten	-10.2881
▁pu	-10.2884
▁zusätzlich	-10.2885
▁beinhaltet	-10.289
▁gestorben	-10.289
▁gewählt	-10.2891
fer	-10.2892
▁dunkel	-10.2896
▁häuser	-10.2897
nach	-10.2899
▁zunehmend	-10.2901
▁echten	-10.2904
tet	-10.2907
▁komm	-10.2909
▁soviel	-10.291
alen	-10.2914
▁beschlossen	-10.2917
▁schlafen	-10.2919
▁teilchen	-10.292
▁fähig	-10.2922
▁singen	-10.2924
har	-10.2925
od	-10.2934
▁wi	-10.2945
gesundheitswesen	-10.2948
▁maß	-10.295
▁australien	-10.2957
▁organismen	-10.2959
gruppen	-10.2963
▁berührt	-10.2967
▁molekül	-10.2969
▁ökosystem	-10.2977
wesen	-10.2992
▁werk	-10.2996
▁gemeinden	-10.2997
▁ansicht	-10.2998
fisch	-10.3007
▁elektrizität	-10.3024
▁automatisch	-10.3024
▁lebewesen	-10.3025
tre	-10.3025
▁webseite	-10.3025
▁aids	-10.3039
▁motor	-10.3043
▁lauf	-10.3052
war	-10.3052
ssen	-10.3064
▁cent	-10.3067
ron	-10.3076
ari	-10.3089
▁begrenzt	-10.3093
▁methoden	-10.3093
▁schwimmen	-10.3096
▁gefahren	-10.3097
netz	-10.3098
▁beschäftigen	-10.3105
▁linien	-10.3111
▁nase	-10.3111
▁abschluss	-10.3113
▁folgende	-10.3115
▁körpers	-10.3118
▁45	-10.3119
führt	-10.3122
▁verhaltens	-10.3127
▁industrielle	-10.3128
itt	-10.314
▁gehirne	-10.3143
▁operation	-10.3143
▁21.	-10.3145
▁tiefer	-10.3157
▁mexiko	-10.316
▁kombination	-10.3163
▁chemie	-10.3165
▁hi	-10.3176
?“	-10.3177
▁süd	-10.3179
▁komplexe	-10.3183
handel	-10.3186
▁vorne	-10.3188
fo	-10.319
wei	-10.32
▁überraschend	-10.32
▁kurs	-10.3205
▁schwarzen	-10.3205
▁generationen	-10.321
▁details	-10.322
▁wichtigen	-10.3225
▁fängt	-10.3228
▁anwenden	-10.3229
▁verbindet	-10.323
▁erwachsenen	-10.3232
▁geräusch	-10.325
▁effekt	-10.3251
▁di	-10.3253
film	-10.3256
▁beweise	-10.3261
▁garten	-10.3267
gebracht	-10.327
▁passen	-10.3281
▁brauchten	-10.3282
▁ur	-10.3285
▁drüben	-10.3297
▁george	-10.3297
▁entscheidend	-10.3304
▁tonnen	-10.3311
▁momentan	-10.3319
kel	-10.3319
maschine	-10.3321
▁vorfahren	-10.3322
setzt	-10.3323
effekt	-10.3324
▁umfeld	-10.3325
versorgung	-10.3325
▁wetter	-10.3326
wissenschaftler	-10.3328
▁einstein	-10.3331
ps	-10.3333
▁quelle	-10.3336
hilfe	-10.3337
▁beschloss	-10.334
ete	-10.3342
▁planet	-10.3342
▁fehl	-10.3345
▁ni	-10.3346
▁nigeria	-10.3352
▁gesichter	-10.3353
uch	-10.3354
sländern	-10.3356
wissenschaft	-10.3356
lauf	-10.3363
▁künstliche	-10.3363
▁internationalen	-10.3364
▁diskussion	-10.3366
▁nachts	-10.3366
▁erkennt	-10.3366
▁europäische	-10.3367
▁darstellen	-10.3367
▁steigt	-10.3371
▁viren	-10.3376
▁definieren	-10.3377
▁höre	-10.3379
▁derzeit	-10.3402
▁treten	-10.3403
▁kriegen	-10.3415
▁ga	-10.3416
▁sparen	-10.3423
▁gu	-10.3429
▁kirche	-10.3437
▁maßstab	-10.3437
▁korruption	-10.3437
brechen	-10.344
▁wohlstand	-10.3441
▁school	-10.3441
gabe	-10.3449
▁kurzen	-10.3453
▁wagen	-10.3464
▁persönliche	-10.3465
2-	-10.3465
stück	-10.3469
▁interessanter	-10.3469
▁annehmen	-10.347
▁britische	-10.3472
▁jahrzehnt	-10.3472
karte	-10.3478
▁har	-10.3485
▁wuchs	-10.3489
sätze	-10.349
▁arbeiter	-10.3499
▁reagiert	-10.3507
▁verdient	-10.3507
▁lebten	-10.351
▁gras	-10.3511
per	-10.3512
▁seltsam	-10.3515
ppe	-10.3518
▁emotionen	-10.3527
▁perfekte	-10.3537
▁ben	-10.3538
▁schuld	-10.3543
▁erd	-10.3546
gab	-10.3546
▁israel	-10.3553
▁beweisen	-10.3563
▁dach	-10.3566
▁real	-10.3572
▁erscheint	-10.3578
▁moralische	-10.3581
▁beispielsweise	-10.3581
▁nieder	-10.3584
▁bildet	-10.3585
▁patient	-10.3588
▁islam	-10.3589
▁buchstaben	-10.359
▁traditionellen	-10.359
▁instrument	-10.3594
▁ereignisse	-10.3598
satz	-10.3599
▁anteil	-10.3601
▁extra	-10.362
▁1.	-10.3628
▁global	-10.3628
▁ersetzen	-10.3629
▁student	-10.3629
zubringen	-10.3638
▁willen	-10.3645
▁zweifel	-10.3646
▁fasziniert	-10.3649
▁malaria	-10.3649
▁deutschland	-10.365
▁darunter	-10.365
▁jedenfalls	-10.3651
▁bedenken	-10.3654
▁setzte	-10.366
wissen	-10.366
ven	-10.3661
ley	-10.3664
▁lehren	-10.3669
▁schaden	-10.3671
▁toten	-10.3678
zugeben	-10.3678
politik	-10.368
▁nachbarn	-10.3687
▁architekten	-10.3693
sprozess	-10.3693
▁fälle	-10.3693
▁gelb	-10.3696
▁uni	-10.3701
▁bereiche	-10.3708
ib	-10.3715
▁schw	-10.3717
▁paul	-10.3717
band	-10.3717
ani	-10.3718
▁beteiligt	-10.3721
▁äußerst	-10.3721
▁ruhig	-10.3721
▁solange	-10.3722
▁aufzubauen	-10.3722
▁angesicht	-10.3722
▁spielzeug	-10.3729
elle	-10.3733
▁gelöst	-10.3739
▁akt	-10.374
▁schwierigkeiten	-10.3744
▁jung	-10.3744
▁zeitung	-10.3744
▁car	-10.3752
▁aufgebaut	-10.3752
0.000	-10.3754
▁erwachsene	-10.3759
▁spielte	-10.3764
▁respekt	-10.3769
▁sicherheits	-10.3773
▁besuchen	-10.3782
▁biologische	-10.3785
▁betroffen	-10.3794
▁irgendjemand	-10.3794
▁jährlich	-10.3794
▁pakistan	-10.3794
▁verfolgt	-10.3794
▁darstellung	-10.3795
▁and	-10.3801
▁freundin	-10.3809
▁verlust	-10.3811
▁sonnen	-10.3816
▁einiger	-10.3822
▁schätzen	-10.3825
▁staats	-10.3838
▁alternative	-10.384
▁zivilisation	-10.3844
▁versteckt	-10.3848
▁mehrheit	-10.385
▁kenia	-10.3856
▁em	-10.3861
▁harvard	-10.3867
▁vermitteln	-10.3867
▁heißen	-10.3873
▁verhältnis	-10.3873
▁allgemeinen	-10.3881
▁ruf	-10.3881
▁kabel	-10.3882
ni	-10.3886
▁weiße	-10.3891
▁weibliche	-10.3891
▁zieht	-10.3893
▁times	-10.3893
▁ergibt	-10.3899
eten	-10.3903
▁zeichnen	-10.3904
▁konzentriert	-10.3908
machen	-10.3912
▁enorm	-10.3916
est	-10.3924
▁rief	-10.3928
▁wal	-10.3931
▁quasi	-10.394
▁risiken	-10.3944
▁atem	-10.3945
▁vermeiden	-10.3946
▁lo	-10.3953
▁untersucht	-10.3953
nis	-10.3958
▁seid	-10.3967
jahr	-10.3969
▁aktion	-10.397
nimmt	-10.3972
▁tests	-10.3974
ehr	-10.3979
ai	-10.3982
▁satelliten	-10.3986
▁or	-10.3989
▁müssten	-10.3994
▁südafrika	-10.3998
▁ausstellung	-10.4001
▁wisst	-10.4015
▁lager	-10.4015
▁winter	-10.4016
▁dns	-10.4017
▁gebraucht	-10.4019
arm	-10.4019
▁haar	-10.4019
▁bus	-10.4025
▁wohn	-10.4028
▁stufe	-10.4028
▁lebendig	-10.4035
▁digitalen	-10.4038
▁lokale	-10.4054
▁zentrale	-10.4067
▁pflege	-10.4074
▁20.	-10.4078
▁zell	-10.4086
▁besorgt	-10.4089
▁gelebt	-10.4089
▁lächeln	-10.4089
▁entdeckte	-10.4097
▁werbung	-10.4097
▁löcher	-10.4098
▁ernsthaft	-10.41
▁kochen	-10.4101
▁gefallen	-10.411
▁gebeten	-10.4115
ort	-10.4116
▁schlau	-10.4119
▁verb	-10.4121
team	-10.4122
▁verwandelt	-10.4133
▁kulturen	-10.4136
cher	-10.4145
▁entstand	-10.4147
▁quadrat	-10.4163
▁lediglich	-10.4164
▁entfernung	-10.4164
▁fahrrad	-10.4164
▁dahinter	-10.4166
▁schwieriger	-10.4167
wissenschaften	-10.4172
▁versteht	-10.4172
▁vögel	-10.4174
▁geschenk	-10.4175
▁open	-10.4176
▁vorhersagen	-10.4193
▁willst	-10.4199
verhalten	-10.42
▁schlag	-10.4221
▁traurig	-10.4227
▁gewinn	-10.4228
▁entwicklungs	-10.4231
▁stärke	-10.4247
▁pol	-10.4251
bewegung	-10.4252
▁kredit	-10.4255
▁aufnahme	-10.4256
▁solcher	-10.4258
▁kurve	-10.426
▁verstehe	-10.426
cker	-10.4261
▁erhöht	-10.4266
▁ju	-10.4266
kle	-10.4266
▁bereichen	-10.4267
▁öffentlich	-10.4269
▁kannte	-10.427
▁geistes	-10.428
▁hinten	-10.4283
sein	-10.4284
▁element	-10.4287
▁brief	-10.4302
rate	-10.4303
▁zuhören	-10.4313
▁großmutter	-10.4317
▁scheinbar	-10.4317
▁leichter	-10.4323
▁stuhl	-10.433
schule	-10.433
▁ozeane	-10.4331
tieren	-10.4332
▁antwortete	-10.4333
▁kampagne	-10.4333
woher	-10.4333
▁fi	-10.4335
▁weltraum	-10.4338
.«	-10.4339
▁blumen	-10.4349
▁menschlicher	-10.4352
▁korallen	-10.4352
▁top	-10.4353
net	-10.4369
▁kriegs	-10.4376
▁untersuchung	-10.4381
▁erhielt	-10.4386
▁reduziert	-10.4393
▁stahl	-10.4393
stände	-10.4404
▁sh	-10.4405
▁situationen	-10.4406
▁schwere	-10.4408
▁strategie	-10.4412
▁bauten	-10.4414
wasser	-10.4415
anz	-10.4415
▁wirkt	-10.4419
ue	-10.4422
material	-10.4428
▁volk	-10.4428
ord	-10.4433
▁persönlichen	-10.4434
▁drauf	-10.4436
▁hai	-10.4445
chten	-10.4447
▁kreuz	-10.4449
▁heiß	-10.4449
weisen	-10.4451
▁geheimnis	-10.446
▁schiff	-10.4461
ang	-10.4461
▁teenager	-10.4471
▁entfernen	-10.4471
▁worauf	-10.4471
▁feststellen	-10.4473
▁organ	-10.4474
▁potential	-10.4478
▁anderson	-10.4482
▁atmen	-10.4484
▁definiert	-10.4485
▁metall	-10.4485
▁langer	-10.4487
▁blatt	-10.4488
▁freien	-10.449
kar	-10.4506
▁ne	-10.4506
▁beschrieben	-10.4509
▁aufnehmen	-10.4518
ex	-10.4523
spieler	-10.453
▁symbol	-10.4532
▁genetisch	-10.4533
▁beruf	-10.4539
▁ed	-10.454
▁herren	-10.454
▁kl	-10.454
▁theater	-10.4549
▁insbesondere	-10.4549
▁pfund	-10.4549
▁etc	-10.4549
▁darstellt	-10.4549
▁enthält	-10.4551
▁kongress	-10.4552
▁teilnehmer	-10.4552
▁gefällt	-10.4552
struktur	-10.4566
▁75	-10.4568
▁bemerkenswert	-10.4568
▁flach	-10.4569
▁anschaut	-10.4573
▁billig	-10.4581
▁blauen	-10.4582
▁ei	-10.4599
träge	-10.4618
▁interessen	-10.4621
▁riesen	-10.4628
▁schicksal	-10.4628
▁kreieren	-10.4628
▁dia	-10.4628
▁bedrohung	-10.4629
▁echtzeit	-10.4629
▁gespielt	-10.4632
▁debatte	-10.4634
▁vorzustellen	-10.4644
▁persönlichkeit	-10.4645
gegeben	-10.466
merk	-10.4665
▁intensiv	-10.4665
▁natürlichen	-10.4665
weit	-10.4669
schau	-10.467
▁kalt	-10.4672
gibt	-10.4675
▁vereint	-10.4679
▁stehe	-10.4684
hält	-10.4688
▁hierher	-10.4691
▁zufall	-10.4692
pro	-10.4695
arbeiten	-10.4695
▁erinnerungen	-10.4699
▁musiker	-10.4705
▁chemikalien	-10.4707
▁langweilig	-10.4707
▁wofür	-10.4712
▁präsentation	-10.4712
schalten	-10.4716
▁galaxie	-10.4718
▁grosse	-10.4734
funktion	-10.4745
▁süden	-10.4754
sta	-10.4761
▁gegend	-10.4761
age	-10.4762
▁wellen	-10.4764
▁veränderte	-10.4765
▁besseres	-10.4778
▁lokalen	-10.4782
▁meinte	-10.4783
▁bemerken	-10.4787
▁bietet	-10.4787
▁chicago	-10.4787
▁youtube	-10.4787
▁gegründet	-10.4787
▁stammzellen	-10.4788
▁dieselben	-10.4792
▁fabrik	-10.4795
▁is	-10.4814
▁teilweise	-10.4816
▁herein	-10.4821
▁achten	-10.4822
produktion	-10.4827
bezüglich	-10.4852
▁nasa	-10.4862
▁erfindung	-10.4863
▁dick	-10.487
que	-10.4874
▁liefern	-10.4874
bauen	-10.4875
▁zauber	-10.4877
▁tor	-10.488
▁einheit	-10.4884
▁blätter	-10.4887
▁berichten	-10.4888
▁weltkrieg	-10.489
▁übernehmen	-10.489
ap	-10.4894
rad	-10.4895
fähig	-10.4896
▁unfall	-10.4896
▁tausenden	-10.4897
▁belohnung	-10.4898
▁bildungs	-10.49
tür	-10.49
hey	-10.4901
▁seltsame	-10.4916
je	-10.4925
▁interaktion	-10.4932
▁moral	-10.4933
teile	-10.494
tor	-10.4942
▁standen	-10.4942
▁damen	-10.4944
schicht	-10.4944
▁charles	-10.4949
▁francisco	-10.4949
▁überwinden	-10.4949
▁akzeptieren	-10.4954
▁froh	-10.4956
chte	-10.4956
▁protein	-10.4957
▁bedarf	-10.4962
▁hallo	-10.4968
▁grünen	-10.4972
▁fernseh	-10.4973
▁si	-10.4974
▁senden	-10.4976
▁junger	-10.4976
▁vorteile	-10.4986
zt	-10.4996
▁geo	-10.5004
▁handel	-10.5007
▁unterricht	-10.5007
gemacht	-10.502
▁rennen	-10.5025
by	-10.5028
▁überraschung	-10.5031
▁investiert	-10.5031
▁wiederholt	-10.5031
▁kühl	-10.5032
▁2008	-10.5033
kal	-10.5036
▁bemerkte	-10.5037
▁lass	-10.5039
▁szene	-10.5043
▁doppelt	-10.5044
▁drücken	-10.5047
▁sinnvoll	-10.5048
▁grundlage	-10.505
▁brücke	-10.5052
▁nutzung	-10.5052
▁gebiete	-10.5054
▁bezeichnet	-10.5054
ebene	-10.5055
▁magie	-10.5061
▁nerven	-10.5064
▁glaubte	-10.5069
▁mc	-10.5075
▁winzig	-10.5076
▁anstelle	-10.5078
mut	-10.508
▁privat	-10.5093
▁rollen	-10.5109
▁erhöhen	-10.5114
press	-10.5115
▁heisst	-10.5117
▁au	-10.5122
▁sowas	-10.5123
▁as	-10.5127
▁organisiert	-10.5129
▁trinken	-10.5132
kopf	-10.5136
▁küste	-10.5137
▁alters	-10.5141
ide	-10.5143
▁umgeben	-10.5159
lage	-10.516
▁springen	-10.5161
▁my	-10.5163
▁wechseln	-10.517
▁streit	-10.5172
fang	-10.5183
▁23	-10.5184
▁statistiken	-10.5186
▁signale	-10.5189
▁einstellung	-10.519
▁digital	-10.5191
▁spezielle	-10.5196
▁getrennt	-10.5197
▁hieß	-10.5197
▁erweitern	-10.5197
▁gegenwart	-10.5197
▁grippe	-10.5197
▁gerechtigkeit	-10.5197
▁bibliothek	-10.5204
mäßig	-10.5206
▁fährt	-10.5207
▁kulturelle	-10.5211
▁unterrichten	-10.5213
▁lebe	-10.5213
▁gemein	-10.5219
▁21	-10.5236
▁feind	-10.524
▁besitzt	-10.5243
menge	-10.525
pt	-10.5252
zeug	-10.5254
▁afrikanischen	-10.5255
reichen	-10.5256
üsse	-10.5274
▁gl	-10.5275
▁trocken	-10.5281
▁baute	-10.5282
▁gemälde	-10.5284
▁wüste	-10.5291
fahrer	-10.5291
▁steve	-10.5292
einander	-10.5293
▁plattform	-10.5293
▁böse	-10.5294
▁th	-10.5294
▁zähne	-10.53
▁regierungs	-10.5304
▁resultat	-10.5305
▁fortschritte	-10.5314
▁verletzt	-10.5315
deck	-10.5319
▁schritte	-10.532
bücher	-10.5323
dollar	-10.5324
▁stern	-10.5329
recht	-10.5339
▁ges	-10.5341
stellt	-10.5344
▁weißt	-10.5346
▁lau	-10.5349
▁anfing	-10.5353
bruch	-10.536
▁fossil	-10.5365
▁klassenzimmer	-10.5366
▁literatur	-10.5366
▁terrorismus	-10.5366
last	-10.5368
▁knie	-10.5369
▁spektrum	-10.5372
▁funk	-10.5374
▁milch	-10.5375
▁cha	-10.5382
▁komplex	-10.5382
▁todes	-10.5385
0	-10.5392
▁kor	-10.5393
▁op	-10.5415
▁wertvoll	-10.5418
▁aktivitäten	-10.5425
▁ingenieur	-10.5427
▁momente	-10.5438
▁lektion	-10.5439
bereit	-10.5447
ball	-10.5449
▁russland	-10.5451
▁kanada	-10.5451
▁gewann	-10.5451
▁erneut	-10.5451
▁nachbarschaft	-10.5452
tech	-10.5454
gelegt	-10.5455
▁geschlossen	-10.5458
▁hotel	-10.5459
▁kostenlos	-10.5459
▁großartigen	-10.5463
▁wunderschöne	-10.5464
▁jahrzehnten	-10.5467
▁kugel	-10.5467
▁anführer	-10.5474
▁roman	-10.5475
▁billionen	-10.5475
▁bezeichnen	-10.5475
▁basierend	-10.5476
▁stamm	-10.5477
▁chemische	-10.5477
▁ursprünglich	-10.5479
▁schwierige	-10.5486
haltung	-10.5488
treffen	-10.549
▁jener	-10.5495
▁farb	-10.5498
▁zug	-10.5503
tum	-10.5505
iti	-10.5512
denken	-10.5514
▁wora	-10.5516
▁wundervolle	-10.5516
▁blind	-10.5524
▁enden	-10.5526
▁verrückte	-10.553
schlagen	-10.5532
▁realen	-10.5535
▁speziellen	-10.5536
▁iphone	-10.5537
▁michael	-10.5537
▁merken	-10.5538
▁james	-10.5538
are	-10.5538
unter	-10.554
▁emotionale	-10.5542
▁abfall	-10.5545
▁ausgebildet	-10.5547
▁absicht	-10.555
▁folie	-10.5557
▁kreativ	-10.5565
ät	-10.5567
▁innovationen	-10.5568
gänge	-10.5569
▁weh	-10.5569
zustellen	-10.5569
▁soweit	-10.558
les	-10.5586
▁behaupten	-10.5587
fass	-10.5593
tes	-10.5602
▁at	-10.5603
▁eigen	-10.5609
▁tradition	-10.5617
aber	-10.5618
▁19.	-10.5619
▁gottes	-10.562
▁eröffnet	-10.5625
▁regelmäßig	-10.5625
▁tom	-10.5625
▁general	-10.5625
zeichen	-10.5626
▁2010	-10.5626
kletter	-10.5626
▁human	-10.5626
fahrt	-10.5627
▁exakt	-10.5628
selben	-10.5629
▁teleskop	-10.563
▁weiterer	-10.5633
▁ansieht	-10.5637
▁bekomme	-10.5639
lösen	-10.5642
▁funktionierte	-10.5649
▁mengen	-10.565
▁elefanten	-10.5655
bank	-10.5657
▁wolken	-10.5659
▁zweimal	-10.566
▁11.	-10.5661
▁führungs	-10.5663
▁rufen	-10.5668
▁dauerte	-10.5669
▁manchen	-10.5673
sprache	-10.5673
▁wen	-10.5678
linie	-10.5681
▁gedächtnis	-10.5693
scha	-10.5695
▁grundlegend	-10.5703
▁kapitel	-10.5712
▁löst	-10.5712
▁dargestellt	-10.5712
▁speziell	-10.5715
iff	-10.5717
▁angeles	-10.5719
▁stieg	-10.5721
arbeiter	-10.5723
▁aufgewachsen	-10.5724
▁metapher	-10.5731
▁durchführen	-10.5733
tru	-10.5735
▁fe	-10.5736
▁rock	-10.5737
design	-10.5741
▁show	-10.5741
gie	-10.5743
schutz	-10.5746
losen	-10.5753
▁interessantes	-10.5758
geschwindigkeit	-10.5759
▁tanzen	-10.576
▁che	-10.5762
▁baut	-10.5762
nehmen	-10.5763
regen	-10.5775
▁wirtschaftlich	-10.5776
schnitt	-10.578
▁sternen	-10.5781
▁geräusche	-10.5788
ionen	-10.5793
▁inter	-10.5794
spielen	-10.5795
▁fokus	-10.58
▁weshalb	-10.5801
▁erforscht	-10.5801
gut	-10.5801
red	-10.5802
▁hinunter	-10.5804
▁mio	-10.5807
▁prinzipien	-10.5812
pri	-10.5813
gerät	-10.5814
▁geteilt	-10.5816
▁zählt	-10.5817
▁verglichen	-10.5819
▁wieviel	-10.582
▁lügen	-10.5822
▁entsprechend	-10.5824
▁blog	-10.5824
▁langsamer	-10.5826
▁aussage	-10.5829
▁fehlt	-10.5829
▁mark	-10.5832
▁mangel	-10.5836
▁seht	-10.5842
▁ingenieure	-10.5847
lief	-10.5851
gi	-10.5858
▁["	-10.5864
▁gra	-10.5864
sinn	-10.5873
▁ring	-10.5876
▁annahme	-10.5877
▁proteine	-10.5889
▁verschwunden	-10.589
▁verwendung	-10.589
é	-10.589
▁vorbereitet	-10.589
▁stoppen	-10.589
▁marketing	-10.589
▁kümmert	-10.589
▁mächtig	-10.5894
▁verbrechen	-10.5897
▁bekannten	-10.5905
▁wände	-10.5907
hafte	-10.5908
▁umher	-10.5908
zelle	-10.5913
▁einfaches	-10.5916
▁aktuelle	-10.5919
tim	-10.5927
▁mitglieder	-10.5935
laufen	-10.5937
▁phase	-10.5937
▁kom	-10.5943
▁miss	-10.5943
and	-10.5947
▁qu	-10.5948
▁ereignis	-10.5955
ind	-10.5955
▁besucht	-10.596
▁600	-10.5961
will	-10.5964
za	-10.5965
▁nu	-10.5967
«	-10.5967
▁zentral	-10.5968
▁tee	-10.5969
▁ohren	-10.5969
lager	-10.5973
▁geburtstag	-10.5976
▁transport	-10.5977
▁berge	-10.5978
▁solar	-10.598
▁ursprung	-10.598
▁organisieren	-10.598
▁gesichts	-10.5981
▁doktor	-10.5985
▁presse	-10.5986
▁trug	-10.5987
holen	-10.5989
▁knapp	-10.5996
teilen	-10.5999
▁flügel	-10.6001
▁sorge	-10.6006
▁nachhaltige	-10.6008
▁sms	-10.6012
▁beibringen	-10.6012
▁bip	-10.6014
▁räume	-10.6025
▁berichtet	-10.6031
▁hey	-10.6037
▁dichte	-10.604
▁stücke	-10.6042
▁fingen	-10.6049
▁unglaublichen	-10.6049
▁schreckliche	-10.605
cy	-10.6053
▁dis	-10.6058
▁besuchte	-10.606
▁sitz	-10.6061
▁berühmt	-10.6068
tischen	-10.6071
▁geholfen	-10.6071
▁gekauft	-10.6071
▁inspiration	-10.6071
▁mittlerweile	-10.6071
▁genügend	-10.6071
▁rational	-10.6072
▁entgegen	-10.6072
▁dichter	-10.6074
▁infiziert	-10.6077
▁gesunde	-10.6077
▁skelett	-10.6078
ruf	-10.6083
▁pri	-10.6084
▁chancen	-10.6085
▁schlug	-10.6085
erin	-10.609
▁griff	-10.6094
▁rum	-10.6095
▁ausgesetzt	-10.6096
▁tu	-10.61
▁22	-10.6101
▁armee	-10.6104
▁elektronische	-10.6105
▁hacker	-10.6108
▁gesamt	-10.6109
▁vorstellungen	-10.6113
▁höchst	-10.6114
leiter	-10.6127
▁starben	-10.6134
wi	-10.6134
▁samen	-10.6138
▁letzter	-10.6141
▁decke	-10.6141
▁aspekte	-10.6144
▁ag	-10.6144
▁eu	-10.6147
▁erlebnis	-10.6151
▁programme	-10.6153
▁bur	-10.6154
kreis	-10.6157
wechsel	-10.6159
▁zufrieden	-10.6161
▁wütend	-10.6163
▁unmittelbar	-10.6163
▁überlebt	-10.6163
▁schnee	-10.6163
▁genießen	-10.617
▁klug	-10.6171
▁männchen	-10.6173
▁eier	-10.6174
gh	-10.6177
▁we	-10.6177
▁falschen	-10.6179
▁nannten	-10.6182
▁gebrochen	-10.6182
▁verkauf	-10.6186
▁99	-10.6187
▁analyse	-10.6187
▁jahrzehnte	-10.6192
▁mil	-10.6195
▁mai	-10.6198
▁wenigstens	-10.6201
schluss	-10.6204
stelle	-10.6213
▁erkannt	-10.6218
▁weile	-10.6219
app	-10.6235
▁dumm	-10.6244
▁fantastische	-10.6244
▁insgesamt	-10.6255
▁sonnenlicht	-10.6256
▁strand	-10.6256
▁gelangt	-10.6257
▁nachhaltigkeit	-10.6257
▁world	-10.6259
▁symmetrie	-10.626
▁teufel	-10.6262
▁hinauf	-10.6265
▁versagen	-10.627
▁gemeinsamen	-10.627
▁betrieb	-10.6271
▁hängen	-10.6276
gg	-10.6277
llen	-10.6279
▁aufbau	-10.6285
▁steuer	-10.6291
▁trans	-10.6293
▁märkte	-10.6295
▁ernährung	-10.6295
stellungskraft	-10.6298
gekommen	-10.6301
fällt	-10.6303
▁zeigten	-10.6304
▁liebte	-10.6305
▁mode	-10.6309
50	-10.6322
▁fein	-10.6332
▁wärme	-10.6332
▁gerettet	-10.6349
▁wikipedia	-10.6349
▁fantasie	-10.6349
▁kaputt	-10.6349
▁schweden	-10.6349
▁zerstörung	-10.6349
▁paris	-10.6349
▁asien	-10.635
▁adam	-10.635
▁hinzufügen	-10.635
▁beachten	-10.635
▁spenden	-10.635
▁2007	-10.6351
▁enthalten	-10.6352
▁wovon	-10.6352
▁verdammt	-10.6352
▁trafen	-10.6355
haben	-10.6356
▁hy	-10.6357
▁sichtweise	-10.6359
▁hielten	-10.636
▁komplizierte	-10.6361
▁betreiben	-10.6362
sel	-10.6364
▁komplexen	-10.6369
▁heutige	-10.637
▁physiker	-10.6376
stoß	-10.638
▁linke	-10.6381
▁chef	-10.6382
▁erwartungen	-10.6383
▁wiederholen	-10.6385
▁ideal	-10.6386
▁ph	-10.6386
kor	-10.6389
▁programmieren	-10.6393
▁werbe	-10.6405
zunehmen	-10.6414
▁trick	-10.6417
▁friedens	-10.6419
tung	-10.6432
▁instrumente	-10.6434
▁studiert	-10.6436
▁konsum	-10.6439
▁aufgeregt	-10.6443
▁veröffentlichen	-10.6443
▁boston	-10.6443
▁vorsichtig	-10.6443
▁nervös	-10.6443
▁verliebt	-10.6444
▁1000	-10.6446
▁betrieben	-10.6448
▁heimat	-10.645
▁futter	-10.6451
schauen	-10.6452
▁physische	-10.6453
▁detail	-10.6455
star	-10.6458
kam	-10.6462
▁gemeinschaften	-10.6463
vier	-10.6474
▁gering	-10.6477
▁regionen	-10.6477
bildung	-10.6477
par	-10.6478
▁jugend	-10.6479
lan	-10.6479
▁träumen	-10.6482
bilder	-10.6483
▁vergangenen	-10.6488
▁logisch	-10.6489
zeichnung	-10.6495
▁schicht	-10.6496
off	-10.6496
▁afrikas	-10.6499
▁lebenden	-10.6502
▁schauspieler	-10.6503
▁bein	-10.6515
▁intelligente	-10.6517
▁fahr	-10.6531
▁halt	-10.6532
tun	-10.6533
▁schreibt	-10.6534
tritt	-10.6536
▁begegnen	-10.6538
▁nachgedacht	-10.6538
▁anonym	-10.6538
▁frankreich	-10.6539
▁bord	-10.6541
▁schl	-10.6542
▁potenzial	-10.6542
▁kreative	-10.6543
ay	-10.6543
▁noten	-10.6546
▁schuhe	-10.6548
▁spüren	-10.655
▁traditionelle	-10.655
gelassen	-10.6551
▁laptop	-10.6557
▁führten	-10.6557
▁aufnahmen	-10.6557
▁restaurant	-10.6563
eis	-10.6566
▁folgenden	-10.6571
▁führer	-10.6572
▁nationale	-10.658
▁drittens	-10.6587
▁harte	-10.659
körper	-10.6592
▁hörten	-10.6592
geschäft	-10.6592
ina	-10.6595
zieh	-10.66
▁quellen	-10.6605
▁deiner	-10.6607
▁verkehr	-10.661
▁voneinander	-10.6612
tat	-10.662
station	-10.6622
▁sc	-10.6622
öl	-10.6623
ial	-10.6628
▁cl	-10.6634
behörde	-10.6634
▁bewirken	-10.6634
▁gemüse	-10.6634
▁gelehrt	-10.6634
▁robert	-10.6635
▁wünschte	-10.6636
▁vielmehr	-10.6638
▁status	-10.6642
▁budget	-10.6643
▁epidemie	-10.665
▁tour	-10.6653
▁suchte	-10.6653
▁$	-10.6654
▁serie	-10.6654
▁sexuelle	-10.6659
ative	-10.6661
▁streben	-10.6662
hör	-10.6663
▁ger	-10.6666
kund	-10.6668
▁27	-10.6677
▁fremden	-10.6677
▁lese	-10.6677
▁kindes	-10.6679
▁planen	-10.6686
▁end	-10.6687
▁lehr	-10.6688
▁trat	-10.6689
▁ski	-10.669
▁heilen	-10.6691
▁offenen	-10.6696
▁kap	-10.6705
ehe	-10.6707
▁bemerkenswerte	-10.6708
▁relevant	-10.6712
▁ewig	-10.6726
ziel	-10.6729
▁unsichtbar	-10.6731
▁depression	-10.6731
▁university	-10.6731
▁erweitert	-10.6731
▁ärger	-10.6731
▁inzwischen	-10.6731
▁unterwegs	-10.6732
▁denkweise	-10.6732
▁half	-10.6732
▁letztlich	-10.6733
▁liefert	-10.6734
▁hinterlassen	-10.6734
▁verbreitung	-10.6737
leute	-10.6737
▁abgesehen	-10.6738
▁animation	-10.6739
▁diagnose	-10.6739
▁afrikaner	-10.6741
▁100.000	-10.6743
▁neugierig	-10.675
produkt	-10.6755
rang	-10.6763
▁heben	-10.6765
▁scheitern	-10.6783
gu	-10.6783
▁wette	-10.6795
nie	-10.6805
▁dankbar	-10.6806
▁gewisser	-10.6808
▁hör	-10.6809
"]	-10.681
▁angriff	-10.6812
fluss	-10.6813
▁wirken	-10.6818
▁mittels	-10.6819
▁besessen	-10.6828
▁gesammelt	-10.683
▁chaos	-10.6831
▁gps	-10.6831
▁nadel	-10.6833
▁gebrauch	-10.6833
▁irgendein	-10.6833
▁herstellung	-10.6834
▁offene	-10.6834
▁tätigkeit	-10.6835
▁verschieden	-10.6835
gefühl	-10.6837
▁unendlich	-10.6838
▁bl	-10.684
▁beenden	-10.6841
▁kleidung	-10.6843
▁korrekt	-10.6845
▁heil	-10.685
komm	-10.6852
▁produktiv	-10.686
▁dramatisch	-10.6866
▁winzige	-10.6883
entwicklung	-10.6883
okay	-10.6887
▁fläche	-10.6888
▁spannend	-10.6895
▁arabischen	-10.6897
▁glaubten	-10.69
▁stift	-10.6911
uck	-10.6916
▁derselben	-10.6919
▁anscheinend	-10.6928
▁bekämpfen	-10.6929
▁versorgen	-10.6929
▁irgendwelche	-10.6929
▁2005	-10.6932
kurs	-10.6933
▁gipfel	-10.6934
▁womit	-10.6937
▁gestaltet	-10.6938
▁witz	-10.6939
▁sequenz	-10.6946
gas	-10.6948
▁nutzer	-10.6949
▁verfahren	-10.6949
▁anstieg	-10.695
▁faktor	-10.6951
▁zeitraum	-10.6952
▁anruf	-10.6963
▁geb	-10.6967
preis	-10.6968
▁cm	-10.6979
▁geheim	-10.698
▁einst	-10.6983
▁tiefen	-10.6997
karten	-10.6999
▁höchsten	-10.6999
▁wartet	-10.7002
tier	-10.7003
nicht	-10.7004
ya	-10.7008
▁wachstums	-10.701
▁legt	-10.7012
uß	-10.7014
▁ergeben	-10.7016
▁nachhaltig	-10.7016
▁weisheit	-10.7028
▁andererseits	-10.7029
▁verliert	-10.7029
▁verlangt	-10.7029
▁erfassen	-10.7029
▁nebenbei	-10.7029
sammel	-10.703
▁1.000	-10.7033
▁zusätzliche	-10.7037
lte	-10.7037
rechte	-10.7039
▁studio	-10.7043
▁population	-10.7043
auch	-10.7043
▁sektor	-10.705
gegen	-10.706
▁frühe	-10.7061
schuss	-10.7062
▁vorhin	-10.7062
boot	-10.7066
▁einiges	-10.7067
▁batterie	-10.7069
kat	-10.7073
▁schlimmste	-10.7074
▁entscheidende	-10.7076
fragen	-10.7085
männer	-10.7088
▁landen	-10.7093
▁öffnet	-10.7093
▁widerstand	-10.7101
bär	-10.7105
▁klinische	-10.711
erei	-10.7111
▁führung	-10.7118
▁kreativen	-10.7118
prozess	-10.7121
▁geschäfte	-10.7122
▁erdbeben	-10.7129
▁lebenserwartung	-10.7129
▁original	-10.7129
▁ägypten	-10.7129
▁ära	-10.713
▁kongo	-10.7133
▁lokal	-10.7135
▁geschützt	-10.7137
▁dunklen	-10.7141
▁männliche	-10.7141
▁wow	-10.7142
▁taucht	-10.7158
rb	-10.7158
mit	-10.7159
▁wem	-10.716
▁besonderen	-10.7164
▁leiter	-10.7165
▁eingeladen	-10.7167
gebiet	-10.7167
▁konsequenzen	-10.7167
▁älteren	-10.7168
▁feiern	-10.7173
▁vierte	-10.718
▁krieges	-10.718
▁technische	-10.7183
sprit	-10.7184
▁umzugehen	-10.719
car	-10.719
quot	-10.7197
dan	-10.7205
▁homo	-10.7213
tzt	-10.7213
▁kriege	-10.7216
probleme	-10.7217
artige	-10.7226
▁schlussendlich	-10.7232
▁street	-10.7232
▁hitze	-10.7232
▁erfinder	-10.7232
▁anpassen	-10.7232
▁juni	-10.7232
ou	-10.7233
▁wahrnehmen	-10.7233
muster	-10.7235
▁begreifen	-10.7236
▁positiv	-10.7237
▁geschmack	-10.7237
▁leer	-10.7238
▁verursachen	-10.7243
▁bg	-10.7244
▁interview	-10.7248
▁kopie	-10.725
▁gespräche	-10.7253
ständig	-10.7262
▁dauern	-10.7264
tiert	-10.7265
dienst	-10.7274
▁te	-10.7275
äre	-10.7284
▁bericht	-10.7285
▁wissens	-10.7286
stadt	-10.7289
ordnung	-10.729
flug	-10.7294
▁mitnehmen	-10.7297
▁entdeckungen	-10.7297
▁handys	-10.7298
▁eingeführt	-10.7307
▁dimensionen	-10.7311
unwahrscheinlich	-10.7322
▁staatliche	-10.7325
▁weltweiten	-10.7325
swert	-10.7328
▁konfrontiert	-10.7335
▁brustkrebs	-10.7335
▁erfüllt	-10.7335
▁pollen	-10.7336
▁verblüffend	-10.7336
▁angeht	-10.7337
▁bla	-10.7338
▁bu	-10.7338
lösung	-10.7339
▁obama	-10.7339
▁air	-10.7339
▁stille	-10.7341
▁algorithmen	-10.7343
▁machst	-10.7345
▁schlimm	-10.7347
▁staub	-10.7347
▁erfuhr	-10.7349
▁partei	-10.7353
▁ruhe	-10.7355
one	-10.7355
▁box	-10.7359
▁fahrzeug	-10.7361
▁unver	-10.7366
▁kognitive	-10.7382
züge	-10.7392
▁leiten	-10.7401
▁weich	-10.7403
kehr	-10.7408
▁schauten	-10.7411
▁grau	-10.7422
well	-10.7423
▁vieles	-10.7428
▁erklärte	-10.7432
▁ober	-10.7434
ding	-10.7435
▁komplexer	-10.7436
▁patent	-10.7438
▁higgs	-10.7439
▁integriert	-10.7439
▁psychologie	-10.7439
▁nuklear	-10.7439
▁wirksam	-10.7439
▁haiti	-10.7441
▁2009	-10.7441
isches	-10.7441
▁stämme	-10.7444
▁illusion	-10.7445
▁fair	-10.7446
▁eigenschaft	-10.7447
▁heiße	-10.7449
▁chinesen	-10.745
▁niveau	-10.7455
val	-10.7459
▁klassische	-10.7459
▁saal	-10.7463
▁verlauf	-10.7468
▁wenden	-10.7472
▁schulter	-10.7474
yo	-10.7482
▁0	-10.7486
▁auftreten	-10.7488
kette	-10.7491
▁gelassen	-10.7492
▁dienen	-10.7493
▁65	-10.7497
minister	-10.7502
fliegen	-10.7503
verkehr	-10.7504
liches	-10.7515
▁wichtiges	-10.7515
uss	-10.7526
gesetzt	-10.7526
▁argument	-10.7531
istisch	-10.7532
▁ähnliches	-10.7532
▁brach	-10.7535
grad	-10.7536
▁wunderbaren	-10.7543
▁frank	-10.7544
streck	-10.7544
▁ghana	-10.7544
▁motivation	-10.7544
▁bedroht	-10.7544
▁lächerlich	-10.7544
▁zurückkehren	-10.7544
▁klavier	-10.7544
▁erfüllen	-10.7545
▁island	-10.7545
▁nano	-10.7548
▁radikal	-10.7559
▁ältere	-10.756
▁mr	-10.7563
▁schätzung	-10.7563
▁wirkliche	-10.7576
▁zurecht	-10.7577
ßt	-10.7585
▁oberen	-10.7587
▁mutig	-10.7587
▁grundlegenden	-10.7588
▁dreidimensional	-10.7589
▁flagge	-10.7589
▁fremde	-10.7599
theorie	-10.76
liebe	-10.7616
▁kameras	-10.7617
▁gezogen	-10.7618
baren	-10.7621
▁reaktionen	-10.7621
▁kaufte	-10.763
neu	-10.7644
▁min	-10.7647
▁fahrer	-10.7649
▁antibiotika	-10.765
▁ernähren	-10.765
▁thomas	-10.765
▁rechner	-10.765
▁befreien	-10.7651
▁beendet	-10.7651
▁jegliche	-10.7651
▁bibel	-10.7651
▁dunkelheit	-10.7652
▁berechnen	-10.7654
▁kuh	-10.7654
▁befehl	-10.7656
stätte	-10.7657
▁ungleichheit	-10.7657
▁ungewöhnlich	-10.7657
▁entwurf	-10.7658
▁wasserstoff	-10.7658
sweise	-10.766
zer	-10.7664
sort	-10.7667
▁faktoren	-10.7668
▁marken	-10.7668
▁stock	-10.7671
▁niemanden	-10.7674
▁terroristen	-10.7674
▁mama	-10.7674
▁lebende	-10.7681
▁teams	-10.7684
▁quer	-10.7687
▁magische	-10.7692
wissenschaftlich	-10.7692
▁afrikanische	-10.7693
▁vorschlag	-10.77
▁dh	-10.77
line	-10.7703
firma	-10.7704
▁stil	-10.7707
nk	-10.7707
▁falten	-10.7708
mails	-10.7713
▁brechen	-10.7715
kräfte	-10.7715
▁haie	-10.7715
frage	-10.7715
▁gegenden	-10.7722
▁beton	-10.7722
▁tauchen	-10.7724
▁ausgeben	-10.7728
▁dutzend	-10.7731
▁symptome	-10.7731
▁schönes	-10.7733
▁bier	-10.7737
srate	-10.7741
▁einzigartig	-10.7751
▁goldene	-10.7754
▁mathematiker	-10.7755
▁gro	-10.7758
▁bedeutsam	-10.7758
▁humor	-10.7758
▁weibchen	-10.7758
▁optimistisch	-10.7768
▁fo	-10.7769
▁unternehmens	-10.7773
▁berühren	-10.7774
▁fotografiert	-10.7777
▁stoff	-10.7779
blick	-10.778
▁theorien	-10.778
▁vorträge	-10.7783
▁anzusehen	-10.7786
▁trend	-10.7786
▁technischen	-10.7792
▁wünsche	-10.7793
▁hyper	-10.7796
▁gel	-10.7798
gründe	-10.7799
▁sy	-10.78
legt	-10.7806
▁mathematische	-10.7808
▁juli	-10.7814
▁meister	-10.7815
▁richtungen	-10.7815
▁center	-10.7819
▁versorgung	-10.7823
fache	-10.7831
▁gesetzt	-10.7833
▁gebäuden	-10.7837
▁grossen	-10.7839
▁niedrig	-10.7841
▁taschen	-10.7844
▁änderungen	-10.7845
mmen	-10.7848
▁besitz	-10.7858
ellen	-10.7861
▁pat	-10.7862
gestellt	-10.7867
▁dazwischen	-10.7867
▁einwohner	-10.7867
▁gezwungen	-10.7867
▁januar	-10.7867
▁vergnügen	-10.7867
▁medium	-10.7867
▁kreiert	-10.7867
▁herrscht	-10.7867
▁polio	-10.7867
▁neigen	-10.7869
▁hinblick	-10.787
▁yorker	-10.7872
▁impuls	-10.7872
▁spannung	-10.7879
▁ländlichen	-10.7882
▁vorwärts	-10.7884
ana	-10.7888
▁beigebracht	-10.789
▁nachfrage	-10.7891
▁sk	-10.7892
▁katze	-10.7897
▁umso	-10.7899
fu	-10.79
▁chinesisch	-10.7901
tiere	-10.7909
lla	-10.7913
▁bedeutete	-10.7919
▁exponentiell	-10.7919
▁stiftung	-10.792
▁pla	-10.7927
▁biologischen	-10.7932
größe	-10.7932
geführt	-10.7934
▁fliege	-10.7945
▁eigentliche	-10.7947
▁komisch	-10.7951
▁schmerzen	-10.7955
▁autor	-10.7956
strahl	-10.7963
▁zukünftige	-10.7966
▁umgekehrt	-10.7977
▁gemessen	-10.7977
▁bedeckt	-10.7977
▁privatsphäre	-10.7977
▁ausgewählt	-10.7977
▁schief	-10.7977
▁gleichgewicht	-10.7978
▁hindurch	-10.7979
▁beeindruckend	-10.7982
▁weltbevölkerung	-10.7982
▁science	-10.7983
▁nahrungs	-10.7985
▁summe	-10.7987
▁dienst	-10.7987
▁verwandt	-10.7989
▁leber	-10.7994
▁altern	-10.7994
▁level	-10.7999
ies	-10.8002
▁empfinden	-10.8003
▁achse	-10.8005
▁heiraten	-10.8006
▁konflikte	-10.801
▁technologische	-10.8011
▁änderte	-10.8011
▁computern	-10.8014
▁schweine	-10.8018
▁reicher	-10.8029
▁allgemeine	-10.803
▁übergang	-10.8038
▁geschlechts	-10.8051
▁rauch	-10.8053
▁gebildet	-10.8056
verbrauch	-10.8061
▁kleinere	-10.8062
zuhalten	-10.8062
▁hilfs	-10.8066
tur	-10.8068
▁meere	-10.8071
▁liebt	-10.8084
▁gegenwärtig	-10.8088
▁gestartet	-10.8088
▁microsoft	-10.8088
▁ungeheuer	-10.8088
▁vagina	-10.8088
▁beschreibt	-10.8088
▁hässlich	-10.8088
▁identifizieren	-10.8088
▁apple	-10.8094
▁disziplin	-10.8095
▁lu	-10.8096
▁schlacht	-10.8096
oc	-10.8103
stern	-10.8106
menschen	-10.811
treten	-10.811
▁statistik	-10.8112
▁komponenten	-10.8119
▁videospiele	-10.8121
▁sag	-10.8124
▁vo	-10.8127
ford	-10.813
eine	-10.8131
▁ausmachen	-10.8131
▁tra	-10.8136
▁wälder	-10.8136
▁handlung	-10.8137
20	-10.8138
schläge	-10.8139
▁nahen	-10.8147
▁beides	-10.8149
▁starken	-10.8154
▁umständen	-10.8154
eil	-10.8157
gemeinschaft	-10.8158
▁bohr	-10.8158
netzwerk	-10.8159
▁eingebaut	-10.8163
ax	-10.8163
▁inspirieren	-10.8164
ika	-10.8169
▁wahlen	-10.8171
punkte	-10.8173
▁speicher	-10.8173
▁investitionen	-10.8174
vo	-10.8174
rus	-10.8179
▁para	-10.8181
▁sub	-10.8182
▁zurückgehen	-10.8183
▁politisch	-10.8183
▁mess	-10.8187
▁van	-10.8189
▁starr	-10.819
▁flächen	-10.8191
▁bas	-10.8193
krise	-10.8195
stell	-10.8197
▁funktionen	-10.8199
”	-10.82
▁analysieren	-10.82
▁öfter	-10.82
▁autismus	-10.82
▁1990	-10.82
▁sorgt	-10.8201
▁aussah	-10.8201
▁drehte	-10.8203
▁abenteuer	-10.8203
▁ballon	-10.8203
▁gletscher	-10.8204
▁glücklicher	-10.8212
▁brüder	-10.8213
▁treiben	-10.8214
tal	-10.8218
▁pause	-10.8219
▁dame	-10.8219
trick	-10.8219
mein	-10.822
▁verbesserung	-10.822
teressanterweise	-10.8222
▁angebot	-10.8226
▁haare	-10.8227
▁bedeutende	-10.8229
▁organe	-10.8238
▁könne	-10.824
▁pre	-10.8243
▁schwach	-10.8243
▁marke	-10.8243
lern	-10.8244
weil	-10.8245
▁ausmacht	-10.8251
▁unglücklich	-10.8252
schreiben	-10.8254
▁finanziert	-10.8254
▁dient	-10.8256
▁verschiedener	-10.8269
burg	-10.827
▁schaue	-10.8271
ash	-10.8271
straße	-10.8272
▁hol	-10.8272
▁wozu	-10.8275
▁wünschen	-10.8277
kosten	-10.828
▁male	-10.8289
▁bahn	-10.8291
▁ausnahme	-10.8293
▁höchste	-10.8293
wärts	-10.8297
ac	-10.8297
▁nordamerika	-10.8298
win	-10.83
▁pferd	-10.8309
▁geistige	-10.8313
▁repräsentiert	-10.8314
▁gefährdet	-10.8314
▁röntgen	-10.8314
▁neuigkeiten	-10.8314
▁1960	-10.8314
▁nahrungsmittel	-10.8315
▁prozesse	-10.8317
▁höhepunkt	-10.8318
▁jenen	-10.8324
▁flüssigkeit	-10.8324
▁explosion	-10.8326
▁pilot	-10.8329
▁überlegt	-10.834
jähriger	-10.8348
▁sw	-10.8349
▁ehre	-10.8357
see	-10.8357
▁gesunden	-10.8361
tschaftswachstum	-10.8368
▁ersetzt	-10.8371
tausend	-10.8378
▁schlechtes	-10.8381
quelle	-10.8384
▁hä	-10.8385
gehalten	-10.8398
▁quanten	-10.8399
▁einrichtungen	-10.8404
drücke	-10.8408
▁32	-10.841
▁islamische	-10.8411
▁250	-10.8412
▁saubere	-10.8416
zahlen	-10.8416
▁straf	-10.8422
hören	-10.8427
▁alkohol	-10.8429
▁professionelle	-10.8429
▁reparieren	-10.8429
▁ökonomen	-10.8429
▁angepasst	-10.8429
▁stirbt	-10.843
▁hypothese	-10.8431
▁elektro	-10.8431
▁scham	-10.8434
▁ignorieren	-10.8435
▁rezept	-10.8436
eur	-10.8437
▁erfand	-10.8439
▁protest	-10.8443
▁kilo	-10.8444
▁wunderschön	-10.8446
▁verstecken	-10.8449
▁dicht	-10.8452
▁verteilung	-10.846
▁sensoren	-10.8468
iges	-10.8469
▁übersetzt	-10.847
▁preise	-10.8473
▁gehör	-10.8475
werfen	-10.8475
▁philosophie	-10.8476
▁pflanze	-10.8478
▁private	-10.8478
▁diesmal	-10.8485
▁wechsel	-10.8496
▁it	-10.8497
▁muskel	-10.8499
▁angehen	-10.8509
▁leit	-10.8515
pflanzen	-10.8516
zieht	-10.852
▁interessanten	-10.8522
▁proben	-10.8527
san	-10.8533
füll	-10.8535
▁jüngste	-10.8541
bin	-10.8542
▁kämpft	-10.8545
▁geeignet	-10.8545
▁gewöhnt	-10.8545
▁jenseits	-10.8545
▁vielfältig	-10.8545
▁organismus	-10.8546
▁hassen	-10.8547
▁diabetes	-10.8549
▁gründete	-10.855
▁tempo	-10.8552
atur	-10.8552
▁song	-10.8553
▁kapitalismus	-10.8555
▁kritische	-10.8564
▁erwähnen	-10.8565
▁unteren	-10.8567
▁nationalen	-10.8569
eres	-10.8573
hang	-10.8577
▁wut	-10.8579
▁nahezu	-10.858
▁laser	-10.8583
▁füße	-10.8589
▁katastrophe	-10.8589
ight	-10.8589
▁zivil	-10.859
▁antrieb	-10.8592
▁figur	-10.8593
▁ke	-10.8594
fähigkeit	-10.8594
lock	-10.8602
▁übersetzen	-10.8604
▁vorgang	-10.8604
zusetzen	-10.8606
basierte	-10.8611
▁“	-10.8611
▁reiste	-10.8613
▁dienstleistung	-10.8618
▁muskeln	-10.8619
hört	-10.8619
erkennung	-10.862
source	-10.862
▁aufstieg	-10.8621
▁weisen	-10.8622
▁120	-10.8622
frei	-10.8623
wagen	-10.8624
zustand	-10.8627
▁illegal	-10.8628
werte	-10.8628
▁lehre	-10.8632
auto	-10.8641
▁kranken	-10.8645
kind	-10.8648
▁schwerer	-10.865
▁winzigen	-10.8652
park	-10.8654
▁angemessen	-10.8663
▁konservativ	-10.8663
▁mühe	-10.8663
▁stanford	-10.8663
▁tragödie	-10.8663
▁dialog	-10.8663
▁schriftsteller	-10.8663
▁tränen	-10.8663
▁treibstoff	-10.8663
▁braun	-10.8663
▁reichtum	-10.8666
▁fliegt	-10.8667
▁ärmsten	-10.867
▁stärken	-10.8672
bal	-10.8675
▁peter	-10.8678
ty	-10.8681
▁ausrüstung	-10.8685
ham	-10.8686
▁benutze	-10.8689
▁vermögen	-10.8691
▁oberflächen	-10.8693
▁jenem	-10.8697
▁klinik	-10.8702
reise	-10.8703
▁lernten	-10.8704
▁gross	-10.8704
▁ursache	-10.8708
▁dreh	-10.8709
▁kg	-10.8709
ration	-10.8712
▁kauf	-10.8719
▁jh	-10.872
▁einfachheit	-10.8721
▁kiste	-10.8728
▁sätze	-10.8733
▁bekannte	-10.8737
ute	-10.8738
zieren	-10.8742
▁fehlen	-10.8754
▁metern	-10.8759
▁os	-10.8761
feuer	-10.8765
▁berühmte	-10.8771
▁gefährliche	-10.8771
▁italien	-10.8771
▁küche	-10.8773
▁ohr	-10.8775
▁saßen	-10.878
▁außerordentlich	-10.8782
▁hervorragend	-10.8782
▁hölle	-10.8782
▁transparenz	-10.8782
▁geruch	-10.8782
▁hilfreich	-10.8782
▁logik	-10.8782
▁daumen	-10.8783
▁pinguine	-10.8783
▁erneuerbare	-10.8784
▁täuschung	-10.8786
▁gegenstände	-10.8786
ade	-10.8786
▁massive	-10.8787
▁hügel	-10.8788
▁bush	-10.8789
ci	-10.8791
▁mächtige	-10.8793
▁bewohner	-10.8801
▁fels	-10.8804
▁joe	-10.8805
▁dauerhaft	-10.8807
▁magnet	-10.8814
▁genie	-10.8816
tät	-10.8819
▁offenbar	-10.8822
▁virtuelle	-10.8823
▁englischen	-10.8825
länder	-10.8828
▁austausch	-10.8832
organisationen	-10.8833
code	-10.8844
ju	-10.8845
▁weltweite	-10.8847
dia	-10.8847
▁höhlen	-10.8855
phase	-10.8861
ica	-10.8862
▁terror	-10.8862
▁prototypen	-10.8864
con	-10.8874
▁bot	-10.888
▁tote	-10.8887
▁sal	-10.8889
geräte	-10.8894
lf	-10.89
▁getestet	-10.8902
▁zwingen	-10.8902
▁größenordnung	-10.8902
▁euro	-10.8905
ami	-10.8906
▁umfrage	-10.8906
▁datenbank	-10.8907
▁schädel	-10.8907
isierte	-10.8913
▁faszinierende	-10.8916
▁effizienz	-10.8917
▁party	-10.8921
▁sprung	-10.8925
▁schwestern	-10.8928
▁sammlung	-10.8931
icht	-10.8932
keiten	-10.8939
zogen	-10.894
▁universitäten	-10.8942
▁südlich	-10.8943
▁übung	-10.8945
▁änderung	-10.8956
lesen	-10.8957
änge	-10.8961
volle	-10.8963
▁verbraucht	-10.8964
▁kommunikations	-10.8964
ity	-10.897
▁psychische	-10.8971
▁probe	-10.8972
▁moralischen	-10.8978
▁riesiges	-10.898
region	-10.8982
▁schickte	-10.8984
din	-10.8986
▁coole	-10.8992
ierende	-10.8995
cha	-10.8996
lung	-10.8999
▁eingehen	-10.8999
▁bedürfnis	-10.9
programme	-10.9006
halte	-10.9007
▁muslime	-10.901
▁offiziell	-10.9017
▁strategien	-10.9018
▁einkommens	-10.9022
▁ach	-10.9024
▁jeweils	-10.9024
▁nachdenkt	-10.9024
▁1980	-10.9024
▁biologen	-10.9025
▁grausam	-10.9025
mark	-10.9027
▁präsidenten	-10.9028
▁papa	-10.9028
fläche	-10.9029
gesellschaft	-10.903
gebaut	-10.9031
akt	-10.9031
finde	-10.9034
pass	-10.9044
▁vorgestellt	-10.9045
▁flu	-10.9046
▁unterrichtet	-10.9046
störung	-10.9047
▁cr	-10.9048
▁gelände	-10.9049
▁verließ	-10.9054
ov	-10.9055
▁selbe	-10.9058
falls	-10.906
▁klingen	-10.9063
▁26	-10.9069
stücke	-10.9069
bett	-10.907
▁mäuse	-10.9073
▁weinen	-10.9075
▁medikamenten	-10.9078
▁gewaltige	-10.9078
öse	-10.9082
▁mitglied	-10.9083
▁seil	-10.9095
ließ	-10.9095
getreten	-10.9098
szeit	-10.9104
▁süß	-10.9105
▁auftrag	-10.9106
▁gerecht	-10.9107
▁pass	-10.9111
▁resultate	-10.9112
▁therapie	-10.9113
▁mannes	-10.9113
▁schlimmsten	-10.9118
▁katzen	-10.9123
▁beitragen	-10.9128
▁zugleich	-10.9128
▁geschlecht	-10.9138
stunden	-10.9144
▁fügt	-10.9147
▁geöffnet	-10.9147
▁knopf	-10.9147
▁käfer	-10.9147
▁texas	-10.9147
▁theoretisch	-10.9147
▁zwölf	-10.9147
▁identisch	-10.9148
▁martin	-10.9148
▁musikalische	-10.9148
▁distanz	-10.9148
▁eigentum	-10.9148
▁globalisierung	-10.9148
▁nimm	-10.9149
ud	-10.9151
▁verteidigung	-10.9154
geld	-10.9157
▁verarbeiten	-10.9157
▁echtes	-10.9158
▁hingehen	-10.9159
▁block	-10.9159
▁training	-10.9159
▁bauch	-10.916
typ	-10.9162
▁ausdrücken	-10.9164
▁standpunkt	-10.9164
▁parallel	-10.9168
▁konsumenten	-10.9177
▁greifen	-10.9177
▁leistungs	-10.9183
meter	-10.9186
▁projekten	-10.9189
▁life	-10.9192
sfähigkeit	-10.9193
▁systems	-10.9194
▁stammen	-10.9194
▁schreibe	-10.9195
gehend	-10.9196
▁nette	-10.9199
▁last	-10.9218
▁stabil	-10.9218
▁sozialer	-10.9219
schneiden	-10.9223
teilung	-10.9225
zeichnen	-10.9225
version	-10.9231
▁hei	-10.9232
▁typische	-10.9235
▁roh	-10.9236
geh	-10.9237
▁hinweis	-10.9241
räumen	-10.9243
▁umgang	-10.9245
▁umstände	-10.9255
▁multi	-10.9258
organisation	-10.9259
▁pop	-10.9262
unterricht	-10.9264
▁designs	-10.9267
▁diskutieren	-10.9272
▁valley	-10.9272
▁verurteilt	-10.9272
▁isoliert	-10.9272
▁schweigen	-10.9273
▁onkel	-10.9273
▁richten	-10.9273
▁1950	-10.9273
▁bürgerkrieg	-10.9274
▁sendung	-10.9275
▁festgestellt	-10.9275
▁geraten	-10.9276
▁beschreibung	-10.928
▁abends	-10.9282
▁unterwasser	-10.9282
▁herab	-10.9284
▁stapel	-10.9287
▁individuelle	-10.9288
zulegen	-10.929
▁tro	-10.9295
▁such	-10.9297
sache	-10.9305
▁verlor	-10.9305
▁dringend	-10.9311
llo	-10.9313
▁haushalt	-10.9314
▁negativ	-10.9316
▁lungen	-10.932
▁gewöhnlich	-10.9324
▁tasche	-10.9327
▁historische	-10.9327
upp	-10.933
▁kanal	-10.9332
gesehen	-10.9337
▁komplizierter	-10.9338
▁besonderes	-10.9338
▁anwendungen	-10.9339
▁toiletten	-10.9343
▁mathe	-10.9345
▁einzigartige	-10.9346
▁pm	-10.9351
strom	-10.9358
oni	-10.9359
mis	-10.9369
,000	-10.9371
skraft	-10.9371
▁alternativen	-10.9397
▁attraktiv	-10.9399
▁ausschließlich	-10.9399
▁großvater	-10.9399
▁inklusive	-10.9399
▁anbieten	-10.9399
▁auftaucht	-10.9399
▁intuition	-10.9399
▁beschleunigt	-10.9399
▁lärm	-10.9399
▁systematisch	-10.9399
▁schokolade	-10.9399
▁kooperation	-10.9399
▁bürgermeister	-10.94
▁2004	-10.9403
▁media	-10.9406
▁fließt	-10.9406
▁simulation	-10.9407
▁initiative	-10.9407
▁verteilen	-10.9408
▁fahrzeuge	-10.9408
▁löwen	-10.9409
▁schöner	-10.941
▁willkommen	-10.9416
▁landete	-10.9421
▁breite	-10.9421
▁reiche	-10.9422
▁maßnahmen	-10.9426
▁weltall	-10.9431
▁füllen	-10.9437
▁investition	-10.9437
▁ausgaben	-10.9446
▁versprechen	-10.945
▁durfte	-10.9453
▁mochte	-10.9455
viel	-10.9457
▁va	-10.9461
▁fischer	-10.9465
▁setzten	-10.9481
fabrik	-10.9485
temperatur	-10.9485
▁gebieten	-10.9488
zo	-10.9489
formen	-10.9492
▁effizient	-10.9493
▁freie	-10.9494
▁länge	-10.9503
▁handlungen	-10.9511
▁reale	-10.9511
grafie	-10.9526
röhre	-10.9527
▁intuitiv	-10.9527
▁meeting	-10.9527
▁oxford	-10.9527
▁sorgfältig	-10.9527
▁uganda	-10.9527
▁verzweifelt	-10.9527
▁vermittelt	-10.9527
▁stets	-10.9527
▁rettet	-10.9528
▁blickwinkel	-10.9528
▁freundlich	-10.9528
▁enkel	-10.9528
▁erfasst	-10.9528
▁plus	-10.9529
▁ausreichend	-10.9529
▁zufriedenheit	-10.9529
▁jack	-10.9529
▁kunstwerk	-10.9532
schiff	-10.9532
namen	-10.9534
▁möbel	-10.9535
▁nachmittag	-10.9537
▁scharf	-10.9537
▁behaupte	-10.9538
▁lebensraum	-10.9541
▁positiven	-10.9546
▁geworfen	-10.9547
ls	-10.9547
▁aufrecht	-10.955
▁felder	-10.9554
hal	-10.9555
▁kulturellen	-10.9557
▁flog	-10.9558
▁fotografie	-10.9559
▁option	-10.9559
▁gestaltung	-10.9559
▁fund	-10.9565
▁negative	-10.9567
▁gedichte	-10.9572
▁wurzeln	-10.9581
▁sauber	-10.9584
▁tritt	-10.9586
▁ratten	-10.9587
methode	-10.9587
▁lichter	-10.9591
▁ausgehen	-10.9592
▁enormen	-10.9595
▁systemen	-10.96
▁teilnehmen	-10.9604
steht	-10.9604
▁planung	-10.961
lampe	-10.9611
▁best	-10.9612
▁frisch	-10.9613
computer	-10.9615
medizin	-10.9615
fahrzeug	-10.9615
▁zehntausende	-10.9619
kinder	-10.9619
lapp	-10.9621
▁waffe	-10.9623
raten	-10.9629
▁privaten	-10.9633
▁gal	-10.9636
▁fan	-10.9638
▁sau	-10.9645
▁aufregende	-10.9646
leistung	-10.9648
beamte	-10.9655
▁werke	-10.9656
▁entstehung	-10.9657
▁anfängt	-10.9657
▁beschränkt	-10.9657
▁entschuldigung	-10.9657
▁erfordert	-10.9657
▁hübsch	-10.9657
▁manhattan	-10.9657
▁oxytocin	-10.9657
▁william	-10.9657
▁probieren	-10.9657
▁zuletzt	-10.9657
▁befassen	-10.9657
▁passwörter	-10.9657
▁rückenmark	-10.9658
▁geliebt	-10.9658
uk	-10.9659
▁2006	-10.966
▁sing	-10.9662
▁ökonomische	-10.9664
▁fischerei	-10.967
▁richter	-10.9671
▁legte	-10.9674
▁neulich	-10.9677
▁drückt	-10.9678
▁dynamik	-10.968
seit	-10.9687
▁28	-10.9687
▁fremd	-10.9688
masse	-10.9691
person	-10.9691
▁erhielten	-10.9693
▁ebenen	-10.9693
▁pur	-10.9702
▁religiöse	-10.9703
▁modern	-10.9704
▁bewusstseins	-10.9706
▁ausgegeben	-10.9706
▁muslimische	-10.9707
kul	-10.9712
▁lasse	-10.9714
▁hall	-10.9715
hol	-10.9717
kontrolle	-10.9726
▁oper	-10.9727
▁toilette	-10.9728
heben	-10.9731
läuft	-10.9733
pack	-10.9735
sprechen	-10.9742
liste	-10.9742
hundert	-10.9742
▁benutzten	-10.9742
▁konzepte	-10.9743
schritt	-10.9746
therapie	-10.9746
▁katastrophen	-10.9755
▁klick	-10.9759
show	-10.9762
▁anfangs	-10.9766
boden	-10.9767
▁leere	-10.9767
ble	-10.9779
▁urban	-10.9788
▁kombiniert	-10.9789
▁praxis	-10.9789
▁verdoppelt	-10.9789
▁verschwindet	-10.9789
▁benzin	-10.9789
▁treppe	-10.9789
▁clever	-10.9789
▁gewissermaßen	-10.9789
▁erziehung	-10.9789
▁ruanda	-10.9789
▁üben	-10.9789
▁1970	-10.9789
▁fußball	-10.979
▁ehemann	-10.979
▁poster	-10.979
▁beträgt	-10.9791
▁unterhalb	-10.9791
▁ausland	-10.9791
lig	-10.9798
▁durcheinander	-10.9808
▁frequenz	-10.9809
▁spitzen	-10.981
▁nick	-10.9811
energie	-10.9818
fahr	-10.9819
▁vergleichbar	-10.982
▁schnelle	-10.982
▁koch	-10.9821
▁pan	-10.9821
▁beitrag	-10.9829
läufe	-10.9832
▁tri	-10.9834
▁raketen	-10.9838
▁lud	-10.9839
▁flugzeuge	-10.984
▁physischen	-10.9841
wende	-10.9842
▁ansichten	-10.9851
▁einsam	-10.9852
▁keinem	-10.9853
gewicht	-10.9859
▁dinger	-10.9862
sgeschichte	-10.9865
schlüsse	-10.9867
▁früheren	-10.9869
▁berechnungen	-10.987
▁gi	-10.9872
▁günstig	-10.9872
zuziehen	-10.9873
▁gelbe	-10.9876
▁büchern	-10.9876
fertig	-10.9879
städte	-10.988
▁blasen	-10.9884
wort	-10.9887
▁brü	-10.9894
▁sar	-10.9897
old	-10.9903
▁bösen	-10.9905
geschaltet	-10.9905
graphie	-10.9916
zeiten	-10.9916
▁wale	-10.9919
▁cyber	-10.9922
▁feedback	-10.9922
▁parlament	-10.9922
▁spontan	-10.9922
▁substanz	-10.9922
▁geplant	-10.9922
▁auszudrücken	-10.9922
▁erlangen	-10.9923
▁notiz	-10.9923
▁frühling	-10.9924
▁säugetiere	-10.9929
▁archiv	-10.9929
▁abhängigkeit	-10.9931
▁hindernisse	-10.9934
▁pfeil	-10.9935
▁problems	-10.9938
▁wirbel	-10.9938
▁verringern	-10.9939
▁rauchen	-10.9939
▁strahlung	-10.994
ges	-10.9941
anlagen	-10.9941
▁fahrt	-10.9942
▁mechanismus	-10.9943
aufnahme	-10.9943
▁winkel	-10.9947
▁studium	-10.9948
▁institution	-10.9949
▁bescheid	-10.9958
aktion	-10.9963
▁king	-10.997
▁ve	-10.997
▁erkenntnisse	-10.9975
▁kreise	-10.9977
rot	-10.9977
▁inseln	-10.9979
▁legal	-10.9982
▁altes	-10.9986
▁techniken	-10.9988
▁mas	-11.0002
steigen	-11.0014
gebäude	-11.0014
▁95	-11.0016
spitze	-11.0016
▁verkehrs	-11.0016
frau	-11.0018
▁grob	-11.002
▁komplette	-11.002
▁einblick	-11.0022
▁niedriger	-11.0027
ori	-11.0027
▁star	-11.0028
sicher	-11.0032
▁gleichung	-11.0038
▁furchtbar	-11.004
▁elegant	-11.0057
▁erledigen	-11.0057
▁individuum	-11.0057
▁smith	-11.0057
▁wohlbefinden	-11.0057
▁yeah	-11.0057
▁ehemalige	-11.0057
▁überprüfen	-11.0057
▁verbrennen	-11.0057
▁erkunden	-11.0058
▁werdet	-11.0058
▁blitz	-11.006
▁leise	-11.006
▁bundesstaat	-11.0061
durchschnittlich	-11.0063
▁reis	-11.0063
▁oel	-11.0063
▁gerüst	-11.007
▁kuchen	-11.0071
▁unterhalten	-11.0072
▁gestalt	-11.0073
▁bewahren	-11.0074
jo	-11.0078
▁schmerzhaft	-11.0078
▁käme	-11.008
▁zurückkommen	-11.0083
▁ak	-11.0095
▁umzusetzen	-11.0098
▁aktuellen	-11.01
▁sha	-11.0104
▁anpassung	-11.0105
groß	-11.0105
▁blicken	-11.0107
▁hals	-11.0107
wan	-11.0108
▁elektronen	-11.0113
▁ku	-11.0115
▁personal	-11.0115
▁eingriff	-11.0121
▁ausführen	-11.0132
▁vorkommen	-11.0139
bekommen	-11.014
▁journalisten	-11.0145
gewebe	-11.0152
▁filter	-11.0153
▁zahn	-11.0153
maß	-11.0162
▁filmen	-11.0166
▁brenn	-11.0167
▁virtuellen	-11.0168
▁felsen	-11.0169
▁wahren	-11.017
brachte	-11.0183
▁religiösen	-11.0186
▁profit	-11.0187
chi	-11.0189
▁leser	-11.0194
spiele	-11.0194
▁baseball	-11.0194
▁vulkan	-11.0194
▁akzeptiert	-11.0194
▁circa	-11.0194
▁diskutiert	-11.0194
▁engagement	-11.0194
▁florida	-11.0194
▁thunfisch	-11.0194
▁urknall	-11.0194
graph	-11.0195
▁irgendwas	-11.0195
▁nest	-11.0196
räume	-11.0196
achse	-11.0196
▁bob	-11.0197
▁rüber	-11.0197
▁zusammenge	-11.0198
▁fehlende	-11.02
▁zwanzig	-11.02
▁betreten	-11.0201
▁hinweise	-11.0202
▁schwanz	-11.0204
mus	-11.0204
▁völker	-11.0204
▁aussterben	-11.0205
haften	-11.0206
▁scheibe	-11.0207
▁gegenstand	-11.0208
▁kapazität	-11.0213
▁angetrieben	-11.0217
anlage	-11.0224
▁branche	-11.0225
möglichkeiten	-11.0225
ita	-11.0227
lehrer	-11.0228
▁tal	-11.0236
▁rio	-11.0241
▁sam	-11.0243
▁schießen	-11.0246
sucht	-11.0248
für	-11.0252
▁auswirkung	-11.0256
▁reform	-11.0258
▁mikroskop	-11.0262
▁kalten	-11.0263
fällig	-11.0268
▁raten	-11.027
▁hob	-11.0272
▁militärische	-11.028
schaut	-11.028
▁blase	-11.0284
▁zahlreiche	-11.0285
rechnung	-11.0286
▁wohnung	-11.0286
▁flasche	-11.0287
▁erinnerte	-11.0287
▁einzusetzen	-11.029
▁billiger	-11.0291
▁fer	-11.0297
energieverbrauch	-11.0314
▁zukünftigen	-11.0315
ologen	-11.0318
don	-11.0328
▁erwärmung	-11.0333
▁gegessen	-11.0333
▁hollywood	-11.0333
▁kohlendioxid	-11.0333
▁kompromiss	-11.0333
▁oktober	-11.0333
▁beschützen	-11.0333
▁generell	-11.0333
▁vernetzt	-11.0333
▁herstellt	-11.0336
▁riff	-11.0336
▁künstlich	-11.034
▁innovativ	-11.0341
▁business	-11.0341
▁konzentration	-11.0341
diese	-11.0345
▁tja	-11.0347
▁fressen	-11.0348
▁abstrakte	-11.0348
reißen	-11.035
endung	-11.035
▁sicherer	-11.0351
▁psycho	-11.0352
▁ber	-11.0352
▁lieder	-11.0354
labor	-11.0356
▁einziges	-11.0358
▁doppel	-11.036
▁nervenzellen	-11.0368
▁benutzte	-11.0375
sländer	-11.0377
▁spur	-11.0382
scheide	-11.0385
▁inhalte	-11.039
dichte	-11.0401
studie	-11.0402
tanz	-11.0403
wahl	-11.0403
▁vieler	-11.0404
▁fuhren	-11.0404
▁fernseher	-11.0406
▁höhle	-11.0407
▁auftritt	-11.0411
handlung	-11.0416
zumachen	-11.0419
▁magazin	-11.042
motor	-11.0426
▁tricks	-11.0426
hai	-11.0429
zentren	-11.0431
▁mauer	-11.0432
position	-11.0432
firmen	-11.0432
konferenz	-11.0432
▁durchschnitts	-11.0433
moment	-11.0434
waffe	-11.0435
▁anzugehen	-11.0435
geber	-11.0436
▁trage	-11.0437
gebiete	-11.0455
designer	-11.046
mach	-11.046
▁international	-11.046
▁finanzielle	-11.0461
▁zogen	-11.0462
hab	-11.0465
mine	-11.0466
▁gib	-11.0468
▁aufmerksam	-11.0472
▁herzlich	-11.0473
▁alzheimer	-11.0474
▁bedauern	-11.0474
▁bewirkt	-11.0474
▁definitiv	-11.0474
▁präzise	-11.0474
▁errichten	-11.0474
▁konstant	-11.0474
▁unterscheidet	-11.0474
▁schnapp	-11.0474
▁verknüpft	-11.0474
▁motiviert	-11.0474
▁verhindert	-11.0474
▁wohlhabend	-11.0474
▁fordert	-11.0475
▁autorität	-11.0475
▁profitieren	-11.0476
▁vertrieb	-11.0479
issen	-11.0484
▁merkte	-11.0484
▁väter	-11.0486
▁glücks	-11.0492
hau	-11.0502
mitglieder	-11.0503
▁rechnen	-11.0507
▁gewinnt	-11.0508
▁pläne	-11.0509
klasse	-11.051
regierung	-11.0513
▁überzeugung	-11.0518
▁prototyp	-11.0518
staat	-11.0519
▁tolles	-11.052
▁auftauchen	-11.0521
▁gebäudes	-11.0525
▁nachbar	-11.0525
▁win	-11.0525
▁skulptur	-11.0528
sprech	-11.0533
▁amerikas	-11.0534
zone	-11.0534
wege	-11.054
▁sonnensystem	-11.0541
lly	-11.0543
▁köpfen	-11.0543
barkeit	-11.0543
sag	-11.0549
▁einzig	-11.0553
gar	-11.0554
▁talent	-11.0554
eben	-11.0558
▁aufeinander	-11.0562
nischen	-11.0573
ama	-11.0575
▁maße	-11.0575
mat	-11.0575
▁gemeinnützige	-11.0581
▁ol	-11.0582
▁trends	-11.0584
▁besitzer	-11.059
▁33	-11.0594
▁küsten	-11.06
▁grab	-11.0605
▁hunderten	-11.0606
sterblichkeit	-11.0607
▁merkwürdig	-11.0608
▁körperlich	-11.061
▁vermute	-11.0611
mitten	-11.0615
▁nutzten	-11.0617
▁ermutigen	-11.0617
▁ignoriert	-11.0617
▁lkw	-11.0617
▁nördlich	-11.0617
▁vertikal	-11.0617
▁versagt	-11.0617
▁stoffwechsel	-11.0617
▁regenwald	-11.0617
▁arbeitsplätze	-11.0617
▁sinken	-11.0617
▁arbeitsplatz	-11.0618
▁trennen	-11.0618
▁pocken	-11.0618
▁abgeschlossen	-11.0619
▁lebensqualität	-11.0619
▁partnerschaft	-11.062
▁segel	-11.062
▁menschlichkeit	-11.0621
▁2001	-11.0622
▁schwerkraft	-11.0622
▁produktivität	-11.0623
▁lehrern	-11.0623
▁anhänger	-11.0624
▁wodurch	-11.0625
▁weitermachen	-11.0627
▁geblieben	-11.0628
ult	-11.0629
▁internets	-11.0632
▁treibt	-11.0637
▁erfolgreiche	-11.0639
▁schreibtisch	-11.0643
▁prüfung	-11.0645
▁kb	-11.0651
▁verbraucher	-11.0656
▁schi	-11.0658
▁schrieben	-11.066
▁bomben	-11.0666
▁vierten	-11.0666
“.	-11.0671
▁autoren	-11.0675
▁verbrauchen	-11.068
▁angekommen	-11.0684
tragen	-11.0686
ting	-11.0693
▁beobachtete	-11.0703
▁tragisch	-11.0707
▁bäumen	-11.0712
▁hass	-11.0715
▁entdeckten	-11.0715
video	-11.0718
▁wundervoll	-11.0723
▁bedeutend	-11.0727
setzung	-11.0727
▁haltung	-11.0728
sekunde	-11.0734
▁flut	-11.0735
▁dom	-11.0742
fische	-11.0744
▁schock	-11.0745
▁led	-11.0752
▁chip	-11.0756
▁empathie	-11.0762
▁involviert	-11.0762
▁unangenehm	-11.0762
▁senken	-11.0762
weisung	-11.0762
▁depressionen	-11.0762
▁kluft	-11.0763
▁koran	-11.0766
▁bewerten	-11.0767
▁ursprüngliche	-11.0767
▁treu	-11.0768
▁rosa	-11.0769
▁konzert	-11.0775
▁gore	-11.0776
▁versicherung	-11.0778
▁konstruktion	-11.0778
▁warf	-11.0778
▁ladung	-11.078
▁hunderttausende	-11.0782
▁jahrelang	-11.0782
▁fließen	-11.0782
▁watt	-11.0783
▁bereitet	-11.0789
▁marsch	-11.0793
▁güter	-11.0795
▁dreimal	-11.0799
▁abstand	-11.08
▁teure	-11.0809
▁königin	-11.081
▁passend	-11.0813
▁institute	-11.0817
▁hochzeit	-11.0817
▁kra	-11.0819
▁jim	-11.0819
▁beobachtung	-11.0821
kom	-11.0821
▁sta	-11.0822
▁big	-11.0823
▁einheiten	-11.0826
▁misst	-11.0827
▁farm	-11.083
▁unbekannte	-11.0834
▁suchten	-11.0836
▁effizienter	-11.0838
▁historisch	-11.0845
▁mill	-11.0848
▁av	-11.085
▁erforschung	-11.0852
▁ehren	-11.0856
litz	-11.0857
▁verständlich	-11.0862
▁welle	-11.0863
▁spuren	-11.0864
streben	-11.0865
bringt	-11.0867
virus	-11.0868
▁anreize	-11.0873
bericht	-11.0874
▁bad	-11.0876
kasten	-11.0882
▁rom	-11.0883
ney	-11.0884
▁stich	-11.0885
▁männlich	-11.0892
schreib	-11.0893
▁zeitungen	-11.0897
▁langfristige	-11.0897
▁mac	-11.0899
roboter	-11.0906
▁wüsten	-11.0907
▁schwanger	-11.0908
▁gesünder	-11.0909
‹	-11.0909
▁kombinieren	-11.0909
▁transparent	-11.0909
▁statistisch	-11.0909
▁auffassung	-11.0909
▁lenken	-11.0909
▁peinlich	-11.0909
▁erzielen	-11.0909
gehoben	-11.091
▁umfasst	-11.091
▁verheiratet	-11.091
▁unsicher	-11.0913
▁zweieinhalb	-11.0915
▁kauft	-11.0915
▁sicherstellen	-11.0916
▁tv	-11.0917
▁pazifik	-11.0918
▁analogie	-11.0922
▁passiv	-11.0924
▁jugendliche	-11.0925
▁brand	-11.0925
▁gleichheit	-11.0926
▁pferde	-11.0929
▁effekte	-11.0932
▁aufwuchs	-11.0934
forscher	-11.0937
werkzeug	-11.0938
hil	-11.0939
▁schließt	-11.094
▁abschnitt	-11.094
▁plätze	-11.0942
ock	-11.0943
ino	-11.0944
▁pilz	-11.0947
▁umfassende	-11.0948
▁entschlossen	-11.0949
▁asteroiden	-11.095
▁schülern	-11.096
▁lagen	-11.0962
▁anerkennung	-11.0962
▁unabhängige	-11.0962
ank	-11.0963
▁handels	-11.0965
förmige	-11.0972
▁sendet	-11.0972
▁jagen	-11.0975
bein	-11.0977
▁lacht	-11.0977
▁allzu	-11.0979
▁euer	-11.0981
▁störungen	-11.0983
organ	-11.0989
▁wandert	-11.0996
geboren	-11.0998
▁leuchten	-11.1001
▁kontroll	-11.1002
▁85	-11.101
▁lä	-11.1013
▁nährstoffe	-11.1013
bewusst	-11.1013
institut	-11.1015
▁speichern	-11.102
▁privileg	-11.102
pla	-11.1031
▁irgend	-11.1031
▁kritisch	-11.1033
▁figuren	-11.1034
musik	-11.1037
bewusstsein	-11.1038
able	-11.1041
▁güte	-11.1042
▁bewältigen	-11.1058
▁flughafen	-11.1058
▁wähler	-11.1058
▁detailliert	-11.1058
▁spürt	-11.1058
▁methan	-11.1058
▁befragt	-11.1058
▁nackt	-11.1058
▁amazonas	-11.1059
kann	-11.1059
▁supermarkt	-11.106
▁sturm	-11.106
▁berechnet	-11.1063
▁2003	-11.1063
▁anhalten	-11.1064
▁elektronik	-11.1066
▁meta	-11.1067
▁litt	-11.1067
▁gefüllt	-11.107
▁pyramide	-11.1071
▁manager	-11.1072
▁mischung	-11.1073
▁tödlich	-11.1075
▁grossartig	-11.1076
▁20.000	-11.1077
▁dreieck	-11.1078
losigkeit	-11.1078
▁absolute	-11.1081
▁pc	-11.1085
▁schichten	-11.1088
▁wesentliche	-11.1089
einheit	-11.109
▁anreiz	-11.1095
▁direktor	-11.1096
▁matt	-11.1097
▁1,5	-11.1106
▁inspirierend	-11.1107
▁ansprechen	-11.1108
▁einziger	-11.1108
▁erschien	-11.1111
▁bedienen	-11.1113
▁wertvolle	-11.1122
ate	-11.1124
▁bewegte	-11.1124
gingen	-11.1126
▁700	-11.1127
▁anzeichen	-11.1131
▁visuell	-11.1132
▁gehalt	-11.1138
▁leeren	-11.1138
stau	-11.1139
▁häufiger	-11.114
rennen	-11.1142
▁köpfe	-11.1148
▁hut	-11.1151
af	-11.1155
kin	-11.1157
▁organische	-11.1165
meister	-11.1165
leiten	-11.1165
zehn	-11.1167
▁kollektive	-11.1172
▁kan	-11.1175
▁mist	-11.1176
▁journalist	-11.1177
▁beinen	-11.119
▁verwandten	-11.1192
streit	-11.1194
▁klassen	-11.1195
ergebnisse	-11.1197
▁par	-11.1199
▁endet	-11.1201
▁ego	-11.1207
▁analysiert	-11.121
▁erledigt	-11.121
▁fortgeschritten	-11.121
▁herkunft	-11.121
▁norwegen	-11.121
▁stieß	-11.121
▁engagiert	-11.121
▁erstaunt	-11.121
▁mittagessen	-11.121
▁tendenz	-11.121
▁bestätigt	-11.121
▁saturn	-11.121
▁robust	-11.121
▁vorlesung	-11.121
▁ärzten	-11.121
▁gates	-11.121
▁panik	-11.1211
▁stattfinden	-11.1211
▁chemischen	-11.1211
▁abendessen	-11.1211
▁5.000	-11.1216
▁trainieren	-11.1217
oberfläche	-11.1217
▁vielerlei	-11.1219
▁orchester	-11.1221
▁com	-11.1223
▁salz	-11.1224
▁romantische	-11.1225
▁sir	-11.1225
▁veranstaltung	-11.1228
▁anzuschauen	-11.123
▁beziehen	-11.1231
▁werten	-11.1231
▁anspruch	-11.1231
▁fühlten	-11.1232
▁schild	-11.1232
▁bindung	-11.1235
▁übersetzung	-11.1235
▁finanzieren	-11.1236
kamera	-11.1236
▁kommentar	-11.1238
▁schloss	-11.1239
▁bewegungs	-11.1241
▁can	-11.1245
▁kreislauf	-11.1245
ice	-11.125
▁wohnen	-11.1256
▁gewöhnliche	-11.126
▁materielle	-11.1278
▁längst	-11.1279
▁auflösung	-11.1288
▁grösser	-11.129
zwei	-11.129
▁nochmals	-11.1299
▁falle	-11.1299
sagen	-11.1306
einkommen	-11.1308
eins	-11.1309
▁zweites	-11.131
▁startete	-11.1314
dar	-11.1317
iziert	-11.1318
iker	-11.1324
▁meme	-11.133
scan	-11.1336
ulation	-11.1338
halt	-11.1339
krankheiten	-11.1345
▁institut	-11.1347
▁einnehmen	-11.1351
finden	-11.1351
▁weiterentwickel	-11.1362
▁titan	-11.1363
▁vietnam	-11.1363
▁balance	-11.1363
▁cambridge	-11.1363
▁dezember	-11.1363
▁konstruiert	-11.1363
▁durchzuführen	-11.1363
▁geredet	-11.1363
▁überqueren	-11.1363
▁beschleunigen	-11.1363
▁trainiert	-11.1363
▁unheimlich	-11.1363
▁ansonsten	-11.1363
▁bandbreite	-11.1364
▁füge	-11.1364
▁palm	-11.1364
▁breit	-11.1365
geholt	-11.1365
▁wörterbuch	-11.1365
▁elite	-11.1366
▁reiz	-11.1369
ähnliche	-11.1369
▁zentimeter	-11.137
▁echter	-11.1376
▁angeschaut	-11.1377
▁formt	-11.1384
▁apparat	-11.1387
▁züchten	-11.1388
▁kurzer	-11.1388
▁weltbank	-11.1389
▁heilung	-11.1389
▁heilige	-11.1389
durch	-11.1389
phon	-11.1389
▁intelligent	-11.1395
▁vielzahl	-11.1395
su	-11.1396
▁menschenrechte	-11.1396
▁kamel	-11.1401
▁untersuchungen	-11.1406
▁steine	-11.1406
tlich	-11.1407
▁englische	-11.1412
pol	-11.1414
▁aufgeben	-11.1415
▁800	-11.1415
▁kälte	-11.1418
▁impfstoff	-11.1418
▁beginne	-11.1419
becken	-11.142
▁ankommen	-11.1421
▁stoßen	-11.1421
▁einstellen	-11.1423
▁operationen	-11.1432
▁landet	-11.1434
▁dünn	-11.1441
▁sang	-11.1444
▁lücke	-11.1445
▁wirft	-11.1446
▁schlange	-11.1446
▁körperliche	-11.1462
▁tollen	-11.1465
▁schwierigen	-11.1469
leuchten	-11.1472
speise	-11.1475
▁erkrankungen	-11.1477
zimmer	-11.1478
erfahrung	-11.1478
revolution	-11.148
▁seife	-11.1481
gott	-11.1483
kunst	-11.1484
▁horizont	-11.1485
▁kant	-11.1488
stamm	-11.1492
▁fried	-11.1496
▁schaffte	-11.1499
quellen	-11.1504
▁mt	-11.1508
▁mad	-11.1515
chtet	-11.1518
ströme	-11.1519
▁auswählen	-11.152
▁begegnet	-11.152
▁einschließlich	-11.152
▁erheblich	-11.152
▁februar	-11.152
▁fröhlich	-11.152
▁olympische	-11.152
▁optimismus	-11.152
▁töchter	-11.152
▁verwirrt	-11.152
▁überwältigend	-11.152
▁trauer	-11.152
▁obdachlos	-11.152
▁motivieren	-11.152
▁trinkwasser	-11.152
▁widerspruch	-11.152
▁kopieren	-11.1522
▁gewässer	-11.1523
▁differenz	-11.1523
▁autobahn	-11.1525
▁offenheit	-11.1525
▁schwamm	-11.1526
▁gelähmt	-11.1528
▁währung	-11.1529
▁poly	-11.1532
▁dauer	-11.1532
▁begleitet	-11.1532
▁langfristig	-11.1532
automat	-11.1533
▁geringer	-11.1534
▁50.000	-11.1534
stel	-11.1534
▁studierte	-11.1535
▁töne	-11.1535
▁vortrags	-11.1538
▁liter	-11.1539
▁atome	-11.154
▁tafel	-11.1547
▁gift	-11.1548
▁erzählten	-11.1552
▁vertrag	-11.1553
▁derek	-11.1554
streu	-11.1554
halle	-11.1554
▁fabriken	-11.1555
▁geschlagen	-11.1558
▁geleitet	-11.1559
▁dutzende	-11.156
▁kleider	-11.1562
▁verboten	-11.157
qualität	-11.1575
▁unfälle	-11.1578
flüge	-11.1579
▁spezial	-11.1579
▁rasch	-11.1579
aut	-11.158
▁mais	-11.1584
▁dimension	-11.1588
▁red	-11.1588
▁überlassen	-11.1591
▁held	-11.1595
▁zeichnungen	-11.1596
▁programmierer	-11.1596
▁tele	-11.1597
▁seh	-11.1598
▁fischen	-11.1601
▁physisch	-11.1606
▁schreib	-11.1612
▁irgendeiner	-11.1613
wind	-11.1614
▁hing	-11.1617
ihr	-11.1618
▁füßen	-11.1619
▁mitteilen	-11.1621
maschinen	-11.1621
▁wilde	-11.1622
▁chirurg	-11.1627
produkte	-11.1627
▁friedlich	-11.1628
▁graben	-11.1629
▁wunderschönen	-11.1631
▁messer	-11.1633
analyse	-11.1636
luft	-11.1637
▁symbole	-11.164
▁cd	-11.1642
▁experimentieren	-11.1642
ller	-11.1647
ante	-11.1656
trieb	-11.1657
▁ly	-11.1659
führer	-11.166
▁bell	-11.166
▁pra	-11.1667
getragen	-11.1674
▁korea	-11.1675
▁freiwilligen	-11.1678
▁akademische	-11.1678
▁hardware	-11.1678
▁nirgendwo	-11.1678
▁vergrößern	-11.1678
▁vergrößert	-11.1678
▁verzweiflung	-11.1678
▁beantwortet	-11.1678
▁flüsse	-11.1678
▁gewohnt	-11.1678
▁poesie	-11.1678
▁rollstuhl	-11.1678
▁mentor	-11.1678
▁arzneimittel	-11.1679
▁prüfen	-11.1679
▁richtet	-11.1679
▁treibhausgase	-11.1679
▁leistungen	-11.1681
▁genetik	-11.1681
▁10-	-11.1684
▁linear	-11.1684
▁chi	-11.1688
▁verhält	-11.169
▁lego	-11.169
▁geschäftsmodell	-11.1692
kenntnis	-11.1692
▁tropfen	-11.1694
▁hierfür	-11.1706
▁formel	-11.1709
▁ost	-11.171
dis	-11.172
bitte	-11.1721
▁besuch	-11.1728
tauchen	-11.173
▁begriffen	-11.1735
▁kreaturen	-11.174
▁studierenden	-11.1742
▁streich	-11.1746
▁berechnung	-11.1747
▁architekt	-11.1748
oren	-11.1763
▁ameise	-11.1766
lagen	-11.177
30	-11.1771
▁anstellen	-11.1777
▁taub	-11.178
▁einrichtung	-11.178
nutzung	-11.1792
gebühr	-11.1792
spiegel	-11.1797
gespräch	-11.1797
experiment	-11.1798
▁lunge	-11.1798
▁banken	-11.1799
decke	-11.1802
turm	-11.1803
artigen	-11.1804
▁ernte	-11.1804
gy	-11.1807
▁wartete	-11.1808
wow	-11.1811
▁freiwillige	-11.1812
▁radikale	-11.1816
stab	-11.1822
▁künstlerische	-11.1822
▁ungewöhnliche	-11.1829
▁fakt	-11.183
▁gewaltig	-11.1833
▁üblich	-11.1837
▁august	-11.184
▁bizarr	-11.184
▁brillante	-11.184
▁hühner	-11.184
▁stattfindet	-11.184
▁taliban	-11.184
▁tiefgreifend	-11.184
▁türkei	-11.184
▁verfügen	-11.184
▁vernunft	-11.184
▁dopamin	-11.184
▁brown	-11.184
▁überwachen	-11.184
▁streng	-11.184
▁hilfsmittel	-11.184
▁rückwärts	-11.184
▁tiefsee	-11.1841
▁informiert	-11.1841
▁steigern	-11.1841
▁rannte	-11.1842
▁prä	-11.1842
▁beliebige	-11.1843
▁immunsystem	-11.1843
▁lauter	-11.1843
▁unsicherheit	-11.1844
▁geheimnisse	-11.1844
▁gesucht	-11.1844
▁dokument	-11.1845
▁feder	-11.1845
▁algorithmus	-11.185
sky	-11.185
▁spielten	-11.1852
▁würdest	-11.1856
▁merkmale	-11.1856
▁extreme	-11.1859
▁verwaltung	-11.1861
▁gewachsen	-11.1861
artig	-11.1861
▁küchen	-11.1862
▁hersteller	-11.1867
▁gigantische	-11.1867
▁wieviele	-11.1868
orientiert	-11.1872
legung	-11.1874
▁markiert	-11.1877
our	-11.1877
▁perfekten	-11.188
pflege	-11.1882
▁gewinner	-11.1884
▁state	-11.1887
▁erwähnte	-11.1891
▁ausschnitt	-11.1892
▁rasen	-11.1896
▁behauptet	-11.1896
▁öffnete	-11.1898
▁liebsten	-11.1898
▁angestellten	-11.1901
▁schafften	-11.1909
▁punkten	-11.1911
▁genen	-11.1915
▁heiligen	-11.192
▁ersatz	-11.192
üb	-11.1923
▁wundervollen	-11.1925
▁unsichtbare	-11.193
▁wüsste	-11.193
▁komische	-11.1933
▁streiten	-11.1938
zutreten	-11.1938
▁ursprünglichen	-11.1945
▁missbrauch	-11.1945
▁schienen	-11.1946
▁erzähl	-11.1946
fan	-11.1948
modul	-11.1949
▁kolonie	-11.1949
▁dynamisch	-11.1953
werten	-11.1954
nutzen	-11.1957
kapital	-11.1961
situation	-11.1962
springen	-11.1962
foto	-11.1966
▁technisch	-11.1967
▁gew	-11.1967
abteilung	-11.1968
▁molekulare	-11.1968
gesetz	-11.197
▁mithilfe	-11.1971
▁effektiver	-11.1974
▁annahmen	-11.1976
▁erzähler	-11.1978
▁mass	-11.199
▁finanziellen	-11.1996
wässer	-11.2
▁grundstück	-11.2
▁erscheinung	-11.2003
▁behauptung	-11.2004
syndrom	-11.2004
▁beeindruckt	-11.2004
▁chaotisch	-11.2004
▁getreide	-11.2004
▁ignoranz	-11.2004
▁käse	-11.2004
▁vergewaltigt	-11.2004
▁widmen	-11.2004
▁äthiopien	-11.2004
▁gegner	-11.2004
▁reichweite	-11.2004
▁vielmals	-11.2004
▁aufzeichnungen	-11.2004
▁fettleibigkeit	-11.2005
▁tinte	-11.2005
▁liest	-11.2006
▁mittelpunkt	-11.2007
aktiv	-11.2007
▁verarbeitet	-11.2009
▁sicherzustellen	-11.2009
▁mobil	-11.201
▁anwälte	-11.2011
▁rose	-11.2011
▁bezieht	-11.2011
▁ruder	-11.2012
▁schach	-11.2012
▁aufstehen	-11.2013
gramm	-11.2014
▁ethnische	-11.2015
▁einsicht	-11.2015
▁rhythmus	-11.2016
▁ufer	-11.2016
▁präsentiert	-11.2016
▁holte	-11.2017
▁spezifische	-11.2018
▁versehen	-11.2018
▁sklaven	-11.2019
▁präsentieren	-11.2022
▁bewertung	-11.2022
▁schlägt	-11.2024
▁besch	-11.2027
▁zelt	-11.2032
▁port	-11.2036
▁za	-11.2037
▁emissionen	-11.2037
▁sterbe	-11.204
▁packt	-11.2042
▁großartiger	-11.2046
▁trieb	-11.205
▁ältesten	-11.2057
▁städtischen	-11.2061
▁verkaufte	-11.2064
▁ökologische	-11.2072
▁raub	-11.2073
▁edi	-11.2074
▁verletzungen	-11.2075
▁motoren	-11.2079
▁volks	-11.2084
tage	-11.2089
▁glückliche	-11.2089
▁intellektuelle	-11.2096
▁tipp	-11.2096
▁alltag	-11.2101
way	-11.2105
▁meinungen	-11.2107
▁berühmten	-11.2118
wachsen	-11.2119
änderung	-11.212
reifen	-11.212
board	-11.2121
▁derzeitige	-11.2121
▁programmiert	-11.2125
fiel	-11.2125
▁bescheiden	-11.2125
▁ankommt	-11.2126
▁rassen	-11.2127
geschrieben	-11.2128
text	-11.2129
kampf	-11.213
▁sexuell	-11.2136
▁pl	-11.2144
▁front	-11.215
▁on	-11.2155
taste	-11.2156
▁merkt	-11.216
▁brücken	-11.2161
▁individuellen	-11.2162
▁großartiges	-11.2162
▁benötigte	-11.2164
rlei	-11.2164
▁außerirdische	-11.217
▁bakterium	-11.217
▁fußgänger	-11.217
▁gravitation	-11.217
▁ipod	-11.217
▁kalorien	-11.217
▁selektion	-11.217
▁verstärkt	-11.217
▁verborgen	-11.217
▁versorgt	-11.217
▁reihenfolge	-11.217
▁bequem	-11.217
▁zutiefst	-11.217
▁daneben	-11.217
▁garantiert	-11.217
▁führungskräfte	-11.2171
▁voraussagen	-11.2171
▁automobil	-11.2171
▁schickten	-11.2171
▁königreich	-11.2171
pumpe	-11.2172
▁green	-11.2172
▁schlimme	-11.2173
▁demonstration	-11.2176
▁garage	-11.2176
▁drinnen	-11.2176
▁saudi	-11.2177
▁betonen	-11.2177
▁rohr	-11.2178
▁unerwartete	-11.2178
▁aktivieren	-11.2179
▁jäger	-11.218
zusehen	-11.218
▁uralte	-11.2184
▁termin	-11.2188
▁unschuldig	-11.2191
▁transportiert	-11.2193
▁biologisch	-11.2196
unklar	-11.2197
▁eingeschlossen	-11.2197
▁mord	-11.2198
▁betrag	-11.2199
chip	-11.22
▁55	-11.2202
▁tanzt	-11.2209
▁pink	-11.2209
och	-11.2211
▁himmels	-11.2211
studien	-11.2216
▁urteil	-11.2218
▁rang	-11.2218
▁trag	-11.2219
▁ray	-11.2219
▁bay	-11.2222
pool	-11.2222
▁leder	-11.2222
▁religionen	-11.2224
▁lehrt	-11.2225
▁sprecher	-11.2226
augen	-11.2231
▁29	-11.2233
freie	-11.2234
?«	-11.2235
sper	-11.2237
▁prozesses	-11.2242
▁niedrige	-11.2243
▁fla	-11.2244
▁binden	-11.2245
▁rasse	-11.2247
▁benutzer	-11.2253
▁verrückten	-11.2253
link	-11.2256
dose	-11.2264
▁legten	-11.2265
▁emotional	-11.2266
orientierte	-11.2268
gelöst	-11.2269
▁strecke	-11.227
ville	-11.2275
▁moralisch	-11.2278
▁36	-11.2283
freund	-11.2287
▁basieren	-11.2293
▁ran	-11.2297
pläne	-11.2298
kanal	-11.2298
♫	-11.2298
figur	-11.2298
papier	-11.2298
▁rettungs	-11.2299
▁kommentare	-11.2309
öhn	-11.231
▁tätig	-11.2331
motiv	-11.2335
üchtig	-11.2337
zog	-11.234
‘	-11.234
▁2011	-11.234
▁alexander	-11.234
▁ausprobieren	-11.234
▁beteiligen	-11.234
▁spektakulär	-11.234
’	-11.234
▁hungrig	-11.234
▁konkurrenz	-11.234
▁kühe	-11.234
▁luxus	-11.234
▁phantom	-11.234
▁sonntag	-11.234
▁ähnelt	-11.234
▁motto	-11.234
▁externe	-11.234
▁zehen	-11.234
▁vieh	-11.234
▁simple	-11.234
▁eröffnen	-11.234
▁wachsende	-11.234
schrei	-11.234
▁behörden	-11.234
▁minimal	-11.234
▁knoten	-11.234
▁bären	-11.2341
▁klänge	-11.2342
▁zuhörer	-11.2342
▁konsumieren	-11.2344
▁sanft	-11.2344
▁kunststoff	-11.2344
▁selbstmord	-11.2345
▁tötet	-11.2345
▁interpretation	-11.2345
▁unabhängigkeit	-11.2347
▁installation	-11.2348
▁wahrhaftig	-11.235
▁unglaubliches	-11.235
suche	-11.2355
▁export	-11.2355
tete	-11.2357
▁ankam	-11.2358
part	-11.2358
▁management	-11.236
frag	-11.2361
eign	-11.2363
▁stufen	-11.2364
hop	-11.2366
▁deck	-11.2367
▁spar	-11.2378
▁misch	-11.2383
▁zugeben	-11.2384
▁getragen	-11.2389
griff	-11.2397
▁elend	-11.2398
▁bergen	-11.24
▁lampe	-11.24
▁wüssten	-11.2417
▁anzunehmen	-11.2417
▁stimm	-11.2418
▁sank	-11.2419
▁restliche	-11.2419
▁tode	-11.2433
▁aufzunehmen	-11.2437
10	-11.2438
▁epi	-11.2438
▁schätze	-11.2439
▁schneiden	-11.2443
▁chirurgen	-11.2446
▁verbreitete	-11.2447
▁zoo	-11.2451
stimmung	-11.2457
▁schwein	-11.2461
▁umsetzen	-11.2462
lässt	-11.2463
artikel	-11.2466
krebs	-11.247
vermögen	-11.247
blätter	-11.247
gesundheit	-11.247
▁vorbild	-11.2472
reaktion	-11.2473
holz	-11.2474
▁geburts	-11.248
schu	-11.2484
geist	-11.2493
▁flüchtlinge	-11.2494
▁brutal	-11.2499
▁kannten	-11.2502
▁lab	-11.2508
▁großem	-11.2512
▁pharma	-11.2512
β	-11.2512
▁babies	-11.2512
▁götter	-11.2512
▁howard	-11.2512
▁kosmische	-11.2512
▁angewandt	-11.2512
▁fokussieren	-11.2512
▁solarenergie	-11.2512
▁stattfand	-11.2513
▁darzustellen	-11.2513
▁hofft	-11.2514
▁stabilität	-11.2514
▁hafen	-11.2514
▁primaten	-11.2514
▁fassen	-11.2515
▁gedreht	-11.2516
▁drüber	-11.2516
▁berührung	-11.2516
▁ekel	-11.2516
▁spezialisiert	-11.2519
▁wochenende	-11.2521
▁moore	-11.2521
▁newton	-11.2523
▁ausländische	-11.2524
▁versetzt	-11.2527
herr	-11.2529
▁elf	-11.2531
▁tunnel	-11.2532
baum	-11.2532
gan	-11.2534
▁route	-11.2534
▁aktiviert	-11.2536
▁interaktiv	-11.2536
▁fundamentale	-11.2538
▁schlagzeilen	-11.2539
▁darm	-11.254
▁getrieben	-11.2541
▁angenehm	-11.2548
▁beizubringen	-11.2548
▁up	-11.2549
▁typisch	-11.255
block	-11.2565
▁niemandem	-11.2566
▁zurzeit	-11.2568
grund	-11.2569
rock	-11.2576
staaten	-11.258
▁höhen	-11.2584
▁erstmals	-11.2588
▁aufhört	-11.259
▁freue	-11.2593
geleitet	-11.2593
▁objekten	-11.2601
▁psychologische	-11.2603
▁mentale	-11.2603
▁warte	-11.2612
▁wählt	-11.2613
▁handwerk	-11.2613
mensch	-11.2616
▁pack	-11.2625
▁redet	-11.2627
▁schuldig	-11.263
läufer	-11.263
▁anzeige	-11.2632
rechnet	-11.2635
▁wurzel	-11.2637
▁eingestellt	-11.2642
freiheit	-11.2645
bleiben	-11.2645
filter	-11.2646
familie	-11.2646
verlust	-11.2647
▁phosphor	-11.2647
▁affe	-11.265
▁neugier	-11.2651
▁gemeint	-11.2652
▁menschlich	-11.2652
amerikaner	-11.2653
▁rate	-11.2659
▁angeboten	-11.2664
schild	-11.2665
▁laptops	-11.2665
▁grundlagen	-11.2672
smittel	-11.2675
▁begleit	-11.2675
▁blogs	-11.2676
▁großzügig	-11.2685
▁sorte	-11.2687
▁anzuwenden	-11.2688
▁benannt	-11.2688
▁draussen	-11.2688
▁entropie	-11.2688
▁erlaubnis	-11.2688
▁ängste	-11.2688
▁aggressiv	-11.2688
▁bewiesen	-11.2688
▁beängstigend	-11.2688
▁bzw	-11.2688
▁geprägt	-11.2688
▁räumlich	-11.2688
▁universal	-11.2688
▁verbrannt	-11.2688
▁cousin	-11.2688
▁verpflichtung	-11.2688
herangehensweise	-11.2688
▁gelingt	-11.2688
▁angeblich	-11.2688
▁glatt	-11.2688
▁pfad	-11.2688
▁zusammenfassen	-11.2688
▁ausgezeichnet	-11.2688
▁wohnzimmer	-11.2688
▁meeresspiegel	-11.2688
king	-11.2688
▁albert	-11.2689
▁redner	-11.2689
▁dankeschön	-11.269
▁glamourös	-11.2691
▁betrug	-11.2691
amerikanische	-11.2691
▁south	-11.2692
▁transportieren	-11.2692
▁antarktis	-11.2693
▁expedition	-11.2693
▁kino	-11.2693
▁beständig	-11.2697
▁notwendigkeit	-11.2697
▁marine	-11.2697
▁anliegen	-11.27
▁urlaub	-11.2702
▁börse	-11.2702
▁anwalt	-11.2704
▁jedermann	-11.2704
▁regal	-11.2704
▁kram	-11.2706
▁wall	-11.2707
▁falt	-11.2708
▁partikel	-11.2709
▁dünne	-11.2709
▁geringe	-11.2709
▁hierbei	-11.271
▁anziehen	-11.2712
▁bislang	-11.2714
▁optische	-11.2714
▁profil	-11.2714
▁größen	-11.2715
▁realistisch	-11.2724
▁interaktionen	-11.2724
▁erfindungen	-11.2725
▁psychologen	-11.2727
▁wiegt	-11.2732
tausch	-11.2734
▁gramm	-11.2735
▁schwarzes	-11.2737
etze	-11.2738
▁kit	-11.2745
▁umgebungen	-11.2748
▁wichtigkeit	-11.2748
ppel	-11.2753
flügel	-11.2757
▁konzentrierte	-11.2766
hier	-11.2776
sammlung	-11.2776
alter	-11.2776
▁blieben	-11.2778
▁jugendlichen	-11.2779
sender	-11.2784
mission	-11.2787
▁schulden	-11.2787
such	-11.2788
bauer	-11.2798
post	-11.2798
▁eric	-11.2798
offen	-11.2803
▁größeres	-11.2809
▁flaschen	-11.2809
▁globaler	-11.2822
verschmutzung	-11.2824
bürger	-11.2824
muskel	-11.2824
fleisch	-11.2825
kreislauf	-11.2825
rollen	-11.2832
aktivität	-11.2833
▁restaurants	-11.2843
▁veröffentlichte	-11.2843
path	-11.2846
statt	-11.285
rechnen	-11.2856
▁grauen	-11.2857
bert	-11.2861
gefahren	-11.2861
▁ermutigt	-11.2866
▁gestohlen	-11.2866
übergreifend	-11.2866
▁stachel	-11.2866
▁sklaverei	-11.2866
▁identifiziert	-11.2866
▁einerseits	-11.2866
▁probiert	-11.2866
▁schizophrenie	-11.2867
▁mandela	-11.2867
▁anweisungen	-11.2867
▁erschreckend	-11.2867
▁großeltern	-11.2867
▁denkst	-11.2868
▁2012	-11.2868
▁mike	-11.2869
▁siehst	-11.2869
▁greifbar	-11.2869
▁gefolgt	-11.2871
▁verpasst	-11.2872
▁festhalten	-11.2872
▁repräsentieren	-11.2874
▁verraten	-11.2875
▁durchmesser	-11.2878
liegende	-11.2883
mmt	-11.2884
▁teppich	-11.2884
schnecke	-11.2884
technologien	-11.2888
regeln	-11.2888
▁les	-11.2889
▁durchlaufen	-11.2892
▁beschäftigte	-11.2892
▁räumen	-11.2893
▁bildungssystem	-11.2895
▁freiwillig	-11.2898
▁gebunden	-11.29
▁schwimm	-11.2901
▁wahnsinnig	-11.2905
▁buches	-11.2909
▁anrufen	-11.2914
▁überdenken	-11.2918
▁demokratische	-11.2919
▁anfällig	-11.2921
▁ferne	-11.2925
▁chinas	-11.2933
▁regionale	-11.2936
▁diskussionen	-11.294
▁züge	-11.2941
▁2,5	-11.2943
▁ernährungs	-11.295
▁überlebens	-11.2954
▁kreuzung	-11.2955
▁blinden	-11.2956
▁erreichte	-11.2956
▁jahrhunderte	-11.2958
opfer	-11.2965
stimmen	-11.297
▁you	-11.2971
▁back	-11.2973
▁krankenhäuser	-11.2974
▁kollege	-11.2975
▁evolutionäre	-11.2977
▁deutschen	-11.2978
▁auseinandersetz	-11.2982
▁verein	-11.2986
▁mischen	-11.2988
▁klimawandels	-11.299
▁kategorie	-11.2992
▁normales	-11.2994
sprogramm	-11.2995
▁tägliche	-11.2998
▁empfindlich	-11.3001
risiko	-11.3006
▁rau	-11.3007
han	-11.3009
arbeitet	-11.3012
also	-11.3013
bombe	-11.3016
generation	-11.3025
▁tim	-11.3025
träger	-11.3026
reisen	-11.3026
▁zweiter	-11.3029
uz	-11.3031
▁42	-11.3032
▁ultimative	-11.3045
grün	-11.3048
▁ausgestorben	-11.3048
▁eingeschränkt	-11.3048
▁eventuell	-11.3048
▁foundation	-11.3048
▁investoren	-11.3048
▁kortex	-11.3048
▁tsunami	-11.3048
▁verletzen	-11.3048
▁spanien	-11.3048
fächer	-11.3048
▁blöd	-11.3048
▁klappt	-11.3048
▁geformt	-11.3048
▁aufgezeichnet	-11.3048
zettel	-11.3049
schäden	-11.3049
▁beruht	-11.3049
▁brems	-11.305
▁schwul	-11.3051
▁paradox	-11.3052
▁wahrgenommen	-11.3054
▁tiger	-11.3057
▁regime	-11.3057
bewegungen	-11.3058
▁zuständig	-11.3058
▁freizeit	-11.3058
▁galerie	-11.3062
▁tempel	-11.3063
▁camp	-11.3063
▁origami	-11.3064
▁hochschul	-11.3065
▁spanisch	-11.3065
▁produktions	-11.3068
▁schöpfung	-11.3071
nehme	-11.3071
passt	-11.3075
▁berufs	-11.3085
▁erbe	-11.309
▁cola	-11.3093
▁reiß	-11.3093
▁ir	-11.3093
tests	-11.3094
▁zueinander	-11.3096
▁bombe	-11.3098
olo	-11.3106
ong	-11.3107
▁einfachste	-11.3112
atom	-11.3121
▁kritiker	-11.3134
▁quad	-11.3137
▁sitze	-11.3142
fällen	-11.3144
▁bel	-11.3148
typen	-11.3149
glieder	-11.315
▁ernste	-11.3153
▁aufruf	-11.3156
▁praktische	-11.3159
▁bringe	-11.3161
▁station	-11.3173
▁erlebte	-11.3174
meisterschaft	-11.3178
▁sil	-11.3178
sicherheit	-11.319
flucht	-11.3191
flugzeug	-11.3192
abschluss	-11.3194
verteilung	-11.3195
abend	-11.3197
▁fürchten	-11.3197
fuß	-11.32
▁pilze	-11.32
▁lehrerin	-11.3202
▁durchgehen	-11.3202
▁standards	-11.3206
▁fundament	-11.3208
▁wandern	-11.3209
▁leichte	-11.321
rand	-11.321
▁weihnachts	-11.3214
▁unendliche	-11.3218
▁spin	-11.3226
.500	-11.3232
▁photo	-11.3232
▁ausgestattet	-11.3233
▁beherrschen	-11.3233
▁brilliant	-11.3233
▁delphin	-11.3233
▁herzinfarkt	-11.3233
▁melodie	-11.3233
▁transformation	-11.3233
▁verpflichtet	-11.3233
▁wörtlich	-11.3233
▁drastisch	-11.3233
▁erschwinglich	-11.3233
▁nebenwirkungen	-11.3233
▁ordentlich	-11.3233
▁chronisch	-11.3233
▁architektonisch	-11.3233
▁größtenteils	-11.3233
▁jazz	-11.3233
▁völkermord	-11.3233
▁gelegentlich	-11.3233
▁übel	-11.3233
▁schenken	-11.3233
▁jesus	-11.3233
▁chor	-11.3233
▁kandidaten	-11.3233
▁diät	-11.3234
▁barriere	-11.3234
▁abgelegen	-11.3236
leg	-11.3236
▁fotografieren	-11.3237
▁raumschiff	-11.3238
▁notfall	-11.3238
▁seiden	-11.3238
▁2050	-11.3239
▁hingegen	-11.3239
▁fbi	-11.3241
▁apfel	-11.3243
▁tänzer	-11.3243
▁bevölkerungs	-11.3244
▁hinterher	-11.3246
▁würfel	-11.3248
▁neutral	-11.3249
scher	-11.3251
▁bü	-11.3251
▁teilnahme	-11.3252
▁faul	-11.3253
▁belastung	-11.3253
▁brut	-11.3255
shirt	-11.3256
hängen	-11.3258
▁zwang	-11.326
▁genial	-11.3263
▁wollt	-11.3264
▁lebensform	-11.3264
▁realisiert	-11.3265
▁abschließen	-11.3273
▁zone	-11.3276
▁dokumentiert	-11.3277
▁verschmutzung	-11.3277
▁einladung	-11.3278
▁erkannten	-11.3279
▁bogen	-11.3279
felder	-11.328
▁wohnt	-11.3281
▁illegale	-11.3289
konto	-11.3289
▁rechnung	-11.329
▁gesetzen	-11.3291
▁spinnen	-11.3292
▁dicke	-11.3295
▁hinweisen	-11.33
▁schwelle	-11.3303
▁behindert	-11.3303
swerte	-11.3304
▁stimmung	-11.3304
grafische	-11.3307
▁ausser	-11.3308
▁zugrunde	-11.3311
lor	-11.3313
▁fantastischen	-11.3315
nny	-11.3316
werbe	-11.3318
fäl	-11.332
▁schlangen	-11.3322
▁schuf	-11.3323
▁erlaubte	-11.3333
▁graph	-11.334
▁haft	-11.334
wirkung	-11.3351
dreht	-11.337
▁geschlechter	-11.3371
▁aussicht	-11.3372
▁bestandteil	-11.3373
plätze	-11.3378
kampagne	-11.338
branche	-11.338
speicher	-11.338
blatt	-11.338
software	-11.338
wald	-11.338
weißt	-11.338
antwort	-11.338
▁abschließend	-11.3381
▁wolke	-11.3387
partner	-11.3387
▁danken	-11.3401
▁kluge	-11.3405
▁rob	-11.3411
▁sonder	-11.3413
▁baten	-11.3414
anischen	-11.3418
▁energien	-11.3419
läufig	-11.3422
á	-11.3422
▁woanders	-11.3422
▁beschädigt	-11.3422
▁dschihad	-11.3422
▁entsetzlich	-11.3422
▁geglaubt	-11.3422
▁grösste	-11.3422
▁gummi	-11.3422
▁nelson	-11.3422
▁smartphone	-11.3422
▁trennung	-11.3422
▁verfügt	-11.3422
▁vermischt	-11.3422
▁republikaner	-11.3422
▁stunt	-11.3422
▁quantenmechanik	-11.3422
▁neigung	-11.3423
▁halfen	-11.3423
▁frühstück	-11.3424
veröffentlichung	-11.3424
▁lebensstil	-11.3424
▁übliche	-11.3425
▁ethik	-11.3425
lett	-11.3425
▁fordern	-11.3425
säure	-11.3426
▁mechanische	-11.3426
anzug	-11.3427
▁fotograf	-11.343
▁anderswo	-11.343
▁nervensystem	-11.3431
projekte	-11.3431
▁freitag	-11.3433
▁gitter	-11.3434
▁italienisch	-11.3438
▁universelle	-11.3438
aids	-11.3439
▁schuh	-11.3441
▁eigenartig	-11.3441
▁schockiert	-11.3441
▁fin	-11.3441
▁ya	-11.3445
▁pr	-11.3448
isation	-11.345
▁reaktor	-11.345
▁service	-11.345
▁rente	-11.345
▁drucken	-11.3452
▁rekord	-11.3452
xi	-11.3455
ji	-11.3457
▁engel	-11.3463
▁bricht	-11.3464
▁vorstellt	-11.3464
▁breiten	-11.3464
anne	-11.3465
trat	-11.3468
▁slums	-11.3471
ira	-11.3472
onnen	-11.3477
sparen	-11.3477
aufnahmen	-11.3478
▁spirituelle	-11.3479
▁wu	-11.3481
anda	-11.3484
▁ratte	-11.3485
▁ford	-11.3493
▁betrachtung	-11.3496
▁kürzer	-11.3497
ola	-11.3499
▁runde	-11.3499
aktivist	-11.35
▁beruflich	-11.3502
▁emotionalen	-11.3504
▁versteckte	-11.3509
▁andauernd	-11.3515
▁einzigartigen	-11.3516
fin	-11.3517
▁befand	-11.3518
▁julia	-11.3518
erkrankungen	-11.3522
▁gelegt	-11.3523
▁schafe	-11.3524
▁met	-11.3524
▁erkrankung	-11.3529
▁durchaus	-11.353
▁riesig	-11.3532
paar	-11.3536
▁dörfer	-11.354
▁physikalische	-11.354
▁riesiger	-11.3541
▁betreffen	-11.3544
▁erstmal	-11.355
studenten	-11.3556
▁decken	-11.3558
ühl	-11.356
▁möglichst	-11.3561
bei	-11.3562
▁sach	-11.3568
abhängig	-11.3569
künstler	-11.3572
büro	-11.3572
▁eisen	-11.3574
materialien	-11.3574
arzt	-11.3575
▁mitgebracht	-11.3578
box	-11.3578
▁erwachsen	-11.3578
▁freundschaft	-11.358
erfolg	-11.3581
naja	-11.3583
▁karikatur	-11.3583
▁wörtern	-11.3584
cul	-11.359
▁persönlicher	-11.3592
▁innovative	-11.3604
▁rande	-11.3605
▁glamour	-11.3611
▁immun	-11.3611
▁1998	-11.3614
▁auszuprobieren	-11.3614
▁diagnostiziert	-11.3614
▁empfangen	-11.3614
▁hektar	-11.3614
▁integrieren	-11.3614
▁shanghai	-11.3614
▁silicon	-11.3614
▁unvorstellbar	-11.3614
▁verdoppeln	-11.3614
▁beruhigen	-11.3614
▁gandhi	-11.3614
▁verstorben	-11.3614
▁weizen	-11.3614
▁north	-11.3614
▁russische	-11.3614
▁müde	-11.3614
▁stehlen	-11.3614
▁passwort	-11.3614
▁orbit	-11.3614
▁heimatstadt	-11.3615
▁teller	-11.3615
▁schweben	-11.3615
farben	-11.3615
▁scherz	-11.3616
▁brian	-11.3616
▁abhängt	-11.3616
▁füllt	-11.3617
▁süchtig	-11.3617
euer	-11.3617
▁synthetische	-11.3619
▁schlicht	-11.362
▁schall	-11.362
▁elektroden	-11.362
▁pandemie	-11.362
▁nr	-11.362
▁portrait	-11.3621
▁berücksichtigt	-11.3625
▁rauschen	-11.3625
▁daraufhin	-11.3626
▁spender	-11.3626
▁brennstoff	-11.3627
▁trainings	-11.3629
▁mobile	-11.3629
▁müsst	-11.3631
▁bud	-11.3631
▁finanzierung	-11.3632
▁bezirk	-11.3633
▁durchbruch	-11.3643
▁wär	-11.3644
▁hoffnungslos	-11.3645
▁zahlt	-11.3646
fft	-11.3647
▁stammes	-11.3649
▁schreien	-11.3653
▁folgte	-11.3654
▁vorgänge	-11.3655
▁fasern	-11.3656
kamen	-11.366
▁out	-11.3661
▁betrachte	-11.3662
▁rituale	-11.3662
▁sl	-11.3664
▁drohnen	-11.3664
▁jenes	-11.3668
▁teurer	-11.3668
meine	-11.3672
▁polizisten	-11.3677
▁aktuell	-11.3685
fest	-11.3687
türme	-11.3687
▁einführung	-11.3688
▁oma	-11.369
liege	-11.3695
▁demokratischen	-11.3695
▁anlage	-11.3698
reiche	-11.3703
▁kommerzielle	-11.3709
▁aufgestellt	-11.3711
▁steuert	-11.3716
▁freuen	-11.3719
▁nutze	-11.372
▁einführen	-11.3721
chef	-11.3722
▁gelang	-11.3723
▁packen	-11.3727
gefangen	-11.3728
▁angelegenheit	-11.3731
▁grenz	-11.3734
▁mat	-11.3738
▁fliegende	-11.374
haut	-11.3743
med	-11.3748
▁bausteine	-11.3749
bricht	-11.3754
messer	-11.3755
▁brennstoffe	-11.3756
zuholen	-11.3757
▁nutzte	-11.3759
lehnen	-11.376
▁flogen	-11.3763
bio	-11.3766
▁geduld	-11.3767
▁besucher	-11.3767
märkte	-11.3768
sektor	-11.3768
kreuz	-11.3768
gewalt	-11.3768
▁märkten	-11.3769
brett	-11.3776
▁effiziente	-11.3777
▁störung	-11.3779
menschliche	-11.3779
raub	-11.378
▁angestellte	-11.3783
▁interne	-11.3788
▁robotern	-11.3794
▁lateinamerika	-11.3796
▁zusammenhänge	-11.3809
▁abraham	-11.381
▁anerkannt	-11.381
▁angewendet	-11.381
▁enzym	-11.381
▁erweiterung	-11.381
▁göttlich	-11.381
▁idiot	-11.381
▁variable	-11.381
▁bestätigen	-11.381
▁ueber	-11.381
▁henry	-11.381
▁amateur	-11.381
▁atheist	-11.381
▁ausgedrückt	-11.3811
▁quadratmeter	-11.3811
▁söhne	-11.3811
▁long	-11.3811
▁innenstadt	-11.3811
▁mitleid	-11.3812
▁gestiegen	-11.3813
▁johnson	-11.3813
▁standort	-11.3813
genoss	-11.3814
▁ansah	-11.3814
gefallen	-11.3817
▁drahtlose	-11.3819
▁algen	-11.3822
▁bestes	-11.3822
▁2.000	-11.3822
▁3.000	-11.3823
▁2002	-11.3828
▁sowieso	-11.3832
▁kostenlose	-11.3833
▁jedesmal	-11.3835
▁traditionen	-11.3835
inter	-11.3835
▁schätzt	-11.3838
▁erfolgs	-11.3841
▁pflicht	-11.3843
▁ausgelöst	-11.3844
▁anschließend	-11.3846
▁jederzeit	-11.385
▁führenden	-11.3857
▁globales	-11.386
hielt	-11.386
▁gewaltigen	-11.3862
▁fördert	-11.3863
▁sun	-11.3867
▁einschränkungen	-11.387
▁schrecklichen	-11.3873
▁briefe	-11.3875
▁eineinhalb	-11.3878
▁negativen	-11.3879
▁tony	-11.388
▁anhören	-11.3884
▁einfallen	-11.3884
▁physikalischen	-11.3886
▁komplexes	-11.389
▁meint	-11.3897
▁platten	-11.3898
▁kolonien	-11.39
bit	-11.3902
listen	-11.3908
▁kenn	-11.3909
▁zeichnete	-11.3909
▁wortes	-11.3911
▁beschrieb	-11.3912
▁cur	-11.3912
▁37	-11.3914
▁schufen	-11.3914
rett	-11.3918
weiß	-11.3921
▁ergab	-11.3927
▁entfernten	-11.3929
gebrochen	-11.393
▁erzählung	-11.3938
▁angezogen	-11.3944
stark	-11.3948
bänder	-11.3952
▁wunderbares	-11.3952
▁türen	-11.3952
▁rakete	-11.3953
▁wohnungen	-11.3955
▁opfern	-11.3955
haufen	-11.3967
▁kollektiven	-11.3968
verarbeitung	-11.3968
wolke	-11.3968
fehler	-11.3968
helfen	-11.3968
▁zunge	-11.3968
▁funktionierende	-11.3969
▁machbar	-11.397
▁raumes	-11.3971
steuern	-11.3971
kurve	-11.3976
▁ali	-11.3977
ziert	-11.3983
▁anfänge	-11.3992
▁neuesten	-11.3993
▁schrei	-11.3997
▁minen	-11.3999
▁wenigsten	-11.4
▁furcht	-11.4003
▁charaktere	-11.4004
▁vereinen	-11.4006
skosten	-11.4007
ökonom	-11.401
▁prinz	-11.401
▁intervention	-11.401
▁atlantik	-11.401
▁ausprobiert	-11.401
▁bambus	-11.401
▁erschafft	-11.401
▁fledermäuse	-11.401
▁interpretieren	-11.401
▁konkurrieren	-11.401
▁konversation	-11.401
▁lincoln	-11.401
▁märz	-11.401
▁pizza	-11.401
▁verkündet	-11.401
▁willkürlich	-11.401
▁übernommen	-11.401
▁dvd	-11.401
▁leistet	-11.401
▁befürchte	-11.401
▁gespeichert	-11.401
▁riecht	-11.401
▁verwirklichen	-11.401
▁künste	-11.401
▁riechen	-11.4011
▁atomenergie	-11.4011
port	-11.4011
maßnahmen	-11.4011
▁nebel	-11.4012
▁nebeneinander	-11.4012
▁minus	-11.4013
▁aussagen	-11.4013
▁perfektion	-11.4014
ire	-11.4014
systems	-11.4016
▁chile	-11.4017
▁montag	-11.4018
▁womöglich	-11.4018
▁juden	-11.4019
town	-11.402
▁szenario	-11.4021
of	-11.4023
▁zerbrechlich	-11.4024
▁teilt	-11.4027
▁ertrag	-11.4028
▁feinde	-11.4029
▁mobiltelefon	-11.4031
▁versuchs	-11.4032
▁ii	-11.4033
▁penis	-11.4034
▁angel	-11.4035
▁agieren	-11.4036
▁dampf	-11.4038
▁hebt	-11.4042
▁areal	-11.4047
ala	-11.405
▁typischen	-11.405
▁streifen	-11.4051
▁kleineren	-11.4052
▁logo	-11.4054
▁/	-11.4056
▁ausgabe	-11.4059
▁nieren	-11.4063
▁erheben	-11.4064
▁mrt	-11.4067
imi	-11.4067
▁ernsthafte	-11.407
▁bestandteile	-11.407
smöglichkeiten	-11.407
schließt	-11.4072
▁harten	-11.4075
▁spart	-11.4076
▁umgesetzt	-11.4077
▁source	-11.4083
häuser	-11.4098
▁schiffe	-11.4098
schuhe	-11.4099
▁eurer	-11.4106
▁ze	-11.4107
▁malte	-11.4109
▁vermuten	-11.4114
▁vergangen	-11.4115
▁krankheits	-11.4117
▁denker	-11.4119
▁verwendeten	-11.412
▁wachsenden	-11.4124
▁riss	-11.4127
▁hans	-11.4128
▁zustimmen	-11.4133
lia	-11.4141
bogen	-11.4146
▁eintreten	-11.4156
av	-11.4158
▁mem	-11.4158
▁meile	-11.4168
händler	-11.4172
gemäß	-11.4172
physik	-11.4172
zweck	-11.4172
–	-11.4172
▁vernünftig	-11.4173
▁blinde	-11.4174
▁interviews	-11.4176
brot	-11.4179
zulassen	-11.4188
▁unbekannten	-11.4188
ierer	-11.4189
▁existierte	-11.419
▁experimentelle	-11.4191
▁schale	-11.4193
▁zusehen	-11.4195
▁einbringen	-11.4197
▁gesteuert	-11.4197
patienten	-11.4198
▁absichtlich	-11.4198
nullsummen	-11.42
▁aufhalten	-11.4205
▁draht	-11.4205
▁zeichnung	-11.4206
▁fange	-11.4211
▁feynman	-11.4214
▁allgegenwärtig	-11.4214
▁brooklyn	-11.4214
▁engagieren	-11.4214
▁fiktion	-11.4214
▁frustriert	-11.4214
▁geschwister	-11.4214
▁populär	-11.4214
▁premierminister	-11.4214
▁robotik	-11.4214
▁stärksten	-11.4214
▁balken	-11.4214
▁earth	-11.4214
▁griechische	-11.4214
▁beseitigen	-11.4214
▁zuverlässig	-11.4214
▁zuzuhören	-11.4214
▁priester	-11.4214
▁vorbereitung	-11.4214
lässig	-11.4214
▁befreit	-11.4214
▁verleihen	-11.4214
▁oftmals	-11.4214
▁protozelle	-11.4215
▁vorgehensweise	-11.4215
▁überein	-11.4215
▁biosphäre	-11.4215
▁forschen	-11.4217
▁festzustellen	-11.4219
▁vertreten	-11.4225
schi	-11.4228
blog	-11.4228
▁isst	-11.423
lai	-11.4232
▁gedruckt	-11.4233
▁beute	-11.4234
▁mono	-11.4236
▁gerichtet	-11.4239
▁grand	-11.4241
▁vorschlagen	-11.4241
▁verringert	-11.4246
▁anfingen	-11.4246
▁übertragung	-11.4247
▁hinab	-11.4248
▁cap	-11.4249
format	-11.4252
▁immerhin	-11.4255
▁eurem	-11.4261
▁rettung	-11.4264
▁endlos	-11.4266
▁kipp	-11.427
▁kurse	-11.4271
▁non	-11.4273
▁delfine	-11.4277
▁dynamische	-11.4277
▁ermöglichte	-11.4281
faktor	-11.4282
asse	-11.4283
▁natürlicher	-11.4283
▁renn	-11.4293
▁gehst	-11.4297
▁intelligenten	-11.4298
▁diplomat	-11.4303
▁vergleicht	-11.4309
biologe	-11.4312
gehört	-11.4314
▁polar	-11.4314
▁hof	-11.4315
▁zustände	-11.4316
▁gewinne	-11.4317
▁autonome	-11.4317
▁stau	-11.4317
▁kleinsten	-11.4318
ura	-11.4318
▁surf	-11.4325
fors	-11.4326
ingenieur	-11.4329
affe	-11.4334
▁bedingung	-11.4334
regel	-11.4334
▁alltags	-11.4336
▁ökologisch	-11.4337
▁oberste	-11.4338
▁ernten	-11.4341
▁platziert	-11.4341
▁politischer	-11.4343
▁gri	-11.4345
▁landschaften	-11.4345
gerechnet	-11.4372
emissionen	-11.438
$	-11.4381
gehirn	-11.4383
▁kliniken	-11.4387
▁deutsche	-11.4392
▁unmögliche	-11.4392
▁31	-11.4395
▁unbewusst	-11.4397
wischen	-11.4398
gericht	-11.4399
▁aufstellen	-11.4405
▁hang	-11.4408
amerikanischen	-11.4408
▁parteien	-11.4412
▁betracht	-11.4413
schön	-11.4414
▁irr	-11.4415
zyklus	-11.442
▁synchron	-11.4422
▁republik	-11.4423
°	-11.4423
▁anfühlt	-11.4423
▁befestigt	-11.4423
▁bemühen	-11.4423
▁benjamin	-11.4423
▁county	-11.4423
▁detroit	-11.4423
▁erwischt	-11.4423
▁explodiert	-11.4423
▁gesunken	-11.4423
▁herkömmliche	-11.4423
▁minderheit	-11.4423
▁scott	-11.4423
▁tastatur	-11.4423
▁umgewandelt	-11.4423
▁vakuum	-11.4423
▁anzufangen	-11.4423
▁entscheidet	-11.4423
▁errichtet	-11.4423
▁second	-11.4423
▁frosch	-11.4423
▁generieren	-11.4423
frucht	-11.4423
▁informatik	-11.4423
▁psychopath	-11.4423
▁verfassung	-11.4423
▁zoll	-11.4423
▁überprüft	-11.4423
▁üblicherweise	-11.4423
▁zitiere	-11.4424
▁sprang	-11.4424
▁rückseite	-11.4425
▁verletzlichkeit	-11.4425
geschoss	-11.4426
▁aktivisten	-11.4426
▁beschäftigung	-11.4428
▁hierarchie	-11.4429
▁millimeter	-11.4429
▁hill	-11.443
▁beleuchtung	-11.443
▁shi	-11.4431
blöcke	-11.4433
▁schachtel	-11.4433
▁cloud	-11.4434
▁zusammenbruch	-11.4434
▁gef	-11.4436
▁trauma	-11.4436
down	-11.4437
▁untereinander	-11.4437
▁geflogen	-11.4437
▁matrix	-11.4437
▁liberale	-11.4438
▁schütteln	-11.444
▁sto	-11.444
▁trugen	-11.4441
▁skala	-11.4447
▁schub	-11.4447
verhaltensweisen	-11.4448
▁normaler	-11.4449
▁absichten	-11.4451
itz	-11.4452
▁who	-11.4454
out	-11.4456
▁gelaufen	-11.4456
▁toller	-11.4457
▁strich	-11.4458
kauf	-11.4459
stil	-11.4462
▁schaf	-11.4468
▁verwende	-11.4479
▁miete	-11.4482
▁nützliche	-11.4482
▁unsinn	-11.4483
▁produkten	-11.4484
▁truppen	-11.4485
drüse	-11.4489
start	-11.449
▁auslösen	-11.4492
sauce	-11.4496
▁flüssig	-11.45
nacht	-11.4501
▁ci	-11.4504
▁kraftvoll	-11.4504
web	-11.4508
▁allererste	-11.4511
▁heiz	-11.4513
▁handelte	-11.4514
▁naiv	-11.4519
▁texte	-11.4536
▁soldat	-11.4537
▁korallenriffe	-11.4549
▁ursachen	-11.4554
▁vorhersage	-11.4556
länge	-11.4557
▁zugriff	-11.4558
▁nerv	-11.4558
▁insekt	-11.4558
▁leitet	-11.4561
fra	-11.4561
zel	-11.4565
▁städtische	-11.4566
ua	-11.4571
▁starteten	-11.4573
▁ökosysteme	-11.4575
▁urheberrecht	-11.4576
geschlagen	-11.4576
▁kreativer	-11.4576
▁aktive	-11.4583
▁lebendige	-11.4588
▁wahnsinn	-11.4589
▁rechtliche	-11.4589
wollen	-11.459
▁interaktive	-11.4592
studium	-11.4593
»	-11.4593
gerissen	-11.4596
betrieb	-11.4599
sensor	-11.4599
stecken	-11.4601
▁verschiedenste	-11.4609
▁mobiltelefone	-11.4613
▁organisierte	-11.4621
nachrichten	-11.4622
▁netzwerken	-11.4623
gefasst	-11.4624
aufgabe	-11.4626
▁massiv	-11.4627
wände	-11.4627
prüfung	-11.463
akte	-11.4632
▁verletzlich	-11.4633
schwäche	-11.4635
▁alpha	-11.4635
▁clinton	-11.4635
▁dilemma	-11.4635
▁geometrie	-11.4635
▁ideologie	-11.4635
▁mythos	-11.4635
▁november	-11.4635
▁provinz	-11.4635
▁stephen	-11.4635
'000	-11.4635
abgeordnete	-11.4635
▁tweet	-11.4635
▁absurd	-11.4635
▁anwesenheit	-11.4635
▁ironie	-11.4635
▁primär	-11.4635
▁gewalttätig	-11.4635
▁herbst	-11.4635
▁albern	-11.4635
▁tugend	-11.4635
▁probanden	-11.4635
▁carolina	-11.4636
▁schoss	-11.4636
▁richtlinien	-11.4636
▁stickstoff	-11.4636
▁1999	-11.4636
▁keller	-11.4636
▁artenvielfalt	-11.4636
▁berlin	-11.4636
▁sinkt	-11.4636
▁mitfühlend	-11.4637
▁hausaufgaben	-11.4637
▁zutaten	-11.4638
▁hebel	-11.4639
▁2030	-11.4639
▁dumme	-11.4639
▁wiederaufbau	-11.4639
▁verschieben	-11.4639
▁2020	-11.4641
platten	-11.4642
sco	-11.4642
▁verläuft	-11.4645
▁schädlich	-11.4645
▁rick	-11.4646
streifen	-11.4647
▁interface	-11.4649
▁clip	-11.4651
▁empfänger	-11.4652
▁mega	-11.4654
▁detektor	-11.4655
▁pik	-11.4658
▁kindersitz	-11.4658
▁gelenk	-11.4659
▁lg	-11.4663
▁begeben	-11.4663
▁studierende	-11.4667
▁zäh	-11.4675
▁lohnt	-11.4675
▁mächtigste	-11.4676
my	-11.4678
▁fang	-11.4679
leitung	-11.4684
▁sammelt	-11.4686
▁brett	-11.4687
▁schalter	-11.4692
▁comics	-11.4696
▁strassen	-11.4696
▁variationen	-11.4696
▁sender	-11.4702
gesetze	-11.4704
▁süße	-11.4709
▁haustier	-11.471
massen	-11.4714
istik	-11.4716
▁kleinste	-11.4716
▁übersehen	-11.4717
lied	-11.4721
▁hasse	-11.4721
▁tauschen	-11.4723
▁jünger	-11.4726
▁erwartete	-11.4727
ini	-11.473
▁könntest	-11.473
▁log	-11.4736
flasche	-11.4736
▁enge	-11.4746
▁grösse	-11.4746
wellen	-11.4751
fol	-11.4755
▁lama	-11.4758
▁kritik	-11.4764
shilfe	-11.4765
▁therapien	-11.4765
▁karo	-11.4766
▁werkzeugen	-11.4769
▁möchtest	-11.4772
▁erschienen	-11.4776
▁untersuchten	-11.4777
beste	-11.4778
▁ressource	-11.4779
▁data	-11.4782
▁skulpturen	-11.4785
▁überzeugungen	-11.4785
▁med	-11.4785
▁aufweisen	-11.4787
▁schlechteste	-11.4792
▁reformen	-11.4792
▁farmer	-11.4793
▁teilten	-11.4793
glas	-11.4793
stationen	-11.4795
▁spezifischen	-11.4803
schloss	-11.4804
▁mm	-11.4806
danke	-11.4809
höhe	-11.481
kredit	-11.4811
konzept	-11.4811
perspektive	-11.4811
rahmen	-11.4811
grab	-11.4811
▁ozeans	-11.4811
bewegen	-11.4811
angriff	-11.4816
level	-11.4817
▁bestimmtes	-11.4818
▁geister	-11.4818
▁48	-11.4818
findung	-11.4819
▁philosoph	-11.482
reihe	-11.4827
▁roll	-11.4828
▁vollständige	-11.483
rumpf	-11.4833
▁bleib	-11.4838
▁feier	-11.4846
▁parks	-11.4846
▁drucker	-11.4848
▁gefängnisse	-11.485
zufügen	-11.485
gefügt	-11.4852
▁strafe	-11.4853
▁elektromagnet	-11.4853
▁beunruhigt	-11.4853
▁dächer	-11.4853
▁embryo	-11.4853
▁gescheitert	-11.4853
▁glukose	-11.4853
▁hawaii	-11.4853
▁indonesien	-11.4853
▁legitim	-11.4853
▁leinwand	-11.4853
▁münze	-11.4853
▁regulieren	-11.4853
▁schöpfer	-11.4853
▁schützt	-11.4853
▁singapur	-11.4853
▁unzählige	-11.4853
▁bruno	-11.4853
▁cricket	-11.4853
▁kevin	-11.4853
▁recycling	-11.4853
▁watson	-11.4853
▁ergreifen	-11.4853
klammer	-11.4853
▁stirn	-11.4853
▁dürre	-11.4853
fiction	-11.4853
▁stigma	-11.4853
verfolgung	-11.4853
▁vorurteile	-11.4853
▁monster	-11.4853
▁heftig	-11.4853
▁nachdachte	-11.4853
▁ausbreiten	-11.4853
▁überholt	-11.4853
▁erdgas	-11.4854
▁puls	-11.4854
▁beinhalten	-11.4854
▁fox	-11.4854
▁tödliche	-11.4855
▁immens	-11.4855
▁fließend	-11.4855
▁geschätzt	-11.4856
autor	-11.4856
▁zusammengefasst	-11.4858
▁markieren	-11.4858
▁verschaffen	-11.4858
▁master	-11.4858
▁abweichung	-11.4862
▁project	-11.4862
pert	-11.4864
ektion	-11.4865
strukturen	-11.4865
▁gereist	-11.4865
▁lust	-11.4865
▁bananen	-11.4868
▁latein	-11.4869
▁französische	-11.4869
▁fusion	-11.4869
▁behälter	-11.4872
▁rauf	-11.4873
▁leidet	-11.4875
▁abwasser	-11.4875
▁30.000	-11.4875
▁platzieren	-11.4875
▁bestehende	-11.4876
▁hütte	-11.4879
▁versetzen	-11.4879
▁hormon	-11.488
▁glaub	-11.488
▁hülle	-11.488
▁berücksichtigen	-11.4882
▁brille	-11.4883
▁sonderbar	-11.4884
▁gefühlt	-11.4885
▁christen	-11.4886
pel	-11.4889
▁obere	-11.4889
ehrt	-11.4893
sey	-11.4894
▁betrachter	-11.4898
▁greift	-11.4899
ruhe	-11.4902
▁gelegenheiten	-11.4904
▁häusern	-11.4907
▁liefen	-11.4907
▁abkommen	-11.4908
▁genome	-11.4915
strategie	-11.4922
ture	-11.4925
gerecht	-11.4927
versuch	-11.4931
▁umfang	-11.4935
▁dörfern	-11.4937
▁kategorien	-11.4942
▁anbau	-11.4943
bedingungen	-11.4945
▁ähnlichkeit	-11.4946
▁psychisch	-11.4948
▁steigende	-11.4949
▁kristall	-11.4951
▁dün	-11.4953
▁«	-11.4955
for	-11.4956
▁act	-11.4965
▁fuss	-11.4965
▁heu	-11.4968
▁herrlich	-11.4976
▁350	-11.4976
▁verschwand	-11.4977
▁jüdische	-11.4978
▁koralle	-11.4983
▁durchfall	-11.499
▁blume	-11.4994
▁kämpfe	-11.4999
rede	-11.4999
▁intelligenter	-11.5003
▁orangen	-11.5003
▁comic	-11.5014
cle	-11.5015
möglich	-11.5017
▁han	-11.5019
rauch	-11.5019
▁überwachung	-11.5023
▁dokumente	-11.5025
▁herausstellt	-11.5025
▁seide	-11.5026
sprung	-11.5029
thema	-11.5032
operation	-11.5032
fremd	-11.5033
gebunden	-11.5033
schließe	-11.5033
liegt	-11.5035
begriff	-11.5037
kabel	-11.5037
brücke	-11.5038
teilchen	-11.5039
▁schweiz	-11.5039
▁gleichungen	-11.504
▁zeichnet	-11.5045
beispiel	-11.5046
▁steven	-11.5047
▁zufällige	-11.5052
▁ungleich	-11.5054
▁email	-11.5055
▁kur	-11.5057
konzern	-11.5059
▁meinten	-11.5062
▁lob	-11.5065
bedingte	-11.5066
▁beliebig	-11.5071
▁pinguin	-11.5072
▁alarm	-11.5072
▁amazon	-11.5074
schlussfolgerung	-11.5075
▁mcdonald	-11.5075
defizit	-11.5075
▁audio	-11.5075
▁beunruhigend	-11.5075
▁chemiker	-11.5075
▁depressiv	-11.5075
▁flexible	-11.5075
▁flüchtig	-11.5075
▁geographic	-11.5075
▁hemisphäre	-11.5075
▁humanitäre	-11.5075
▁kontinuierlich	-11.5075
▁kostengünstig	-11.5075
▁lebensunterhalt	-11.5075
▁prognose	-11.5075
▁referenz	-11.5075
▁regulierung	-11.5075
▁simulieren	-11.5075
▁tendieren	-11.5075
▁veranschaulich	-11.5075
▁charlie	-11.5075
▁subtil	-11.5075
▁belohnt	-11.5075
▁lippen	-11.5075
▁tabelle	-11.5075
▁stetig	-11.5075
▁trennt	-11.5075
▁ibm	-11.5075
oxid	-11.5075
▁befasst	-11.5075
▁jones	-11.5075
▁problematisch	-11.5076
▁eigenständig	-11.5076
▁geschäftsführer	-11.5076
▁erlernen	-11.5076
▁andrew	-11.5076
▁keim	-11.5076
▁blue	-11.5076
▁waschen	-11.5077
▁erzielt	-11.5077
▁gelungen	-11.5078
▁hinterfragen	-11.5079
inseln	-11.5079
▁2:	-11.508
▁krabbe	-11.5083
▁trommel	-11.5084
▁fasst	-11.5084
sprich	-11.5086
▁membran	-11.5087
dach	-11.5087
▁gründung	-11.5088
▁interessierte	-11.5091
▁mathematischen	-11.5091
▁mary	-11.5092
serie	-11.5092
rücken	-11.5095
▁erschaffung	-11.5096
▁lizenz	-11.5098
große	-11.5098
▁finanziell	-11.5106
▁gerufen	-11.5107
krankheit	-11.5108
▁vergeben	-11.5108
spalte	-11.5112
▁verbrauch	-11.5112
▁elternteil	-11.5119
horn	-11.512
▁verarbeitung	-11.5122
▁untersuchte	-11.5123
landschaft	-11.5128
▁überfluss	-11.5131
▁ergebnissen	-11.5142
▁rohstoffe	-11.5145
▁vorkommt	-11.5147
▁holt	-11.5149
▁zivilisationen	-11.5153
▁kurzes	-11.5159
▁wärmer	-11.516
gewinn	-11.516
▁schläge	-11.516
▁kauften	-11.5163
▁72	-11.5165
▁steuerung	-11.5166
▁krankenhäusern	-11.5167
▁billige	-11.5167
▁bunt	-11.5168
▁galt	-11.5187
▁erzählungen	-11.5188
▁netze	-11.5189
back	-11.5194
leitungen	-11.5196
▁don	-11.5199
▁sin	-11.52
wick	-11.5202
jähriges	-11.5203
▁anstrengung	-11.5203
▁ansätze	-11.521
schaffen	-11.521
drücken	-11.5213
▁spring	-11.5216
▁programmier	-11.5225
▁note	-11.5226
▁experte	-11.5229
▁dienste	-11.523
smodell	-11.5232
▁dunkler	-11.5233
▁älteste	-11.5237
▁verletzung	-11.5237
▁these	-11.524
veränder	-11.524
▁kont	-11.5241
▁mitmachen	-11.5249
▁naturschutz	-11.5254
winkel	-11.526
greift	-11.526
wächst	-11.526
▁ideale	-11.5261
national	-11.5263
professor	-11.5263
▁46	-11.5268
▁abbau	-11.5273
blau	-11.5273
saal	-11.5276
▁carl	-11.5277
▁spa	-11.5278
gesellschaften	-11.5279
▁frische	-11.5286
achtung	-11.529
▁unerwartet	-11.5291
▁merkmal	-11.5292
▁behandlungen	-11.5292
▁instinkt	-11.5294
80	-11.5299
wäl	-11.5301
produzent	-11.5302
kandidat	-11.5302
▁allmählich	-11.5302
▁anderthalb	-11.5302
▁applaus	-11.5302
▁aristoteles	-11.5302
▁begeisterung	-11.5302
▁beurteilen	-11.5302
▁enttäuscht	-11.5302
▁hüfte	-11.5302
▁kooperieren	-11.5302
▁louis	-11.5302
▁reparatur	-11.5302
▁shakespeare	-11.5302
▁sowjetunion	-11.5302
▁therapeut	-11.5302
▁ägypter	-11.5302
▁sahara	-11.5302
▁syrien	-11.5302
▁bewaffnet	-11.5302
▁verhaftet	-11.5302
▁stören	-11.5302
▁bewertet	-11.5302
▁umwandeln	-11.5302
▁harmonie	-11.5303
▁bevorzugt	-11.5303
▁gezielt	-11.5303
▁demütig	-11.5303
▁nordpol	-11.5303
▁meeresboden	-11.5303
▁arbeitskräfte	-11.5304
▁hemd	-11.5304
▁fallschirm	-11.5304
▁gewehr	-11.5305
▁iq	-11.5305
▁mechanisch	-11.5305
▁gezeichnet	-11.5305
▁umweltschutz	-11.5306
▁hervorbringen	-11.5306
fern	-11.5306
▁beschaffen	-11.5306
▁weitgehend	-11.5307
▁entnehmen	-11.5307
▁techniker	-11.5307
▁niedlich	-11.5308
▁anwesend	-11.5308
▁früchte	-11.5309
▁farbige	-11.5309
pfeif	-11.5309
tasche	-11.5311
ventil	-11.5311
▁coca	-11.5311
▁beten	-11.5315
riss	-11.5315
schwer	-11.5315
▁beteiligung	-11.5315
▁jemen	-11.5316
▁bündel	-11.5318
▁trainer	-11.5319
▁gründer	-11.5321
▁gefroren	-11.5323
▁langzeit	-11.5324
▁gefäß	-11.5324
▁vertreter	-11.5324
▁videospiel	-11.5325
▁boy	-11.5326
blasen	-11.5328
▁berater	-11.5332
▁aufklärung	-11.5335
▁würdig	-11.5335
▁vorlesen	-11.5338
▁einsetzt	-11.5338
topf	-11.5338
▁schiffs	-11.5339
▁schweizer	-11.5339
▁gestoßen	-11.5341
▁max	-11.5341
▁wechselt	-11.5343
▁ac	-11.5349
geladen	-11.5349
von	-11.5356
▁dauernd	-11.5357
▁örtlichen	-11.5361
zählen	-11.5362
▁ruft	-11.5364
▁überzeugend	-11.5365
grenzen	-11.5367
▁seltsamen	-11.5368
▁botschaften	-11.5368
▁jahreszeit	-11.5372
▁kata	-11.5373
beutel	-11.5378
▁riefen	-11.538
▁mel	-11.5383
▁einflussreich	-11.5384
▁erwachsener	-11.5384
▁konflikten	-11.5386
▁herausfanden	-11.5388
sinnig	-11.5392
▁hilflos	-11.5396
sport	-11.5399
bri	-11.54
▁strecken	-11.5404
▁unsichtbaren	-11.5408
▁lücken	-11.5411
nisse	-11.5413
▁angelegt	-11.5417
▁derjenige	-11.5417
▁befanden	-11.5421
▁treffe	-11.5431
▁130	-11.5432
ologe	-11.5432
▁vorgehen	-11.5434
zonen	-11.5435
▁giftige	-11.5443
▁dramatische	-11.5453
▁einzelner	-11.5456
stiegen	-11.5463
▁flaggen	-11.5464
▁beleg	-11.5466
▁scan	-11.5467
▁wahlmöglichkeit	-11.5468
▁witze	-11.5473
einheiten	-11.5474
▁klicken	-11.5475
gestalt	-11.5485
▁44	-11.5487
schleife	-11.5492
stuhl	-11.5493
museum	-11.5493
mädchen	-11.5493
zeitalter	-11.5494
behandlung	-11.5498
titel	-11.55
▁angenehme	-11.5504
▁ast	-11.5507
▁amy	-11.5511
kleid	-11.5512
bestand	-11.5517
verhältnisse	-11.5518
rolle	-11.5524
▁feuerwehr	-11.5534
▁kokain	-11.5535
=	-11.5535
▁asthma	-11.5535
▁auslöst	-11.5535
▁authentisch	-11.5535
▁begegnung	-11.5535
▁folgendermaßen	-11.5535
▁manipulieren	-11.5535
▁neuseeland	-11.5535
▁optimal	-11.5535
▁reflektieren	-11.5535
▁square	-11.5535
▁transistor	-11.5535
gießen	-11.5535
▁bronx	-11.5535
▁kurzfristig	-11.5535
▁verschmelzen	-11.5535
blühen	-11.5535
▁begraben	-11.5535
▁stört	-11.5535
▁vermutung	-11.5535
▁installiert	-11.5535
▁agenda	-11.5535
▁kühlschrank	-11.5535
▁redwood	-11.5535
▁gründlich	-11.5535
▁verbergen	-11.5535
▁virginia	-11.5535
▁rückmeldung	-11.5535
▁panzer	-11.5535
▁jungfrau	-11.5535
▁honig	-11.5535
▁griechenland	-11.5536
▁erdöl	-11.5536
geachtet	-11.5536
▁ansteckend	-11.5536
▁mobilität	-11.5536
▁rückgang	-11.5537
▁alex	-11.5538
spiral	-11.5538
▁1900	-11.5539
▁silber	-11.5541
▁jahrtausende	-11.5541
▁seti	-11.5541
▁konventionelle	-11.5542
▁herausgestellt	-11.5542
alisiert	-11.5542
▁symmetrisch	-11.5542
▁lebensjahr	-11.5543
house	-11.5543
▁verlässt	-11.5543
▁instinktiv	-11.5543
▁zeitspanne	-11.5548
genau	-11.555
▁raubtier	-11.5551
▁kratz	-11.5551
▁tante	-11.5552
▁schmale	-11.5552
▁tragbare	-11.5553
flächen	-11.5553
▁abnehmen	-11.5556
▁zigaretten	-11.5559
▁räder	-11.5559
forderung	-11.5563
▁statisch	-11.5563
▁angegriffen	-11.5563
▁mechanismen	-11.5563
guckt	-11.5564
▁cal	-11.5566
gier	-11.5566
tief	-11.5567
▁traurige	-11.5569
▁furchtbare	-11.5572
▁raster	-11.5572
schneidet	-11.5574
▁steckte	-11.5578
ausgabe	-11.5578
▁rap	-11.558
▁anzug	-11.558
▁schieben	-11.5587
▁hack	-11.559
▁ansammlung	-11.559
▁klage	-11.5591
▁schnittstelle	-11.5593
▁flucht	-11.5594
▁löschen	-11.5595
▁gewöhnlichen	-11.5596
faktoren	-11.5604
▁prioritäten	-11.5604
reibe	-11.561
klagt	-11.5612
60	-11.5613
gebieten	-11.5613
▁niedrigen	-11.5614
einhalb	-11.5619
▁verbündete	-11.5619
▁link	-11.5621
▁zugegeben	-11.5625
lebe	-11.5635
▁forschern	-11.5639
heft	-11.5642
tüte	-11.5642
▁musikstück	-11.5647
▁sea	-11.565
messung	-11.5654
▁ram	-11.5657
stufe	-11.5657
▁künstlern	-11.5661
ähnlich	-11.5669
rio	-11.5677
▁cartoon	-11.5689
▁ausnahmen	-11.569
ix	-11.5691
▁weiblich	-11.5692
▁erhöhte	-11.5693
▁endete	-11.5696
sei	-11.5697
▁äußere	-11.5699
▁schade	-11.5704
▁jüngeren	-11.5714
wärme	-11.572
▁lieb	-11.5722
prinzip	-11.573
prüf	-11.573
bühne	-11.5731
vortrag	-11.5731
tafel	-11.5732
bring	-11.5733
▁walk	-11.5733
kugel	-11.5734
▁liebevoll	-11.5735
gefertigt	-11.5736
farm	-11.5739
▁orange	-11.5739
macher	-11.5744
▁mental	-11.5744
▁nachweis	-11.575
schätzung	-11.5751
ansatz	-11.5756
▁wachte	-11.5757
▁starkes	-11.5758
kopie	-11.5758
wahrscheinlich	-11.5759
lag	-11.5764
▁belegt	-11.5765
brecher	-11.5767
▁museums	-11.5771
kümmer	-11.5772
▁bemühungen	-11.5773
▁demonstrieren	-11.5773
▁etabliert	-11.5773
▁gänzlich	-11.5773
▁monterey	-11.5773
▁parkinson	-11.5773
▁potenziell	-11.5773
▁raffiniert	-11.5773
▁rezession	-11.5773
▁schmeckt	-11.5773
▁tiefgründig	-11.5773
▁verdächtig	-11.5773
▁vergewaltigung	-11.5773
▁visualisierung	-11.5773
▁zuallererst	-11.5773
▁afro	-11.5773
▁vereinfacht	-11.5773
▁akzent	-11.5773
▁recherche	-11.5773
▁krähen	-11.5773
▁mikrofon	-11.5773
stößt	-11.5773
▁erfüllung	-11.5773
▁jeweilige	-11.5773
▁beratung	-11.5773
bilanz	-11.5773
▁spazieren	-11.5773
▁wechselwirkung	-11.5773
▁freut	-11.5773
▁filmemacher	-11.5773
▁bonobo	-11.5773
▁molekular	-11.5774
▁kopiert	-11.5775
▁meldet	-11.5775
▁campus	-11.5775
▁klettern	-11.5775
▁fortbewegung	-11.5775
▁flor	-11.5776
▁gefiel	-11.5778
▁arabische	-11.5779
▁biomasse	-11.578
▁stundenlang	-11.578
▁betrat	-11.5781
▁eingangs	-11.5782
▁datenmenge	-11.5783
▁jf	-11.5784
▁entkommen	-11.5788
▁bälle	-11.579
▁model	-11.5792
garten	-11.5793
▁angeschlossen	-11.5793
areal	-11.5795
▁lachs	-11.5798
informationen	-11.5803
▁einnahmen	-11.5803
▁mücken	-11.5808
ano	-11.5808
▁verlegen	-11.5809
▁brennen	-11.581
▁love	-11.581
▁kehrte	-11.5811
▁begehen	-11.5812
▁indus	-11.5814
▁demokrat	-11.5814
▁herde	-11.5815
welle	-11.5815
▁vernünftige	-11.5821
▁bürgern	-11.5825
saft	-11.5828
▁sterblichkeit	-11.5832
12	-11.5834
arme	-11.5842
▁schickt	-11.5851
▁demselben	-11.5854
▁minister	-11.5856
▁beck	-11.5856
modelle	-11.5859
▁spannende	-11.586
▁zeitschriften	-11.5861
▁ecken	-11.5863
▁schmelzen	-11.5864
ppt	-11.5865
▁persönliches	-11.5868
▁wuchsen	-11.5869
▁philip	-11.5869
▁anzeigen	-11.5875
glied	-11.5885
▁peer	-11.5887
▁berufe	-11.5892
▁angelegenheiten	-11.5895
▁fil	-11.5895
erkenne	-11.5896
▁geheime	-11.5897
leistungen	-11.5898
dienste	-11.59
▁magazine	-11.5901
probe	-11.591
▁sm	-11.5915
▁chips	-11.5917
alität	-11.5917
▁alphabet	-11.5919
▁einladen	-11.5921
tod	-11.5921
▁angriffe	-11.5921
still	-11.5923
▁angebracht	-11.5927
▁1,2	-11.5941
schulen	-11.5941
▁reifen	-11.5942
▁wolle	-11.5943
▁derselbe	-11.5943
▁traditionell	-11.5949
▁gründeten	-11.5957
▁optionen	-11.5958
dynamik	-11.5958
lagerung	-11.5958
▁aktiven	-11.5965
afrika	-11.5966
▁pin	-11.5968
infektion	-11.5974
küste	-11.5974
▁jüngere	-11.5975
verständnis	-11.5975
training	-11.5975
metall	-11.5975
hälfte	-11.5975
äft	-11.5975
wirklich	-11.5975
▁metaphern	-11.5977
▁folien	-11.598
▁landkarte	-11.5981
gestaltung	-11.5983
▁erstaunliches	-11.5984
▁verbesserungen	-11.5985
▁tausch	-11.5985
kali	-11.599
▁potentielle	-11.5992
▁herumzu	-11.6003
äumt	-11.6007
millionen	-11.6008
▁ingenieurs	-11.6009
wünscht	-11.601
▁5000	-11.6011
▁berichte	-11.6012
▁akteur	-11.6013
mond	-11.6014
strömung	-11.6017
▁angewiesen	-11.6017
▁april	-11.6017
▁atemberaubend	-11.6017
▁exemplar	-11.6017
▁grönland	-11.6017
▁helium	-11.6017
▁leonardo	-11.6017
▁reflektiert	-11.6017
▁signifikant	-11.6017
▁vermächtnis	-11.6017
▁weihnachten	-11.6017
▁ökologie	-11.6017
▁agrar	-11.6017
▁relation	-11.6017
▁verschwendet	-11.6017
▁formuliert	-11.6017
▁verpackung	-11.6017
wägen	-11.6017
arabien	-11.6017
▁ökonomie	-11.6017
▁drachen	-11.6017
▁verstärken	-11.6017
▁bevorzugen	-11.6017
▁entschuldigen	-11.6017
▁hasst	-11.6017
▁reporter	-11.6017
▁gemalt	-11.6017
▁aussuchen	-11.6018
▁ausüben	-11.6018
▁nationalpark	-11.6018
▁schwangerschaft	-11.6018
▁damalige	-11.6018
▁wildnis	-11.6018
anstalt	-11.6019
▁harry	-11.6019
▁trank	-11.6019
▁realisieren	-11.6019
▁190	-11.6019
▁weinte	-11.6019
▁dokumentieren	-11.602
▁tabu	-11.6021
▁unterdrückt	-11.6022
▁kult	-11.6025
▁getränk	-11.6025
▁notaufnahme	-11.6025
▁raumfahrt	-11.6026
alismus	-11.6027
▁brad	-11.6029
▁vollzeit	-11.6029
▁busch	-11.6029
▁taxi	-11.6029
▁ross	-11.6029
▁sagst	-11.603
▁abläuft	-11.6031
▁200.000	-11.6034
▁ausgangs	-11.6034
▁springt	-11.6037
▁vorgeschlagen	-11.6038
▁beeindruckende	-11.6039
▁antreibt	-11.6039
▁suppe	-11.6041
▁reservat	-11.6042
▁tank	-11.6044
kante	-11.6046
junge	-11.6048
▁lektionen	-11.6053
▁norm	-11.6056
▁taucher	-11.6056
falte	-11.6059
▁auszusehen	-11.6062
▁klinisch	-11.6063
▁einstellungen	-11.6066
▁schaltet	-11.6068
▁solarzellen	-11.6069
▁wegwerf	-11.607
▁horizontal	-11.6071
▁redete	-11.6082
▁erlebnisse	-11.6084
▁vorort	-11.6086
kapsel	-11.6106
mir	-11.6109
▁demokraten	-11.6116
▁generiert	-11.6116
▁rm	-11.6117
▁philosophische	-11.6117
seitige	-11.612
▁stra	-11.612
erhalb	-11.612
▁line	-11.6123
unterschiede	-11.613
▁mathematisch	-11.6132
▁spitz	-11.6134
▁lege	-11.6148
omi	-11.6154
nächst	-11.6154
▁nachkommen	-11.6158
▁durften	-11.616
▁tippen	-11.6164
pin	-11.6164
loch	-11.6164
▁entwarf	-11.6169
▁japanischen	-11.6171
▁aß	-11.6178
▁doppelte	-11.6178
▁antwortet	-11.6184
▁argumente	-11.6188
▁rohstoff	-11.619
fuhr	-11.6191
▁biene	-11.6193
▁kunde	-11.6195
geteilt	-11.6195
spunkte	-11.6195
strich	-11.6201
▁fülle	-11.6201
▁konkrete	-11.6203
▁schliess	-11.6211
▁südamerika	-11.6213
stift	-11.6213
▁phasen	-11.6222
▁klassischen	-11.6223
club	-11.6224
hersteller	-11.6225
wörter	-11.6225
kontakt	-11.6225
käme	-11.6225
viertel	-11.6226
mutter	-11.6227
gestoßen	-11.6231
einsatz	-11.6236
ministerium	-11.6237
▁letzt	-11.6242
▁34	-11.6245
stange	-11.6246
klick	-11.625
▁säugetier	-11.6254
idee	-11.6258
▁pet	-11.6259
ace	-11.6265
▁errungenschaft	-11.6267
historiker	-11.6267
▁aufregung	-11.6267
▁befriedigen	-11.6267
▁berkeley	-11.6267
▁chemotherapie	-11.6267
▁cholera	-11.6267
▁geleistet	-11.6267
▁gespannt	-11.6267
▁konstruieren	-11.6267
▁mozart	-11.6267
▁mumbai	-11.6267
▁reduktion	-11.6267
▁regnet	-11.6267
▁schlamm	-11.6267
▁seattle	-11.6267
▁tansania	-11.6267
▁tibet	-11.6267
▁wortwörtlich	-11.6267
▁östlich	-11.6267
▁kontrast	-11.6267
▁lautsprecher	-11.6267
▁rabbi	-11.6267
▁dämm	-11.6267
▁gemischt	-11.6267
▁irrational	-11.6267
▁pionier	-11.6267
reflex	-11.6267
▁kreation	-11.6267
▁tomaten	-11.6267
▁veraltet	-11.6267
▁ultra	-11.6267
▁versichern	-11.6267
▁erschuf	-11.6267
▁verhandlungen	-11.6267
▁verpassen	-11.6267
▁hürde	-11.6267
▁begründet	-11.6267
▁sünde	-11.6267
▁kilogramm	-11.6267
▁daniel	-11.6267
▁plakat	-11.6267
▁wohingegen	-11.6268
▁action	-11.6268
▁herzkrankheiten	-11.6269
▁herbei	-11.6269
normal	-11.6269
▁erholt	-11.627
▁währenddessen	-11.627
▁praktik	-11.627
▁verluste	-11.6271
▁neo	-11.6271
▁melden	-11.6271
▁scheiße	-11.6271
▁mix	-11.6272
▁argumentieren	-11.6272
▁nächte	-11.6272
▁bestimmung	-11.6274
▁entlassen	-11.6275
▁café	-11.6276
▁marathon	-11.6278
▁angesprochen	-11.6278
▁sähe	-11.6279
▁rover	-11.6279
▁prozentsatz	-11.628
▁halluzinationen	-11.6281
▁merkwürdige	-11.6282
▁bearbeiten	-11.6284
▁jagd	-11.6285
▁kriminalität	-11.6286
15	-11.6287
▁schilder	-11.629
▁beigetragen	-11.6291
▁flüchtling	-11.6293
▁christi	-11.6294
big	-11.6298
▁lustige	-11.6299
▁zwecke	-11.6299
ness	-11.6299
▁takt	-11.6301
▁blockiert	-11.6305
nerzähler	-11.6307
fonds	-11.6309
▁förderung	-11.6311
▁schleife	-11.6313
hat	-11.6314
▁abgeben	-11.6319
zurufen	-11.6319
rief	-11.6323
▁teilte	-11.6325
▁hiermit	-11.6327
led	-11.6328
▁schaltkreise	-11.6332
gebildet	-11.6337
▁arabisch	-11.6339
swachstum	-11.634
tank	-11.6344
▁witzig	-11.6348
▁giftig	-11.635
▁linsen	-11.635
herz	-11.6351
grenze	-11.6354
▁cartoons	-11.6356
▁herrn	-11.6359
▁behinderungen	-11.6359
▁schlage	-11.6361
▁reist	-11.6361
▁strahlen	-11.6361
▁bedient	-11.6362
▁spinne	-11.6366
stellige	-11.6368
▁essenz	-11.6371
▁maske	-11.6372
▁intellektuellen	-11.638
▁schlauer	-11.6382
▁prozessor	-11.6398
▁stoffe	-11.6403
▁revolutionär	-11.6405
▁stop	-11.6406
▁wählten	-11.6408
stock	-11.6413
▁mäusen	-11.642
70	-11.6422
▁schnellsten	-11.6423
selig	-11.6423
▁kreatur	-11.6425
▁kilometern	-11.6428
tour	-11.6428
▁alltägliche	-11.6428
getan	-11.6429
▁moderner	-11.6431
immer	-11.6431
▁herauszu	-11.6434
▁erkläre	-11.6438
▁beobachtungen	-11.6438
▁linse	-11.6439
getrieben	-11.644
▁französischen	-11.6441
klar	-11.6442
freundlich	-11.6443
▁chromosom	-11.6445
schichten	-11.6447
▁batterien	-11.6454
atmen	-11.6456
▁religiös	-11.6462
100	-11.6469
▁ritual	-11.647
▁austauschen	-11.6477
fried	-11.648
klinik	-11.6481
geräusch	-11.6481
einrichtungen	-11.6481
experten	-11.6481
objekt	-11.6481
knochen	-11.6481
bedarf	-11.6481
▁umbringen	-11.6482
▁geniale	-11.6485
pflicht	-11.6485
▁chr	-11.6493
fenster	-11.65
▁künstlerin	-11.6503
zählt	-11.6504
▁expo	-11.6504
ekto	-11.6506
▁elektron	-11.6507
bekämpfung	-11.6509
▁anlagen	-11.6514
▁feucht	-11.6519
strömt	-11.6523
▁gespür	-11.6523
künfte	-11.6523
▁1995	-11.6523
▁angiogenese	-11.6523
▁ankunft	-11.6523
▁annähernd	-11.6523
▁anzubieten	-11.6523
▁atlanta	-11.6523
▁bemüht	-11.6523
▁connectome	-11.6523
▁düster	-11.6523
▁hüpf	-11.6523
▁infrarot	-11.6523
▁intellekt	-11.6523
▁joseph	-11.6523
▁kopenhagen	-11.6523
▁maximal	-11.6523
▁riskieren	-11.6523
▁transformieren	-11.6523
▁verlangsamt	-11.6523
▁vitamin	-11.6523
▁anzupassen	-11.6523
▁dominiert	-11.6523
▁gänse	-11.6523
▁steigerung	-11.6523
▁ausgerichtet	-11.6523
▁koennen	-11.6523
▁arthur	-11.6523
muschel	-11.6523
▁informieren	-11.6523
▁befolgen	-11.6523
hebung	-11.6523
▁zorn	-11.6523
▁umsonst	-11.6524
▁beachtlich	-11.6524
▁myzel	-11.6524
▁disney	-11.6524
▁versammelt	-11.6524
▁südpol	-11.6524
▁drängen	-11.6524
klatsch	-11.6524
generator	-11.6525
drohung	-11.6525
▁parkplatz	-11.6525
▁meerwasser	-11.6526
▁weist	-11.6526
▁messungen	-11.6527
▁objektive	-11.6529
sand	-11.653
▁unterdrücken	-11.6531
▁bearbeitet	-11.6531
▁respektieren	-11.6531
▁ausgesprochen	-11.6531
▁todesfälle	-11.6532
▁unrecht	-11.6532
bearbeitung	-11.6533
▁river	-11.6534
blende	-11.6535
▁100%	-11.6536
boote	-11.6537
▁teilzunehmen	-11.6537
schüttet	-11.6537
▁3000	-11.6537
▁rechteck	-11.6539
▁becher	-11.6542
▁mörder	-11.6543
▁salat	-11.6546
▁gestein	-11.6546
sgrad	-11.6547
▁saison	-11.6549
rasse	-11.6551
▁stühle	-11.6551
proben	-11.6551
▁zusammenbringen	-11.6552
stütze	-11.6562
▁leuchtet	-11.6567
▁abed	-11.6568
▁38	-11.6571
▁genauigkeit	-11.6571
▁säulen	-11.6577
▁vornehmen	-11.6577
▁verwirrend	-11.6578
ory	-11.6579
hose	-11.6585
▁müttern	-11.6586
▁schweiß	-11.6586
▁umsetzung	-11.6586
übung	-11.6589
▁talentiert	-11.6591
▁existierenden	-11.6592
▁parasiten	-11.6592
smuster	-11.6596
▁busse	-11.6597
▁pflegen	-11.6605
▁geste	-11.6607
▁lecker	-11.6608
▁bach	-11.6613
▁kürze	-11.6613
▁ausrede	-11.6618
wache	-11.6621
▁erholen	-11.6626
▁aßen	-11.6626
▁evolutionär	-11.6635
wood	-11.664
▁philosophen	-11.6641
▁freud	-11.6643
würfe	-11.6645
▁aneinander	-11.6651
schreitet	-11.6654
▁alltäglichen	-11.6657
▁bildes	-11.6663
blase	-11.6666
▁zusammenspiel	-11.6684
▁sitzung	-11.6684
▁besaß	-11.6687
▁erwartung	-11.6687
▁konsequenz	-11.6688
▁unbekannt	-11.6689
▁herausfand	-11.669
▁gier	-11.67
▁fleck	-11.67
▁aufgegeben	-11.6703
▁delfin	-11.6706
▁sammelten	-11.6708
drückt	-11.6709
signale	-11.6711
▁strasse	-11.6713
▁aufbaut	-11.6715
▁impfstoffe	-11.6719
▁umfassen	-11.672
▁aufzugeben	-11.6721
▁43	-11.6722
prall	-11.6725
▁wander	-11.6736
sraum	-11.6736
▁komponente	-11.6738
▁entsprechen	-11.6739
riet	-11.674
geschnitten	-11.6741
ata	-11.6742
sequenz	-11.6743
bewohner	-11.6744
übertragung	-11.6744
epidemie	-11.6744
rekord	-11.6744
schüler	-11.6744
▁anrufe	-11.6745
verkauf	-11.6747
▁analog	-11.6763
▁individuell	-11.6766
▁hindernis	-11.6766
▁aufwand	-11.6768
▁macher	-11.6771
▁dp	-11.6772
trans	-11.6775
dimensionen	-11.6775
zähler	-11.6777
▁kuba	-11.6777
▁spreng	-11.678
▁gebrauchen	-11.6786
▁sexual	-11.6786
athlet	-11.6786
anti	-11.6786
cocktail	-11.6786
engineering	-11.6786
▁1994	-11.6786
▁alaska	-11.6786
▁asiatische	-11.6786
▁brasilianische	-11.6786
▁canyon	-11.6786
▁erläuter	-11.6786
▁ernährt	-11.6786
▁everest	-11.6786
▁explodieren	-11.6786
▁favorit	-11.6786
▁fortpflanzung	-11.6786
▁gattung	-11.6786
▁jerusalem	-11.6786
▁paradigma	-11.6786
▁passagier	-11.6786
▁ungeheure	-11.6786
▁universen	-11.6786
▁wright	-11.6786
▁zeitgenössische	-11.6786
▁ähneln	-11.6786
▁österreich	-11.6786
▁comedy	-11.6786
▁lhc	-11.6786
▁abholzung	-11.6786
▁gemerkt	-11.6786
▁indianer	-11.6786
▁frustration	-11.6786
▁verknüpfen	-11.6786
▁diverse	-11.6786
▁waisen	-11.6786
▁tattoo	-11.6787
▁jetzige	-11.6787
▁fokussiert	-11.6787
▁klischee	-11.6787
höfe	-11.6787
▁genossen	-11.6787
▁hinzugefügt	-11.6787
fieber	-11.6788
▁motorrad	-11.6788
▁zirk	-11.6788
▁rückkehr	-11.6788
▁loswerden	-11.6788
▁story	-11.6788
▁vorbereiten	-11.6788
▁ruhm	-11.6788
▁sarah	-11.6789
▁landesweit	-11.6789
▁niederlande	-11.6789
▁aktien	-11.6789
▁hinterließ	-11.679
▁eva	-11.6791
▁einsamkeit	-11.6791
▁moschee	-11.6791
▁mini	-11.6792
▁haken	-11.6793
▁dreieinhalb	-11.6793
▁kindergarten	-11.6793
▁jeff	-11.6796
▁abhängen	-11.6797
rude	-11.6798
▁festival	-11.6799
▁baumkronen	-11.6801
wing	-11.6805
▁neurologische	-11.6806
▁institutionelle	-11.6808
▁stoß	-11.6808
▁kau	-11.6809
▁abspielen	-11.681
▁periode	-11.6812
▁potentiell	-11.6813
grube	-11.6816
▁herauskommen	-11.6816
▁hal	-11.6816
▁worau	-11.6822
▁garantiere	-11.6823
▁yu	-11.6824
▁blickt	-11.6825
▁zusammenkommen	-11.6827
wanderung	-11.683
▁club	-11.6831
▁gewiss	-11.6833
aufgaben	-11.6834
sprach	-11.6841
▁eigener	-11.6842
▁überblick	-11.6848
▁sauer	-11.6848
rain	-11.6848
▁fortschrittlich	-11.6851
erzeugung	-11.6854
▁voraussetzungen	-11.6854
▁aufgehört	-11.6857
77	-11.686
▁aufgefallen	-11.6861
▁infektionen	-11.6865
▁schein	-11.6868
▁plant	-11.687
▁aufwachsen	-11.6871
agenturen	-11.6873
▁geradezu	-11.6873
▁führe	-11.6874
▁übernimmt	-11.6876
▁aufsteigen	-11.6892
▁quell	-11.6894
▁verwandelte	-11.6897
▁patente	-11.6899
▁milo	-11.69
▁bezogen	-11.69
▁anstrengungen	-11.6903
▁starker	-11.6908
▁gebilde	-11.6911
▁bro	-11.6912
▁play	-11.6917
sstrategie	-11.692
▁banker	-11.6921
▁filtern	-11.6932
stunde	-11.6934
▁belegen	-11.6936
verbindungen	-11.6938
▁begriffe	-11.6942
▁kondome	-11.6944
roll	-11.695
▁ausgehend	-11.6952
uhr	-11.6953
▁phänomenal	-11.6954
▁vergess	-11.6958
▁anpassungsfähig	-11.6962
moleküle	-11.6966
sministerium	-11.6968
▁mall	-11.6968
▁behinderung	-11.6969
▁technologisch	-11.6974
▁ausgeht	-11.6974
führ	-11.6974
▁spirituell	-11.6976
rollt	-11.6977
▁pille	-11.6982
▁variante	-11.6982
bereiche	-11.6999
bevölkerung	-11.7001
▁bedien	-11.7004
▁fundamental	-11.7008
▁zeitschrift	-11.7008
hirn	-11.7009
geworfen	-11.7009
krank	-11.7012
▁160	-11.7012
mechanismus	-11.7015
universität	-11.7015
schmerz	-11.7015
ärzte	-11.7015
jetzt	-11.7016
medien	-11.7016
schlaf	-11.7016
party	-11.7022
job	-11.7025
hoch	-11.7035
▁geschenkt	-11.704
trug	-11.7041
mehr	-11.7042
▁lohn	-11.7043
▁lade	-11.7044
wickelt	-11.7048
ird	-11.705
▁vögeln	-11.7052
▁korrupt	-11.7056
sphäre	-11.7056
käufe	-11.7056
akademie	-11.7057
erhöhung	-11.7057
qaida	-11.7057
▁akademiker	-11.7057
▁anspruchsvolle	-11.7057
▁antreiben	-11.7057
▁auslöser	-11.7057
▁besonderheit	-11.7057
▁celsius	-11.7057
▁empfindung	-11.7057
▁füttern	-11.7057
▁gedauert	-11.7057
▁höflich	-11.7057
▁hühnchen	-11.7057
▁indirekt	-11.7057
▁jupiter	-11.7057
▁manipuliert	-11.7057
▁unbegrenzt	-11.7057
▁unterbrochen	-11.7057
▁unternommen	-11.7057
▁verwundbar	-11.7057
▁verärgert	-11.7057
1⁄2	-11.7057
▁erwecken	-11.7057
▁frösche	-11.7057
▁luther	-11.7057
▁zutrifft	-11.7057
▁mount	-11.7057
▁primzahl	-11.7057
▁gefilmt	-11.7057
▁knall	-11.7057
▁tropische	-11.7057
▁imitieren	-11.7057
▁zitiert	-11.7057
▁server	-11.7057
▁stimuliert	-11.7057
prothese	-11.7057
▁anerkennen	-11.7057
▁waschmaschine	-11.7057
▁pumpen	-11.7057
▁klatschen	-11.7058
▁antikörper	-11.7058
stiefel	-11.7058
▁funktionsweise	-11.7058
▁vorhersehbar	-11.7058
▁wendepunkt	-11.7059
▁enthielt	-11.7059
▁kennedy	-11.706
▁black	-11.706
gepackt	-11.7061
▁sierra	-11.7061
▁hefe	-11.7061
▁schlief	-11.7062
▁akteure	-11.7062
▁fungi	-11.7064
▁nagel	-11.7068
▁geheimdienst	-11.7069
▁orientierung	-11.707
▁zustande	-11.7071
▁rechen	-11.7071
▁impfung	-11.7072
▁ampel	-11.7073
▁weitergegeben	-11.7075
richtlinie	-11.7078
▁abbildung	-11.7079
▁uh	-11.7081
▁sammler	-11.7082
sammenzuarbeiten	-11.7082
robot	-11.7085
▁überwachungs	-11.7085
▁wurm	-11.7086
alles	-11.7087
▁geheimnisvoll	-11.7088
▁sexy	-11.709
▁liebling	-11.7091
▁weitergeben	-11.7092
▁vereinbarung	-11.7096
stufen	-11.71
▁primitive	-11.7102
▁putz	-11.7103
▁schwierigsten	-11.7103
▁kontroverse	-11.7109
▁union	-11.7113
▁astronomen	-11.712
▁briten	-11.7121
▁jeans	-11.7122
▁point	-11.7125
▁häufigsten	-11.7128
▁leg	-11.7131
▁varianten	-11.7132
▁kalte	-11.7133
▁tierische	-11.7134
▁betrüger	-11.7146
▁ausbruch	-11.715
▁sende	-11.715
schlauch	-11.7152
▁idealen	-11.7155
▁normen	-11.7166
porn	-11.7169
▁char	-11.7173
ington	-11.7178
▁white	-11.7186
40	-11.7187
▁rollt	-11.7192
▁schwache	-11.7196
biologie	-11.7198
▁fotografen	-11.72
▁überraschen	-11.7203
lm	-11.7214
sieht	-11.7222
▁vorstand	-11.723
▁irre	-11.7233
bezogene	-11.7233
mitglied	-11.7237
▁schalt	-11.7237
linien	-11.7239
azi	-11.7242
mpl	-11.7246
▁baumwolle	-11.7246
▁elefant	-11.7247
phy	-11.725
gehalt	-11.7251
▁ass	-11.7255
angst	-11.7259
verhältnis	-11.7261
▁lehrte	-11.7267
▁mind	-11.7278
▁mächtiger	-11.7279
▁verließen	-11.7279
▁zig	-11.7279
▁übungen	-11.7281
bindung	-11.7284
▁welch	-11.7286
frequenz	-11.7291
wäsche	-11.7292
kammer	-11.7292
magazin	-11.7292
apparat	-11.7292
fließen	-11.7292
schlug	-11.7292
müll	-11.7292
blind	-11.7293
basis	-11.7293
niveau	-11.7294
personal	-11.7297
gesagt	-11.7298
gucken	-11.73
cola	-11.73
▁heimlich	-11.7304
schatz	-11.7305
check	-11.7307
▁gesten	-11.7308
lone	-11.7322
▁fünfte	-11.7322
wunder	-11.7324
▁hormone	-11.7327
▁arbeitslos	-11.733
▁griechen	-11.7334
▁ironisch	-11.7334
▁katastrophal	-11.7334
▁verheerend	-11.7334
▁verzerrung	-11.7334
zyklen	-11.7334
í	-11.7334
▁assoziiert	-11.7334
▁auswendig	-11.7334
▁begehren	-11.7334
▁bewerkstelligen	-11.7334
▁buddha	-11.7334
▁dürfte	-11.7334
▁etikett	-11.7334
▁flexibel	-11.7334
▁fluoreszierende	-11.7334
▁helikopter	-11.7334
▁kambodscha	-11.7334
▁klüger	-11.7334
▁kollision	-11.7334
▁korrigieren	-11.7334
▁kosmos	-11.7334
▁kyros	-11.7334
▁lähmung	-11.7334
▁mysterium	-11.7334
▁permanent	-11.7334
▁plankton	-11.7334
▁pubertät	-11.7334
▁recherchiert	-11.7334
▁routine	-11.7334
▁skeptisch	-11.7334
▁spaghetti	-11.7334
▁sylvia	-11.7334
▁unnötig	-11.7334
▁verteidigen	-11.7334
▁zurückzukehren	-11.7334
▁ästhetik	-11.7334
▁besiegen	-11.7334
▁gelandet	-11.7334
▁larry	-11.7334
▁delhi	-11.7334
▁hervorrufen	-11.7334
▁rechtzeitig	-11.7334
▁überschreiten	-11.7334
▁benennen	-11.7334
vielversprechend	-11.7334
▁bewundern	-11.7334
▁vereinfachen	-11.7334
▁floh	-11.7335
▁harmlos	-11.7335
▁wiederholung	-11.7335
▁tesla	-11.7335
▁bestechung	-11.7335
▁zwangsläufig	-11.7335
▁blutgefäße	-11.7335
▁vermisst	-11.7335
▁verhandeln	-11.7335
▁lebhaft	-11.7335
▁highschool	-11.7335
▁montana	-11.7335
▁komfort	-11.7335
▁sehvermögen	-11.7335
▁leichen	-11.7335
▁stattgefunden	-11.7335
▁misserfolg	-11.7335
▁geschossen	-11.7335
▁east	-11.7335
▁nahrungskette	-11.7335
indikator	-11.7335
▁zurückkehrt	-11.7335
▁lobby	-11.7335
▁schluck	-11.7335
▁schwächen	-11.7335
▁rechenschaft	-11.7335
▁redeten	-11.7335
▁endeffekt	-11.7335
▁doktorand	-11.7335
▁einkaufen	-11.7336
▁kehren	-11.7336
▁irland	-11.7336
▁1930	-11.7336
▁dienstag	-11.7336
verkäufer	-11.7336
▁verlaufen	-11.7336
▁hong	-11.7336
▁alice	-11.7337
▁herunterladen	-11.7337
▁ahnen	-11.7338
▁bart	-11.7338
▁bastel	-11.7338
▁einheimische	-11.7339
▁tageslicht	-11.734
stünde	-11.7341
▁herzschlag	-11.7341
▁schockierend	-11.7342
mächte	-11.7345
▁krebszellen	-11.7345
▁stichprobe	-11.7346
▁beraten	-11.7346
▁wang	-11.7346
▁dankbarkeit	-11.7348
ark	-11.7349
▁50%	-11.7349
▁vorherigen	-11.7351
aaa	-11.7351
▁40.000	-11.7353
insel	-11.7354
▁schüchtern	-11.7354
▁haushalte	-11.7355
▁beobachter	-11.7358
▁sänger	-11.7359
▁lagern	-11.7359
▁zusammensetzen	-11.7361
▁boom	-11.7365
▁obst	-11.7367
▁fantastisches	-11.7371
▁schwachen	-11.7372
▁abfolge	-11.7372
blut	-11.7373
▁kanäle	-11.7374
▁herkommen	-11.7374
▁gucken	-11.7379
▁vorschläge	-11.7381
▁volkes	-11.7384
▁schrittweise	-11.7385
ütze	-11.7388
flaschen	-11.7388
▁wunden	-11.7391
▁händler	-11.7393
▁schönsten	-11.7394
gram	-11.7397
▁leistungsfähig	-11.7399
▁talente	-11.7405
▁französisch	-11.7408
▁ausgeführt	-11.741
▁ausgestellt	-11.7411
▁liebst	-11.7412
tipp	-11.7415
▁evan	-11.7416
▁mau	-11.7416
▁mahlzeiten	-11.7418
▁time	-11.7418
kameras	-11.7421
▁äußeren	-11.7422
▁ansteigen	-11.7423
▁fehlte	-11.7432
▁gewohnheiten	-11.7438
▁arktische	-11.7438
▁warnung	-11.7439
▁herauskam	-11.7439
drehung	-11.7442
▁kasten	-11.7452
sex	-11.7452
▁scheiter	-11.747
▁symbolisch	-11.7472
▁make	-11.7476
▁leitete	-11.7482
▁jane	-11.7488
▁japanische	-11.7489
skop	-11.7489
▁kognitiv	-11.7489
ical	-11.7489
▁erwarte	-11.7491
▁sensor	-11.7495
▁schneide	-11.7497
▁reif	-11.7501
junk	-11.7502
▁mikroskopisch	-11.7508
▁medica	-11.7515
▁tech	-11.7516
▁saf	-11.7519
▁magnetische	-11.7522
verletzung	-11.7523
▁entschloss	-11.7524
200	-11.7526
qual	-11.7528
▁kulturell	-11.7529
▁israelische	-11.753
steckt	-11.7532
▁schultern	-11.7535
▁sim	-11.7535
▁boote	-11.7536
▁ziehe	-11.7539
▁aufnimmt	-11.754
▁siebte	-11.7541
zelt	-11.7545
▁kriminelle	-11.7546
▁örtliche	-11.7546
▁interessiere	-11.7547
▁verbringe	-11.7547
zeichnet	-11.7556
▁nähert	-11.7561
▁blüte	-11.7571
schirm	-11.7571
reaktor	-11.7578
service	-11.7578
profil	-11.7578
plattform	-11.7578
population	-11.7578
besitzer	-11.7578
studio	-11.7578
wettbewerb	-11.7578
positiv	-11.7578
glaube	-11.7579
bewegt	-11.7579
standard	-11.7579
▁drohne	-11.758
hebt	-11.7582
vorstellung	-11.7582
▁fürchte	-11.7582
hallo	-11.7584
stiftung	-11.7592
▁eb	-11.7594
▁gast	-11.7599
ual	-11.7599
▁kleid	-11.7607
▁kla	-11.7608
kollegen	-11.7611
▁giga	-11.7618
▁einbauen	-11.7619
gläser	-11.762
fresser	-11.762
schädigung	-11.762
+	-11.762
stündige	-11.762
▁1997	-11.762
▁astronaut	-11.762
▁beseitigt	-11.762
▁dschungel	-11.762
▁edward	-11.762
▁eingesperrt	-11.762
▁einverstanden	-11.762
▁entspannt	-11.762
▁erderwärmung	-11.762
▁folglich	-11.762
▁gewidmet	-11.762
▁globus	-11.762
▁himalaya	-11.762
▁kommuniziert	-11.762
▁mammographie	-11.762
▁optimieren	-11.762
▁performance	-11.762
▁präfrontale	-11.762
▁registriert	-11.762
▁supernova	-11.762
▁unterscheidung	-11.762
▁verlangsamen	-11.762
▁verschafft	-11.762
▁verwalten	-11.762
▁äquator	-11.762
betreuung	-11.762
▁bruchteil	-11.762
▁frustrierend	-11.762
▁hybrid	-11.762
▁pixel	-11.762
▁samstag	-11.762
▁überquert	-11.762
▁album	-11.762
▁craig	-11.762
▁insulin	-11.762
▁schleimpilz	-11.762
▁vernetzung	-11.762
▁joshua	-11.762
▁beauftragt	-11.762
▁venus	-11.762
▁wußte	-11.762
▁fahrräder	-11.762
▁begangen	-11.762
▁schläft	-11.7621
▁älterwerden	-11.7621
▁superheld	-11.7621
▁statue	-11.7621
▁bedecken	-11.7621
▁schlafzimmer	-11.7621
▁stützen	-11.7621
▁killer	-11.7621
▁stoppt	-11.7622
▁lehrplan	-11.7622
▁ausbilden	-11.7622
▁fossilien	-11.7623
▁fühlst	-11.7623
▁unruhe	-11.7624
▁hirte	-11.7624
▁luftfahrt	-11.7625
▁vorzubereiten	-11.7626
▁hinterkopf	-11.7626
▁zehntel	-11.7627
▁festgelegt	-11.7627
▁stick	-11.7627
▁lehm	-11.7627
qualle	-11.763
▁hauptstadt	-11.7631
▁4.000	-11.7631
▁verbringt	-11.7632
kur	-11.7632
hof	-11.7632
▁schlachtfeld	-11.7633
▁parameter	-11.7635
▁kompetenz	-11.7637
▁fäden	-11.7638
▁kleben	-11.764
▁anlegen	-11.7642
▁solide	-11.7643
nobelpreisträger	-11.7645
▁verband	-11.7645
▁vereinbar	-11.7646
▁schwimmt	-11.7647
▁kommst	-11.7647
wachstum	-11.7648
heilig	-11.7648
▁aufrichtig	-11.7649
▁protokoll	-11.765
▁zero	-11.7651
▁würmer	-11.7651
▁absatz	-11.7652
▁organisch	-11.7655
▁grundschule	-11.7656
▁tötete	-11.7661
gro	-11.7661
▁schirm	-11.7663
▁maria	-11.7667
rochen	-11.767
▁erfolgreicher	-11.7671
scheidungsträger	-11.7673
▁zwischenzeit	-11.7674
▁vorhaben	-11.7677
noten	-11.7679
▁law	-11.7679
spezifische	-11.7681
▁schmutzige	-11.7682
mahl	-11.7683
drehen	-11.7686
▁ketten	-11.7687
▁glühbirnen	-11.7691
samt	-11.7699
▁fragment	-11.7707
▁beiseite	-11.7713
▁nass	-11.7724
plikat	-11.7727
▁ethische	-11.7729
▁günstiger	-11.7729
▁versteh	-11.7731
runde	-11.7731
▁stabile	-11.7732
▁gemäß	-11.7733
▁entwarfen	-11.7735
anthrop	-11.7738
day	-11.7741
schärfe	-11.7744
▁hacken	-11.7744
▁verschwanden	-11.775
zucht	-11.7754
puppe	-11.7767
▁ausschau	-11.7768
ivilgesellschaft	-11.7775
▁mauern	-11.7777
halb	-11.778
deckung	-11.7786
spezialist	-11.7788
▁überraschende	-11.779
▁mochten	-11.7793
▁breiter	-11.7796
forum	-11.7806
▁sinnlos	-11.7811
▁talk	-11.7815
▁wende	-11.7819
▁mutation	-11.7819
▁zusammenzu	-11.7821
trip	-11.7828
spruch	-11.7829
witz	-11.7831
gerufen	-11.7832
melde	-11.7834
hatte	-11.7835
▁älterer	-11.7836
▁japanisch	-11.7838
glück	-11.7839
gebe	-11.7846
▁sher	-11.7852
▁chirurgisch	-11.7859
▁töteten	-11.7864
▁enger	-11.7866
nutzer	-11.7867
würdig	-11.787
▁abstrakt	-11.7871
▁zwangs	-11.7872
stärke	-11.7872
erlebnis	-11.7872
gemeinde	-11.7872
vision	-11.7873
▁schalten	-11.788
gängig	-11.7888
kämpfer	-11.7898
beute	-11.79
▁krieger	-11.7904
prozentige	-11.7905
▁juwel	-11.7914
▁remix	-11.7914
▁aluminium	-11.7914
▁apollo	-11.7914
▁bangladesch	-11.7914
▁beschleunigung	-11.7914
▁betrunken	-11.7914
▁eingebettet	-11.7914
▁gedeihen	-11.7914
▁gefördert	-11.7914
▁gouverneur	-11.7914
▁interagiert	-11.7914
▁investment	-11.7914
▁libanon	-11.7914
▁philadelphia	-11.7914
▁psyche	-11.7914
▁senioren	-11.7914
▁serviert	-11.7914
▁simuliert	-11.7914
▁stewart	-11.7914
▁synapse	-11.7914
▁thailand	-11.7914
▁verrichten	-11.7914
▁walmart	-11.7914
▁ärztin	-11.7914
▁überflüssig	-11.7914
▁überwältigt	-11.7914
▁child	-11.7914
▁nachahmen	-11.7914
▁nutzlos	-11.7914
▁sumpf	-11.7914
▁verschwenden	-11.7914
▁bezahlung	-11.7914
▁ermordet	-11.7914
▁klassifizier	-11.7914
▁trivial	-11.7914
▁subjektiv	-11.7914
▁angreifen	-11.7914
▁heroin	-11.7914
▁verrät	-11.7914
▁wohlergehen	-11.7914
▁erwiesen	-11.7914
wefelwasserstoff	-11.7914
▁porno	-11.7914
▁überwacht	-11.7914
▁aufzeigen	-11.7914
▁dreißig	-11.7914
▁maßstäbe	-11.7914
▁vermehren	-11.7914
▁huhn	-11.7914
▁veteranen	-11.7914
▁einbeziehen	-11.7914
▁erlitt	-11.7915
segment	-11.7915
▁schleim	-11.7915
▁puppen	-11.7915
▁abgestimmt	-11.7915
▁nordost	-11.7915
▁atombombe	-11.7915
▁milchstraße	-11.7915
bögen	-11.7915
▁ehefrau	-11.7915
▁wuerde	-11.7915
▁spezialisten	-11.7916
▁hüte	-11.7916
▁ausgangspunkt	-11.7916
attacke	-11.7916
▁beachtet	-11.7917
▁widerstehen	-11.7917
▁power	-11.7917
▁energiequelle	-11.7917
▁2015	-11.7917
▁nike	-11.7918
vorräte	-11.7918
▁außenwelt	-11.7919
▁geriet	-11.7919
▁narbe	-11.7919
▁textil	-11.792
▁simon	-11.7921
▁spass	-11.7921
▁neugierde	-11.7921
▁schwind	-11.7921
▁täter	-11.7922
▁intakt	-11.7922
sammenzubringen	-11.7923
antrieb	-11.7924
▁unmenge	-11.7925
▁geringsten	-11.7925
▁zylinder	-11.7925
▁lebenslange	-11.7925
▁fda	-11.7926
▁trost	-11.7929
▁aqua	-11.793
▁gedenk	-11.7932
▁spül	-11.7933
▁sammelte	-11.7934
aussage	-11.7934
▁fünftel	-11.7934
▁helm	-11.7934
▁47	-11.7935
▁verträge	-11.7936
▁resistent	-11.7937
▁besetzt	-11.7937
▁teig	-11.7937
▁strategische	-11.7938
▁uniform	-11.7939
▁gängige	-11.794
▁tauch	-11.7944
▁space	-11.7946
▁schaffung	-11.7948
▁unwohl	-11.7948
trakt	-11.795
▁herrschaft	-11.7956
▁steil	-11.7957
drei	-11.7957
▁leihen	-11.7958
▁wäsche	-11.796
▁geschnitten	-11.7962
▁angefertigt	-11.7967
▁kammer	-11.7967
lieferung	-11.7968
▁wunderbarer	-11.7969
▁entwickler	-11.7971
▁ziegen	-11.7978
schliessen	-11.798
▁kick	-11.7987
▁turm	-11.7993
▁tiefsten	-11.7999
▁98	-11.8007
▁beweist	-11.8008
▁vorführung	-11.8009
▁abteilung	-11.801
▁leucht	-11.8016
▁spezifisch	-11.8017
▁ablauf	-11.8018
▁leitung	-11.8025
▁förder	-11.8028
▁chromosomen	-11.803
▁lebensräume	-11.8055
schlüssel	-11.8056
▁beginnend	-11.8057
▁weitergehen	-11.8059
▁umgebracht	-11.8068
▁neuartige	-11.8073
▁interviewt	-11.8076
▁schreit	-11.8078
▁polarisier	-11.808
▁nachher	-11.8091
▁sonnensystems	-11.8092
▁450	-11.8112
▁wäldern	-11.8113
sverfahren	-11.8118
▁polizist	-11.8119
▁offener	-11.8119
▁verbot	-11.8137
▁glühbirne	-11.8143
▁nervenzelle	-11.8144
sequenzierung	-11.815
trägt	-11.8155
gay	-11.8155
▁..."	-11.8162
ermaßen	-11.8164
▁primitiv	-11.8166
kanäle	-11.8175
mikro	-11.8175
kapazität	-11.8175
pilot	-11.8175
komplex	-11.8175
bäume	-11.8175
wunsch	-11.8175
welche	-11.8176
dampf	-11.8176
umgebung	-11.8177
ausbildung	-11.8179
gebung	-11.8179
▁platte	-11.8184
agentur	-11.8186
rüstung	-11.8189
krankenschwester	-11.8191
weh	-11.8196
▁wendet	-11.8196
pause	-11.8197
ogene	-11.82
▁ökonomisch	-11.8202
▁anbauen	-11.8207
▁streitgespräch	-11.8208
▁öko	-11.8212
basiert	-11.8214
signal	-11.8214
▁rhyth	-11.8217
▁enthüllung	-11.8217
schmuggel	-11.8217
▁ausbreitung	-11.8217
▁ausgelöscht	-11.8217
▁basketball	-11.8217
▁beherrscht	-11.8217
▁bergsteiger	-11.8217
▁besorgen	-11.8217
▁bösartig	-11.8217
▁columbia	-11.8217
▁diktator	-11.8217
▁empfand	-11.8217
▁enttäuschen	-11.8217
▁ethanol	-11.8217
▁fakultät	-11.8217
▁geschöpf	-11.8217
▁hartnäckig	-11.8217
▁health	-11.8217
▁hubschrauber	-11.8217
▁interpretiert	-11.8217
▁kriterien	-11.8217
▁lächelt	-11.8217
▁psychiater	-11.8217
▁resonanz	-11.8217
▁spermien	-11.8217
▁symphonie	-11.8217
▁ungerechtigkeit	-11.8217
▁ursprünge	-11.8217
▁veranlasst	-11.8217
▁verzerrt	-11.8217
▁zeitraffer	-11.8217
▁überwiegend	-11.8217
▁altmodisch	-11.8217
▁beijing	-11.8217
▁empor	-11.8217
▁intensität	-11.8217
▁kanadische	-11.8217
▁thermo	-11.8217
▁ausrichten	-11.8217
▁bedenkt	-11.8217
▁installieren	-11.8217
pflaster	-11.8217
▁beschränkungen	-11.8217
▁prophet	-11.8217
▁anthropologe	-11.8217
▁unterirdisch	-11.8217
▁übereinstimmt	-11.8217
dehnung	-11.8217
sponsor	-11.8217
▁hochwertige	-11.8217
▁ostküste	-11.8217
▁deuten	-11.8218
▁verzicht	-11.8218
▁aufwachen	-11.8218
▁pfeifen	-11.8218
▁erdoberfläche	-11.8218
▁1984	-11.8218
▁dünger	-11.8218
▁nachthimmel	-11.8218
▁schema	-11.8218
▁scannen	-11.8219
▁geometrische	-11.8219
▁landwirte	-11.8219
▁input	-11.8219
▁diplomatie	-11.8219
▁blogger	-11.8219
▁gleichermaßen	-11.8219
▁einzuführen	-11.822
▁makro	-11.822
▁fischfang	-11.822
▁geschäftswelt	-11.8221
▁selbstvertrauen	-11.8221
▁gesteckt	-11.8221
▁afghanische	-11.8223
▁dergleichen	-11.8224
retro	-11.8225
▁leib	-11.8225
▁abgeschnitten	-11.8226
▁6.000	-11.8228
▁fixiert	-11.8228
▁eröffnung	-11.8229
modus	-11.823
breite	-11.823
▁einkaufs	-11.8231
▁bereitschaft	-11.8231
▁gelten	-11.8232
▁teilhaben	-11.8234
▁abhandlung	-11.8234
▁adresse	-11.8235
stheorie	-11.8241
▁umstritten	-11.8242
smethoden	-11.8243
▁faden	-11.8244
▁stadium	-11.8246
gesteuerte	-11.8247
kraftwerk	-11.8248
▁klimaanlage	-11.825
▁verschwendung	-11.825
▁1,3	-11.8252
▁moskitos	-11.8253
▁kong	-11.8254
▁umdrehen	-11.8255
▁stränge	-11.8256
▁beach	-11.8259
▁elektrisch	-11.8259
▁alan	-11.8261
▁mittelalter	-11.8261
▁angerufen	-11.8261
▁flossen	-11.8265
schätzt	-11.827
▁tasse	-11.8272
▁messbar	-11.8272
▁quo	-11.828
häusern	-11.8287
▁zeilen	-11.8288
▁träger	-11.8289
▁ehrgeizig	-11.8293
▁blüten	-11.8297
▁lebenszeit	-11.8297
▁kürzeste	-11.8299
▁hinausgehen	-11.8299
uni	-11.8302
▁mont	-11.8307
▁zentren	-11.831
schied	-11.8311
▁flecken	-11.8318
▁stab	-11.8323
schütze	-11.8326
▁ausschalten	-11.8329
▁140	-11.833
▁besaßen	-11.8333
▁qualifiziert	-11.8337
▁gleichberechtig	-11.834
▁spielerisch	-11.8345
reform	-11.8356
sprachige	-11.8364
▁geringere	-11.8365
▁umsatz	-11.8371
▁teuren	-11.8374
▁strukturelle	-11.8376
▁vermutet	-11.838
▁patientin	-11.8388
84	-11.8388
▁180	-11.8388
▁antike	-11.8391
▁bewege	-11.8401
▁unfähig	-11.8405
▁besuche	-11.8412
▁mehrfach	-11.8413
▁dor	-11.842
mord	-11.842
▁mög	-11.8425
▁landung	-11.8426
▁steig	-11.8427
life	-11.843
wuchs	-11.8435
zuschlagen	-11.8438
▁eth	-11.844
▁sprech	-11.844
brief	-11.8445
▁irren	-11.8447
▁cro	-11.845
morgen	-11.8456
▁uv	-11.8458
▁setze	-11.8459
▁schaffe	-11.8459
▁fünften	-11.8459
▁cu	-11.8465
name	-11.8471
▁anschließen	-11.8472
▁klappe	-11.8475
▁wür	-11.8478
schieben	-11.8482
leuchtet	-11.8482
▁ablaufen	-11.8483
zoomen	-11.8487
förderung	-11.8488
höhle	-11.8488
schießen	-11.8488
batterie	-11.8488
grafik	-11.8488
schwimmen	-11.8488
soldaten	-11.8488
transport	-11.8488
zusammen	-11.8488
mächtige	-11.8488
▁härte	-11.849
mauer	-11.8491
super	-11.8492
werden	-11.8494
▁vorbilder	-11.8497
verlauf	-11.8501
▁universell	-11.8503
strahlung	-11.8505
▁ev	-11.8506
psycho	-11.8508
vel	-11.8508
brille	-11.8511
feier	-11.8517
work	-11.852
präsident	-11.8523
▁instabil	-11.8529
sprüche	-11.8529
▁arznei	-11.8529
▁scheidung	-11.853
▁stimulation	-11.853
regisseur	-11.853
▁ausgedacht	-11.853
▁ausgerottet	-11.853
▁begeistern	-11.853
▁cortex	-11.853
▁hamburger	-11.853
▁kaninchen	-11.853
▁kapitän	-11.853
▁knöpfe	-11.853
▁komponist	-11.853
▁lehnte	-11.853
▁liberia	-11.853
▁migration	-11.853
▁mohammed	-11.853
▁oberflächlich	-11.853
▁portugal	-11.853
▁renaissance	-11.853
▁schoß	-11.853
▁sediment	-11.853
▁synthese	-11.853
▁umzuwandeln	-11.853
▁unberührt	-11.853
▁widersprüchlich	-11.853
▁befreiung	-11.853
▁doodle	-11.853
▁köder	-11.853
▁mikrobielle	-11.853
▁eingerichtet	-11.853
▁kansas	-11.853
▁geschlafen	-11.853
▁schwingung	-11.853
▁social	-11.853
▁häusliche	-11.853
▁riskant	-11.853
▁verschickt	-11.853
▁zusammenfassung	-11.853
▁kiefer	-11.853
▁simpel	-11.853
▁bestmögliche	-11.853
▁vermehrt	-11.853
▁verschlüsselt	-11.853
▁übereinstimmen	-11.853
▁pendel	-11.853
▁verkörpert	-11.853
▁nepal	-11.853
▁stockwerke	-11.853
▁hmm	-11.853
▁verfasst	-11.853
▁übertrieben	-11.853
▁regenerieren	-11.853
▁spot	-11.8531
▁fürsorge	-11.8531
▁typischerweise	-11.8531
▁übermitteln	-11.8531
▁ausgesucht	-11.8531
▁informelle	-11.8531
freak	-11.8531
▁aufzuhören	-11.8531
▁staunen	-11.8531
▁erstreckt	-11.8532
▁nobelpreis	-11.8532
▁regenwasser	-11.8532
▁rod	-11.8532
▁neigt	-11.8532
▁entwürfe	-11.8532
▁mittelklasse	-11.8532
gereicht	-11.8533
▁waage	-11.8533
meile	-11.8533
▁hochgeladen	-11.8534
▁sperr	-11.8534
▁strang	-11.8534
verbindung	-11.8535
▁wahrzunehmen	-11.8535
▁ooh	-11.854
▁versammlung	-11.854
▁untergrund	-11.8541
wandel	-11.8542
▁regelrecht	-11.8542
▁öffnung	-11.8544
▁grundsätze	-11.8545
▁astronomie	-11.8545
▁datensatz	-11.8545
▁fell	-11.8546
▁biotechnologie	-11.8546
▁hip	-11.8547
zuschauen	-11.8548
▁positiver	-11.8548
▁ewigkeit	-11.8549
▁zeremonie	-11.8549
▁abschneiden	-11.855
▁community	-11.8551
▁tust	-11.8551
tam	-11.8555
▁unterbrechen	-11.8557
▁rennt	-11.8559
▁sandwich	-11.8559
▁dosis	-11.856
▁urin	-11.856
▁lila	-11.8561
▁betrügen	-11.8564
beziehungen	-11.8566
▁wandelt	-11.857
ungleichgewicht	-11.8573
▁empfehlen	-11.8574
▁denjenigen	-11.8575
▁konsumiert	-11.8576
fort	-11.8579
rankenschwestern	-11.8579
elemente	-11.8584
kurbel	-11.859
▁bräuchten	-11.8595
▁nigerianische	-11.8598
▁tedtalks	-11.8604
▁einklang	-11.8608
leitet	-11.8609
▁american	-11.861
▁konkret	-11.861
dna	-11.8611
▁herausstellte	-11.8613
▁respektiert	-11.8616
▁erraten	-11.862
▁sensorische	-11.8622
▁erzogen	-11.8623
▁peru	-11.8624
lohn	-11.8624
folgsgeschichte	-11.8625
wasch	-11.8626
▁mutationen	-11.8637
gewinnung	-11.8639
mitte	-11.8646
fände	-11.8648
bad	-11.865
▁auffällig	-11.8653
▁anblick	-11.8655
▁lebensweise	-11.8659
erzähl	-11.8663
gehörigkeit	-11.8665
▁biologischer	-11.8667
▁umgibt	-11.8672
▁kollektiv	-11.8675
▁image	-11.868
▁surfen	-11.868
letzte	-11.8684
▁schulsystem	-11.8692
ible	-11.8702
▁visueller	-11.8714
▁psychologischen	-11.8715
stopp	-11.8723
▁seltener	-11.8724
▁arktis	-11.8733
platte	-11.8737
▁journal	-11.8738
▁verspreche	-11.8739
uff	-11.8756
▁gebete	-11.8757
▁dreck	-11.8758
▁blei	-11.8758
▁slum	-11.8771
▁zeile	-11.8778
▁schwimmende	-11.8781
▁fundamentalen	-11.8784
▁schaltkreis	-11.879
▁schwierigkeit	-11.8792
▁nachhaltiger	-11.8799
wählt	-11.8805
▁einschränkung	-11.8805
schicken	-11.8806
verwaltung	-11.881
wurzel	-11.881
truppen	-11.881
helfer	-11.881
restaurant	-11.881
instrument	-11.881
telefon	-11.881
paket	-11.881
konsum	-11.8811
vielleicht	-11.8811
besser	-11.8812
wandert	-11.8816
mangel	-11.882
head	-11.8823
▁schließe	-11.8827
wandern	-11.8829
▁erfolgreichste	-11.8832
▁fix	-11.8846
profess	-11.8849
knüpf	-11.8852
▁arduino	-11.8852
▁reputation	-11.8852
diskriminierung	-11.8852
splitter	-11.8852
tklässler	-11.8852
▁1996	-11.8852
▁angeordnet	-11.8852
▁erfreut	-11.8852
▁frisst	-11.8852
▁grammatik	-11.8852
▁gruselig	-11.8852
▁hammer	-11.8852
▁horror	-11.8852
▁immobilien	-11.8852
▁integration	-11.8852
▁integrität	-11.8852
▁jefferson	-11.8852
▁kosovo	-11.8852
▁libellen	-11.8852
▁marihuana	-11.8852
▁namibia	-11.8852
▁oklahoma	-11.8852
▁research	-11.8852
▁unausweichlich	-11.8852
▁unvermeidbar	-11.8852
▁unvermeidlich	-11.8852
▁verabschiedet	-11.8852
▁zittern	-11.8852
▁äquivalent	-11.8852
bombenzielgerät	-11.8852
▁anatomie	-11.8852
▁vordergrund	-11.8852
▁bahnbrechende	-11.8852
▁beschränken	-11.8852
▁einzufangen	-11.8852
▁essentiell	-11.8852
▁gesendet	-11.8852
▁powerpoint	-11.8852
▁lewis	-11.8852
▁koffer	-11.8852
▁belohnen	-11.8852
▁beschweren	-11.8853
▁trauen	-11.8853
▁fruchtfliege	-11.8853
▁museen	-11.8853
▁gefeiert	-11.8853
▁polymer	-11.8853
▁eindrucksvoll	-11.8853
▁tagsüber	-11.8853
▁vernetzen	-11.8853
▁vorsitzende	-11.8853
▁nordwest	-11.8853
▁vorlieben	-11.8853
▁wellenlänge	-11.8853
▁anforderungen	-11.8853
▁werkstatt	-11.8853
▁röhren	-11.8853
▁dirigent	-11.8853
▁verlässlich	-11.8853
▁food	-11.8853
katalog	-11.8854
▁ideologisch	-11.8854
▁hervorheben	-11.8854
▁erkrankt	-11.8854
▁banal	-11.8854
▁windenergie	-11.8855
▁umkreisen	-11.8855
▁snowden	-11.8855
▁gemeinsamkeiten	-11.8855
▁abkürzung	-11.8855
böden	-11.8855
▁übt	-11.8856
▁roger	-11.8856
▁stereotyp	-11.8856
▁queen	-11.8856
▁freigesetzt	-11.8857
▁glänzende	-11.8858
▁geehrt	-11.8858
▁ceo	-11.8858
▁geldgeber	-11.8861
▁entführt	-11.8861
▁puzzle	-11.8862
▁schleuder	-11.8862
▁dj	-11.8862
▁handvoll	-11.8863
undeutlich	-11.8864
▁käfig	-11.8864
▁handschrift	-11.8866
▁kollaps	-11.8866
▁manipulation	-11.8866
▁trinkt	-11.8866
möglichkeit	-11.8866
▁zweifellos	-11.8867
▁tick	-11.8868
▁heiratete	-11.8868
▁60.000	-11.887
▁verlegt	-11.887
▁pier	-11.8871
erinner	-11.8871
▁moma	-11.8872
▁tedx	-11.8872
▁52	-11.8873
▁infektions	-11.8876
▁schildkröte	-11.8876
▁gelegen	-11.8883
▁operiert	-11.8884
hund	-11.8884
▁transplantation	-11.8884
▁toleranz	-11.889
▁skizzen	-11.889
▁klarheit	-11.8894
▁unternahm	-11.8897
▁kette	-11.8912
▁iranische	-11.8913
▁gerissen	-11.8918
umweltfreundlich	-11.8921
▁aufgeteilt	-11.8923
adapt	-11.8928
▁game	-11.8933
▁tedster	-11.8936
field	-11.8942
note	-11.8945
guru	-11.8952
▁weltwirtschaft	-11.8954
halter	-11.8958
▁reichlich	-11.8958
ima	-11.896
▁prima	-11.8962
dik	-11.8967
drucker	-11.8971
16	-11.8976
klang	-11.8982
▁format	-11.8992
▁wohltätigkeits	-11.8992
talk	-11.8997
▁erträge	-11.9
dimensionalen	-11.9
▁rezeptor	-11.9006
▁argumentiert	-11.9008
▁kommerziell	-11.9021
▁liebend	-11.9027
▁tau	-11.9043
kli	-11.905
ladung	-11.9063
▁bedeutendste	-11.9065
rausch	-11.9086
▁mahlzeit	-11.9087
▁priorität	-11.9087
▁96	-11.909
▁liess	-11.9093
fährt	-11.9104
heiß	-11.9121
▁infektion	-11.9121
▁verhältnisse	-11.9131
natürlich	-11.9133
schrecken	-11.9136
drängt	-11.9137
mobil	-11.9141
hülle	-11.9144
güter	-11.9144
effizienz	-11.9144
himmel	-11.9144
persönlichkeit	-11.9144
tödliche	-11.9144
könig	-11.9144
freude	-11.9144
können	-11.9144
berater	-11.9144
partei	-11.9145
strafe	-11.9146
herrschaft	-11.9148
schalter	-11.9148
anteil	-11.9154
beruf	-11.9155
prozessor	-11.9163
▁wehr	-11.9163
▁computerspiele	-11.918
▁fettleibig	-11.9183
▁treibhaus	-11.9184
▁drama	-11.9185
▁1991	-11.9186
▁1993	-11.9186
▁babbage	-11.9186
▁bangalore	-11.9186
▁beschützt	-11.9186
▁cyberkriminelle	-11.9186
▁deprimiert	-11.9186
▁europäer	-11.9186
▁expansion	-11.9186
▁gekennzeichnet	-11.9186
▁gespendet	-11.9186
▁gestört	-11.9186
▁herausragend	-11.9186
▁improvisieren	-11.9186
▁katholische	-11.9186
▁palästina	-11.9186
▁qualitativ	-11.9186
▁schwellenländer	-11.9186
▁todesursache	-11.9186
▁umwandlung	-11.9186
▁verabschieden	-11.9186
▁zensur	-11.9186
▁ängstlich	-11.9186
konfiguration	-11.9186
ó	-11.9186
▁ausdauer	-11.9186
▁besiegt	-11.9186
▁football	-11.9186
▁kritisiert	-11.9186
▁mitternacht	-11.9186
▁nordkorea	-11.9186
▁sanitär	-11.9186
▁selbständig	-11.9186
▁tuberkulose	-11.9186
▁unfair	-11.9186
▁verallgemeiner	-11.9186
▁verschrieben	-11.9186
▁vinci	-11.9186
▁entschlüsseln	-11.9186
▁erhoben	-11.9186
▁oliver	-11.9186
▁exotische	-11.9186
▁bewerben	-11.9186
▁rechtfertigen	-11.9186
▁eingreifen	-11.9186
▁bleistift	-11.9186
▁glaubwürdig	-11.9186
▁verwurzelt	-11.9186
▁tropen	-11.9186
▁inflation	-11.9186
▁kündigte	-11.9186
▁michigan	-11.9186
▁echo	-11.9186
▁ebay	-11.9186
▁verbleibende	-11.9186
spaltung	-11.9186
▁prothesen	-11.9186
▁eiweiß	-11.9186
▁lastwagen	-11.9186
▁vereinigung	-11.9186
▁ausbreitet	-11.9186
▁hoffnungsvoll	-11.9187
▁schifffahrt	-11.9187
▁heilmittel	-11.9187
▁aufpassen	-11.9187
schaltet	-11.9187
▁reproduzieren	-11.9187
▁bildhauer	-11.9187
▁betriebssystem	-11.9188
▁indigene	-11.9188
▁schulbildung	-11.9188
▁lebensstandard	-11.9189
▁nsa	-11.9189
▁testeten	-11.9189
▁entsprach	-11.9189
▁jill	-11.9189
invasiv	-11.9189
▁stürme	-11.919
▁zweitgrößte	-11.919
gelagert	-11.919
▁blindheit	-11.9191
▁schadstoffe	-11.9191
▁blockieren	-11.9192
▁hosen	-11.9194
▁aquarium	-11.9194
▁uran	-11.9196
▁avatar	-11.9197
▁stone	-11.9198
▁beheben	-11.9199
ermittlung	-11.9199
▁pick	-11.9199
▁herauskommt	-11.9206
▁äste	-11.9206
▁bestellt	-11.9208
▁ehrlichkeit	-11.9211
▁stürzen	-11.922
▁erfährt	-11.9221
▁hindu	-11.9224
▁schnellste	-11.9224
▁scanner	-11.9224
▁just	-11.9225
▁one	-11.9228
szene	-11.9228
▁schrecken	-11.9229
▁paket	-11.923
▁kerzen	-11.923
▁flammen	-11.9234
sharing	-11.9234
▁spruch	-11.9235
schöpfung	-11.9235
▁offenbarung	-11.9235
▁kraftwerk	-11.9239
!“	-11.9241
lasst	-11.9241
▁malerei	-11.9244
▁sequenziert	-11.9248
▁locker	-11.9248
▁bekannteste	-11.925
▁maul	-11.9258
▁helfer	-11.9266
▁kriminellen	-11.9274
▁versuchung	-11.9276
▁plato	-11.9279
▁pillen	-11.928
▁breitet	-11.929
view	-11.9292
▁kocht	-11.9292
kabine	-11.9294
▁ausdenken	-11.93
▁unternehmerisch	-11.9301
▁chat	-11.9315
▁missbraucht	-11.9328
▁schwerpunkt	-11.934
▁laune	-11.934
▁low	-11.9344
▁lokaler	-11.9347
▁ethischen	-11.9356
sbedingungen	-11.9356
▁papp	-11.9362
maßnahme	-11.9366
▁54	-11.9383
staatliche	-11.9384
bildet	-11.9385
schlacht	-11.9395
rose	-11.9397
west	-11.9404
▁reichste	-11.9408
▁projektion	-11.9409
▁emotion	-11.9416
▁sauberer	-11.9419
▁variation	-11.9432
▁muslim	-11.9439
▁lüge	-11.9446
zusammengestellt	-11.9449
▁zeig	-11.9471
nimm	-11.9472
haftigkeit	-11.9475
stimmt	-11.9476
▁homosexuelle	-11.9477
keine	-11.948
haltige	-11.9488
nummer	-11.9488
kolonie	-11.9488
mechanismen	-11.9488
rezept	-11.9488
schlägt	-11.9488
veranstaltung	-11.9488
flagge	-11.9489
diagramm	-11.9489
schub	-11.949
gegriffen	-11.9491
abschnitt	-11.9493
▁zehntausend	-11.9498
sterben	-11.9501
book	-11.951
entscheidungen	-11.9511
zuheben	-11.9514
ogramm	-11.9521
zusteigen	-11.9528
öffne	-11.9529
▁schwefel	-11.953
▁analphabet	-11.9531
eigentümer	-11.9531
gebrannt	-11.9531
è	-11.9531
▁amsterdam	-11.9531
▁autoritäre	-11.9531
▁brokkoli	-11.9531
▁edinburgh	-11.9531
▁emily	-11.9531
▁ergänzen	-11.9531
▁gekostet	-11.9531
▁gestresst	-11.9531
▁hypothetisch	-11.9531
▁isolation	-11.9531
▁kathedrale	-11.9531
▁klienten	-11.9531
▁kompetent	-11.9531
▁krokodil	-11.9531
▁kumpel	-11.9531
▁lebensdauer	-11.9531
▁mechanik	-11.9531
▁mineralien	-11.9531
▁mönch	-11.9531
▁neanderthaler	-11.9531
▁neurogenese	-11.9531
▁phantasie	-11.9531
▁propaganda	-11.9531
▁rassismus	-11.9531
▁selektiv	-11.9531
▁stürzt	-11.9531
▁unterdrückung	-11.9531
▁unvollständig	-11.9531
▁vegetation	-11.9531
▁verdeutlichen	-11.9531
▁vogelgrippe	-11.9531
simulator	-11.9531
▁gewartet	-11.9531
▁larven	-11.9531
▁mammut	-11.9531
▁schlaganfall	-11.9531
▁tyrann	-11.9531
▁royal	-11.9531
▁barrel	-11.9531
▁central	-11.9531
▁libyen	-11.9531
▁konsens	-11.9531
▁folter	-11.9531
▁gratis	-11.9531
▁faust	-11.9531
▁savanne	-11.9531
▁deutet	-11.9531
▁küssen	-11.9531
▁bemerkung	-11.9531
▁versammeln	-11.9531
▁atmet	-11.9531
▁rasant	-11.9531
▁rechenleistung	-11.9531
▁übereinstimmung	-11.9531
▁gallone	-11.9531
▁ereignet	-11.9531
▁fürchterlich	-11.9531
▁keks	-11.9531
▁nerd	-11.9531
▁bewegliche	-11.9531
▁westküste	-11.9531
▁aufrechterhalt	-11.9531
▁peking	-11.9531
▁eisenbahn	-11.9531
▁klopft	-11.9531
▁unbedeutend	-11.9532
▁neuronale	-11.9532
▁hobby	-11.9532
mehl	-11.9532
▁handgelenk	-11.9532
▁testperson	-11.9532
▁russen	-11.9533
▁wörterbücher	-11.9533
porträt	-11.9533
▁schwärme	-11.9533
▁barack	-11.9534
▁gewünschte	-11.9534
▁leone	-11.9534
▁chirurgie	-11.9534
ish	-11.9534
▁erlernt	-11.9534
▁christliche	-11.9535
▁hausmeister	-11.9535
▁stillstand	-11.9535
▁mittelschicht	-11.9535
▁erlangt	-11.9536
▁herrschen	-11.9536
▁weide	-11.9536
▁operieren	-11.9536
▁susan	-11.9536
▁elementare	-11.9537
flut	-11.9538
▁bereitstellen	-11.9538
▁carol	-11.9539
▁verbrecher	-11.9539
▁abschied	-11.9539
onald	-11.954
▁80%	-11.954
▁innerlich	-11.9541
▁bedingt	-11.9541
▁zusammensetzung	-11.9542
▁loslassen	-11.9542
▁besprechen	-11.9545
▁signatur	-11.9545
▁tool	-11.9545
▁abgrund	-11.9546
▁besprechung	-11.9546
▁hinsehen	-11.9547
hhh	-11.9547
▁geliefert	-11.9549
▁netto	-11.9549
scheiß	-11.955
▁wegnehmen	-11.9552
▁gärten	-11.9552
▁erfassung	-11.9554
▁treffer	-11.9554
▁hunt	-11.9554
▁volumen	-11.9555
▁begrüßen	-11.9558
▁schrank	-11.9558
▁egoistisch	-11.9559
▁andern	-11.956
▁datei	-11.9564
▁hiervon	-11.9568
▁brauchbar	-11.9572
▁anfühlen	-11.9573
▁täten	-11.9573
▁mak	-11.9573
quadratkilometer	-11.9573
▁drängt	-11.9575
▁überlebenden	-11.9577
zufinden	-11.9579
▁läden	-11.9579
▁zurückbringen	-11.9579
thro	-11.9579
▁pfleger	-11.958
▁schatz	-11.9584
▁einzelteile	-11.9601
▁uno	-11.9601
300	-11.9602
▁anleitung	-11.9602
25	-11.9611
▁feiert	-11.9616
▁staates	-11.9623
▁leuchtende	-11.9627
rechne	-11.9639
▁dreckig	-11.9641
weiche	-11.9644
tral	-11.9648
ii	-11.9669
▁korallenriff	-11.9673
fühlen	-11.9678
[...]
